{
  "vocab": {
    "0": "<unk>",
    "1": "<pad>",
    "2": "<s>",
    "3": "</s>",
    "4": "!",
    "5": ".",
    "6": "B",
    "7": "E",
    "8": "H",
    "9": "L",
    "10": "M",
    "11": "N",
    "12": "P",
    "13": "S",
    "14": "T",
    "15": "V",
    "16": "a",
    "17": "b",
    "18": "c",
    "19": "d",
    "20": "e",
    "21": "f",
    "22": "g",
    "23": "h",
    "24": "i",
    "25": "j",
    "26": "k",
    "27": "l",
    "28": "m",
    "29": "n",
    "30": "o",
    "31": "p",
    "32": "q",
    "33": "r",
    "34": "s",
    "35": "t",
    "36": "u",
    "37": "v",
    "38": "w",
    "39": "x",
    "40": "y",
    "41": "z",
    "42": "in",
    "43": "en",
    "44": "an",
    "45": "or",
    "46": "er",
    "47": "he",
    "48": "ing",
    "49": "ar",
    "50": "iz",
    "51": "od",
    "52": "is",
    "53": "el",
    "54": "ce",
    "55": "at",
    "56": "on",
    "57": "le",
    "58": "ok",
    "59": "oken",
    "60": "okeniz",
    "61": "ro",
    "62": "mp",
    "63": "the",
    "64": "st",
    "65": "for",
    "66": "wor",
    "67": "s.",
    "68": "ag",
    "69": "ic",
    "70": "and",
    "71": "yt",
    "72": "ir",
    "73": "ul",
    "74": "ff",
    "75": "ub",
    "76": "of",
    "77": "word",
    "78": "tokeniz",
    "79": "ati",
    "80": "ation",
    "81": "lan",
    "82": "lang",
    "83": "langu",
    "84": "languag",
    "85": "language",
    "86": "The",
    "87": "qu",
    "88": "cod",
    "89": "ab",
    "90": "ent",
    "91": "ine",
    "92": "sub",
    "93": "al",
    "94": "ence",
    "95": "ular",
    "96": "ts",
    "97": "mod",
    "98": "model",
    "99": "pro",
    "100": "un",
    "101": "ex",
    "102": "quic",
    "103": "quick",
    "104": "bro",
    "105": "brow",
    "106": "brown",
    "107": "fo",
    "108": "fox",
    "109": "ju",
    "110": "jump",
    "111": "jumps",
    "112": "ov",
    "113": "over",
    "114": "la",
    "115": "laz",
    "116": "lazy",
    "117": "do",
    "118": "dog",
    "119": "stand",
    "120": "Byt",
    "121": "Byte",
    "122": "air",
    "123": "coding",
    "124": "Pyt",
    "125": "Pyth",
    "126": "Python",
    "127": "be",
    "128": "re",
    "129": "eff",
    "130": "ici",
    "131": "Ma",
    "132": "Mac",
    "133": "Mach",
    "134": "Machine",
    "135": "lear",
    "136": "learn",
    "137": "learning",
    "138": "se",
    "139": "ti",
    "140": "int",
    "141": "ell",
    "142": "ence.",
    "143": "oc",
    "144": "ocab",
    "145": "ocabular",
    "146": "ocabulary",
    "147": "siz",
    "148": "size",
    "149": "ec",
    "150": "form",
    "151": "subword",
    "152": "tokenization",
    "153": "tokenization.",
    "154": "tokenizer",
    "155": "it",
    "156": "ra",
    "157": "dat",
    "158": "data",
    "159": "Tokeniz",
    "160": "Tokenization",
    "161": "pi",
    "162": "models",
    "163": "ed",
    "164": "proce",
    "165": "proces",
    "166": "process",
    "167": "tex",
    "168": "text",
    "169": "mple",
    "170": "dog.",
    "171": "BP",
    "172": "BPE",
    "173": "stands",
    "174": "Pair",
    "175": "En",
    "176": "Encoding",
    "177": "Encoding.",
    "178": "code",
    "179": "sh",
    "180": "sho",
    "181": "shoul",
    "182": "should",
    "183": "rea",
    "184": "read",
    "185": "readab",
    "186": "readable",
    "187": "effici",
    "188": "efficient",
    "189": "efficient.",
    "190": "subse",
    "191": "subset",
    "192": "arti",
    "193": "artif",
    "194": "artifici",
    "195": "artificial",
    "196": "intell",
    "197": "intelli",
    "198": "intellig",
    "199": "intelligence.",
    "200": "vocabulary",
    "201": "aff",
    "202": "affec",
    "203": "affects",
    "204": "per",
    "205": "perform",
    "206": "performan",
    "207": "performance",
    "208": "performance.",
    "209": "pair",
    "210": "encoding",
    "211": "Te",
    "212": "Test",
    "213": "Testing",
    "214": "wit",
    "215": "with",
    "216": "var",
    "217": "vari",
    "218": "vario",
    "219": "variou",
    "220": "various",
    "221": "sent",
    "222": "sentence",
    "223": "sentences.",
    "224": "po",
    "225": "pop",
    "226": "popular",
    "227": "prog",
    "228": "progra",
    "229": "program",
    "230": "programm",
    "231": "programming",
    "232": "sc",
    "233": "sci",
    "234": "science.",
    "235": "Sub",
    "236": "Subword",
    "237": "uni",
    "238": "units",
    "239": "hand",
    "240": "handle",
    "241": "rar",
    "242": "rare",
    "243": "words",
    "244": "effec",
    "245": "effecti",
    "246": "effectiv",
    "247": "effectivel",
    "248": "effectively",
    "249": "effectively.",
    "250": "fir",
    "251": "first",
    "252": "ste",
    "253": "step",
    "254": "NL",
    "255": "NLP",
    "256": "pip",
    "257": "pipel",
    "258": "pipeline",
    "259": "pipelines.",
    "260": "ne",
    "261": "need",
    "262": "lo",
    "263": "lots",
    "264": "data.",
    "265": "Nat",
    "266": "Natu",
    "267": "Natur",
    "268": "Natural",
    "269": "processing",
    "270": "hel",
    "271": "help",
    "272": "helps",
    "273": "co",
    "274": "comp",
    "275": "compu",
    "276": "comput",
    "277": "computer",
    "278": "computers",
    "279": "und",
    "280": "under",
    "281": "understand",
    "282": "hu",
    "283": "hum",
    "284": "human",
    "285": "language.",
    "286": "Tra",
    "287": "Train",
    "288": "Training",
    "289": "requ",
    "290": "requir",
    "291": "require",
    "292": "requires",
    "293": "lar",
    "294": "larg",
    "295": "large",
    "296": "cor",
    "297": "corp",
    "298": "corpu",
    "299": "corpus.",
    "300": "Vocabulary",
    "301": "can",
    "302": "tun",
    "303": "tuned",
    "304": "di",
    "305": "diff",
    "306": "differ",
    "307": "different",
    "308": "ta",
    "309": "tas",
    "310": "task",
    "311": "tasks.",
    "312": "sp",
    "313": "spl",
    "314": "split",
    "315": "splitt",
    "316": "splitting",
    "317": "into",
    "318": "sm",
    "319": "smal",
    "320": "small",
    "321": "smaller",
    "322": "pie",
    "323": "piece",
    "324": "pieces.",
    "325": "aga",
    "326": "again",
    "327": "again.",
    "328": "Mod",
    "329": "Moder",
    "330": "Modern",
    "331": "use",
    "332": "Hell",
    "333": "Hello",
    "334": "worl",
    "335": "world",
    "336": "world!",
    "337": "Th",
    "338": "This",
    "339": "si",
    "340": "simple",
    "341": "exa",
    "342": "example",
    "343": "example."
  },
  "merges": {
    "i||n": "in",
    "e||n": "en",
    "a||n": "an",
    "o||r": "or",
    "e||r": "er",
    "h||e": "he",
    "in||g": "ing",
    "a||r": "ar",
    "i||z": "iz",
    "o||d": "od",
    "i||s": "is",
    "e||l": "el",
    "c||e": "ce",
    "a||t": "at",
    "o||n": "on",
    "l||e": "le",
    "o||k": "ok",
    "ok||en": "oken",
    "oken||iz": "okeniz",
    "r||o": "ro",
    "m||p": "mp",
    "t||he": "the",
    "s||t": "st",
    "f||or": "for",
    "w||or": "wor",
    "s||.": "s.",
    "a||g": "ag",
    "i||c": "ic",
    "an||d": "and",
    "y||t": "yt",
    "i||r": "ir",
    "u||l": "ul",
    "f||f": "ff",
    "u||b": "ub",
    "o||f": "of",
    "wor||d": "word",
    "t||okeniz": "tokeniz",
    "at||i": "ati",
    "ati||on": "ation",
    "l||an": "lan",
    "lan||g": "lang",
    "lang||u": "langu",
    "langu||ag": "languag",
    "languag||e": "language",
    "T||he": "The",
    "q||u": "qu",
    "c||od": "cod",
    "a||b": "ab",
    "en||t": "ent",
    "in||e": "ine",
    "s||ub": "sub",
    "a||l": "al",
    "en||ce": "ence",
    "ul||ar": "ular",
    "t||s": "ts",
    "m||od": "mod",
    "mod||el": "model",
    "p||ro": "pro",
    "u||n": "un",
    "e||x": "ex",
    "qu||ic": "quic",
    "quic||k": "quick",
    "b||ro": "bro",
    "bro||w": "brow",
    "brow||n": "brown",
    "f||o": "fo",
    "fo||x": "fox",
    "j||u": "ju",
    "ju||mp": "jump",
    "jump||s": "jumps",
    "o||v": "ov",
    "ov||er": "over",
    "l||a": "la",
    "la||z": "laz",
    "laz||y": "lazy",
    "d||o": "do",
    "do||g": "dog",
    "st||and": "stand",
    "B||yt": "Byt",
    "Byt||e": "Byte",
    "a||ir": "air",
    "cod||ing": "coding",
    "P||yt": "Pyt",
    "Pyt||h": "Pyth",
    "Pyth||on": "Python",
    "b||e": "be",
    "r||e": "re",
    "e||ff": "eff",
    "ic||i": "ici",
    "M||a": "Ma",
    "Ma||c": "Mac",
    "Mac||h": "Mach",
    "Mach||ine": "Machine",
    "le||ar": "lear",
    "lear||n": "learn",
    "learn||ing": "learning",
    "s||e": "se",
    "t||i": "ti",
    "in||t": "int",
    "el||l": "ell",
    "ence||.": "ence.",
    "o||c": "oc",
    "oc||ab": "ocab",
    "ocab||ular": "ocabular",
    "ocabular||y": "ocabulary",
    "s||iz": "siz",
    "siz||e": "size",
    "e||c": "ec",
    "for||m": "form",
    "sub||word": "subword",
    "tokeniz||ation": "tokenization",
    "tokenization||.": "tokenization.",
    "tokeniz||er": "tokenizer",
    "i||t": "it",
    "r||a": "ra",
    "d||at": "dat",
    "dat||a": "data",
    "T||okeniz": "Tokeniz",
    "Tokeniz||ation": "Tokenization",
    "p||i": "pi",
    "model||s": "models",
    "e||d": "ed",
    "pro||ce": "proce",
    "proce||s": "proces",
    "proces||s": "process",
    "t||ex": "tex",
    "tex||t": "text",
    "mp||le": "mple",
    "dog||.": "dog.",
    "B||P": "BP",
    "BP||E": "BPE",
    "stand||s": "stands",
    "P||air": "Pair",
    "E||n": "En",
    "En||coding": "Encoding",
    "Encoding||.": "Encoding.",
    "cod||e": "code",
    "s||h": "sh",
    "sh||o": "sho",
    "sho||ul": "shoul",
    "shoul||d": "should",
    "re||a": "rea",
    "rea||d": "read",
    "read||ab": "readab",
    "readab||le": "readable",
    "eff||ici": "effici",
    "effici||ent": "efficient",
    "efficient||.": "efficient.",
    "sub||se": "subse",
    "subse||t": "subset",
    "ar||ti": "arti",
    "arti||f": "artif",
    "artif||ici": "artifici",
    "artifici||al": "artificial",
    "int||ell": "intell",
    "intell||i": "intelli",
    "intelli||g": "intellig",
    "intellig||ence.": "intelligence.",
    "v||ocabulary": "vocabulary",
    "a||ff": "aff",
    "aff||ec": "affec",
    "affec||ts": "affects",
    "p||er": "per",
    "per||form": "perform",
    "perform||an": "performan",
    "performan||ce": "performance",
    "performance||.": "performance.",
    "p||air": "pair",
    "en||coding": "encoding",
    "T||e": "Te",
    "Te||st": "Test",
    "Test||ing": "Testing",
    "w||it": "wit",
    "wit||h": "with",
    "v||ar": "var",
    "var||i": "vari",
    "vari||o": "vario",
    "vario||u": "variou",
    "variou||s": "various",
    "s||ent": "sent",
    "sent||ence": "sentence",
    "sentence||s.": "sentences.",
    "p||o": "po",
    "po||p": "pop",
    "pop||ular": "popular",
    "pro||g": "prog",
    "prog||ra": "progra",
    "progra||m": "program",
    "program||m": "programm",
    "programm||ing": "programming",
    "s||c": "sc",
    "sc||i": "sci",
    "sci||ence.": "science.",
    "S||ub": "Sub",
    "Sub||word": "Subword",
    "un||i": "uni",
    "uni||ts": "units",
    "h||and": "hand",
    "hand||le": "handle",
    "r||ar": "rar",
    "rar||e": "rare",
    "word||s": "words",
    "eff||ec": "effec",
    "effec||ti": "effecti",
    "effecti||v": "effectiv",
    "effectiv||el": "effectivel",
    "effectivel||y": "effectively",
    "effectively||.": "effectively.",
    "f||ir": "fir",
    "fir||st": "first",
    "st||e": "ste",
    "ste||p": "step",
    "N||L": "NL",
    "NL||P": "NLP",
    "pi||p": "pip",
    "pip||el": "pipel",
    "pipel||ine": "pipeline",
    "pipeline||s.": "pipelines.",
    "n||e": "ne",
    "ne||ed": "need",
    "l||o": "lo",
    "lo||ts": "lots",
    "data||.": "data.",
    "N||at": "Nat",
    "Nat||u": "Natu",
    "Natu||r": "Natur",
    "Natur||al": "Natural",
    "process||ing": "processing",
    "he||l": "hel",
    "hel||p": "help",
    "help||s": "helps",
    "c||o": "co",
    "co||mp": "comp",
    "comp||u": "compu",
    "compu||t": "comput",
    "comput||er": "computer",
    "computer||s": "computers",
    "un||d": "und",
    "und||er": "under",
    "under||stand": "understand",
    "h||u": "hu",
    "hu||m": "hum",
    "hum||an": "human",
    "language||.": "language.",
    "T||ra": "Tra",
    "Tra||in": "Train",
    "Train||ing": "Training",
    "re||qu": "requ",
    "requ||ir": "requir",
    "requir||e": "require",
    "require||s": "requires",
    "l||ar": "lar",
    "lar||g": "larg",
    "larg||e": "large",
    "c||or": "cor",
    "cor||p": "corp",
    "corp||u": "corpu",
    "corpu||s.": "corpus.",
    "V||ocabulary": "Vocabulary",
    "c||an": "can",
    "t||un": "tun",
    "tun||ed": "tuned",
    "d||i": "di",
    "di||ff": "diff",
    "diff||er": "differ",
    "differ||ent": "different",
    "t||a": "ta",
    "ta||s": "tas",
    "tas||k": "task",
    "task||s.": "tasks.",
    "s||p": "sp",
    "sp||l": "spl",
    "spl||it": "split",
    "split||t": "splitt",
    "splitt||ing": "splitting",
    "int||o": "into",
    "s||m": "sm",
    "sm||al": "smal",
    "smal||l": "small",
    "small||er": "smaller",
    "pi||e": "pie",
    "pie||ce": "piece",
    "piece||s.": "pieces.",
    "ag||a": "aga",
    "aga||in": "again",
    "again||.": "again.",
    "M||od": "Mod",
    "Mod||er": "Moder",
    "Moder||n": "Modern",
    "u||se": "use",
    "H||ell": "Hell",
    "Hell||o": "Hello",
    "wor||l": "worl",
    "worl||d": "world",
    "world||!": "world!",
    "T||h": "Th",
    "Th||is": "This",
    "s||i": "si",
    "si||mple": "simple",
    "ex||a": "exa",
    "exa||mple": "example",
    "example||.": "example."
  },
  "special_tokens": {
    "<unk>": 0,
    "<pad>": 1,
    "<s>": 2,
    "</s>": 3
  }
}