{"vocab": {" ": 0, "!": 1, "#": 2, "&": 3, "'": 4, "(": 5, ")": 6, ",": 7, "-": 8, ".": 9, "/": 10, "0": 11, "1": 12, "2": 13, "3": 14, "4": 15, "5": 16, "6": 17, "7": 18, "8": 19, "9": 20, ":": 21, ";": 22, "</w>": 23, "?": 24, "A": 25, "B": 26, "C": 27, "D": 28, "G": 29, "H": 30, "I": 31, "M": 32, "N": 33, "O": 34, "P": 35, "R": 36, "V": 37, "X": 38, "[": 39, "]": 40, "_": 41, "a": 42, "b": 43, "c": 44, "d": 45, "e": 46, "f": 47, "g": 48, "h": 49, "i": 50, "j": 51, "k": 52, "l": 53, "m": 54, "n": 55, "o": 56, "p": 57, "q": 58, "r": 59, "s": 60, "t": 61, "u": 62, "v": 63, "w": 64, "x": 65, "y": 66, "z": 67, " ": 68, "«": 69, "»": 70, "А": 71, "Б": 72, "В": 73, "Г": 74, "Д": 75, "Е": 76, "Ж": 77, "З": 78, "И": 79, "Й": 80, "К": 81, "Л": 82, "М": 83, "Н": 84, "О": 85, "П": 86, "Р": 87, "С": 88, "Т": 89, "У": 90, "Ф": 91, "Х": 92, "Ц": 93, "Ч": 94, "Ш": 95, "Щ": 96, "Ь": 97, "Э": 98, "Ю": 99, "Я": 100, "а": 101, "б": 102, "в": 103, "г": 104, "д": 105, "е": 106, "ж": 107, "з": 108, "и": 109, "й": 110, "к": 111, "л": 112, "м": 113, "н": 114, "о": 115, "п": 116, "р": 117, "с": 118, "т": 119, "у": 120, "ф": 121, "х": 122, "ц": 123, "ч": 124, "ш": 125, "щ": 126, "ъ": 127, "ы": 128, "ь": 129, "э": 130, "ю": 131, "я": 132, "ё": 133, "–": 134, "—": 135, "“": 136, "„": 137, "…": 138, "№": 139, ",</w>": 140, "о</w>": 141, "и</w>": 142, "е</w>": 143, "а</w>": 144, "ст": 145, ".</w>": 146, "ов": 147, "я</w>": 148, "по": 149, "ь</w>": 150, "ни": 151, "ал": 152, "пр": 153, "ко": 154, "то": 155, "то</w>": 156, "—</w>": 157, "ер": 158, "ка": 159, "ет": 160, "на": 161, "ел": 162, "м</w>": 163, "ра": 164, "ен": 165, "но": 166, "й</w>": 167, "от": 168, "ил": 169, "не": 170, "у</w>": 171, "в</w>": 172, "не</w>": 173, "к</w>": 174, "ит": 175, "он": 176, "го</w>": 177, "бы": 178, "во": 179, "ва": 180, "но</w>": 181, "од": 182, "на</w>": 183, "за": 184, "с</w>": 185, "что</w>": 186, "!</w>": 187, "вс": 188, "об": 189, "ол": 190, "ор": 191, "ед": 192, "сл": 193, "ь,</w>": 194, "ны": 195, "та": 196, "ем": 197, "ру": 198, "вы": 199, "ат": 200, "ос": 201, "же</w>": 202, "е,</w>": 203, "х</w>": 204, "ас": 205, "да": 206, "мо": 207, "ль": 208, "…</w>": 209, "ну": 210, "?</w>": 211, "ест": 212, "я,</w>": 213, "ю</w>": 214, "он</w>": 215, "при": 216, "и,</w>": 217, "ся</w>": 218, "его</w>": 219, "ес": 220, "ал</w>": 221, "был": 222, "го": 223, "ени": 224, "ро": 225, "ви": 226, "уд": 227, "пер": 228, "раз": 229, "ят": 230, "как</w>": 231, "ем</w>": 232, "ли": 233, "ум": 234, "ки": 235, "ри": 236, "ы</w>": 237, "про": 238, "из": 239, "под": 240, "ла": 241, "ча": 242, "са": 243, "ре": 244, "да</w>": 245, "у,</w>": 246, "ков": 247, "ма": 248, "нов": 249, "те": 250, "ет</w>": 251, "ель": 252, "-то</w>": 253, "ис": 254, "ко</w>": 255, ";</w>": 256, "коль": 257, "ил</w>": 258, "до": 259, "ста": 260, "уж": 261, "ин": 262, "й,</w>": 263, "бы</w>": 264, "от</w>": 265, "дел": 266, "т</w>": 267, "дру": 268, "ников": 269, "м,</w>": 270, "ез": 271, "это</w>": 272, "буд": 273, "см": 274, "гов": 275, ":</w>": 276, "се": 277, "вер": 278, "ств": 279, "Рас": 280, "ещ": 281, "зна": 282, "кольников": 283, "так</w>": 284, "Раскольников": 285, "гл": 286, "всё": 287, "ши": 288, "ров": 289, "это": 290, "ска": 291, "ми": 292, "а,</w>": 293, "г</w>": 294, "оч": 295, "мен": 296, "говор": 297, "сто": 298, "но,</w>": 299, "еж": 300, "ми</w>": 301, "нул": 302, "что": 303, "всё</w>": 304, "ич": 305, "ож": 306, "му</w>": 307, "ел</w>": 308, "сво": 309, "ся": 310, "н</w>": 311, "де": 312, "ход": 313, "пол": 314, "ее</w>": 315, "ав": 316, "за</w>": 317, "гда</w>": 318, "ть</w>": 319, "ял": 320, "рас": 321, "ры": 322, "чи": 323, "ь.</w>": 324, "ся,</w>": 325, "вы</w>": 326, "ей</w>": 327, "еш": 328, "вид": 329, "бол": 330, "со": 331, "лю": 332, "Пет": 333, "ку": 334, "еч": 335, "га": 336, "А</w>": 337, "ет,</w>": 338, "е.</w>": 339, "хот": 340, "по</w>": 341, "их": 342, "ть,</w>": 343, "мож": 344, "ить</w>": 345, "вал": 346, "ю,</w>": 347, "ему</w>": 348, "пу": 349, "еще</w>": 350, "толь": 351, "было</w>": 352, "яс": 353, "-с": 354, "до</w>": 355, "кото": 356, "ать</w>": 357, "Он</w>": 358, "ки</w>": 359, "ного</w>": 360, "ять</w>": 361, "даже</w>": 362, "го,</w>": 363, "ек": 364, "их</w>": 365, "ала</w>": 366, "только</w>": 367, "итель": 368, "себ": 369, "она</w>": 370, "»</w>": 371, "тепер": 372, "елов": 373, "сов": 374, "мы": 375, "оп": 376, "уб": 377, "пл": 378, "вдру": 379, "ту": 380, "вед": 381, "Я</w>": 382, "чер": 383, "аз": 384, "вз": 385, "уже</w>": 386, "ной</w>": 387, "ив": 388, "челов": 389, "эт": 390, "уч": 391, "х,</w>": 392, "ный</w>": 393, "енно</w>": 394, "ты</w>": 395, "ност": 396, "из</w>": 397, "аль": 398, "ар": 399, "им": 400, "все": 401, "ду": 402, "прос": 403, "ка</w>": 404, "пото": 405, "Да</w>": 406, "или</w>": 407, "отр": 408, "кой</w>": 409, "Раз": 410, "вдруг</w>": 411, "И</w>": 412, "пом": 413, "ери": 414, "ком": 415, "шл": 416, "на,</w>": 417, "ть": 418, "гол": 419, "кри": 420, "ить": 421, "чу": 422, "уж</w>": 423, "ем,</w>": 424, "ша": 425, "ал,</w>": 426, "ни</w>": 427, "ень</w>": 428, "па": 429, "гля": 430, "теперь</w>": 431, "сли</w>": 432, "стра": 433, "год": 434, "был</w>": 435, "ился</w>": 436, "посл": 437, "Петров": 438, "смотр": 439, "ась</w>": 440, "я.</w>": 441, "гла": 442, "лиц": 443, "пред": 444, "поч": 445, "ти": 446, "о,</w>": 447, "енны": 448, "Ива": 449, "вор": 450, "ень": 451, "меня</w>": 452, "без": 453, "Разум": 454, "сказ": 455, "теб": 456, "ать": 457, "ей": 458, "ы,</w>": 459, "чего</w>": 460, "ин</w>": 461, "Иванов": 462, "дум": 463, "ка,</w>": 464, "ско": 465, "вот</w>": 466, "Разумих": 467, "прав": 468, "бо": 469, "-ни": 470, "ведь</w>": 471, "рем": 472, "воз": 473, "чем</w>": 474, "мне</w>": 475, "Раскольников</w>": 476, "ила</w>": 477, "гор": 478, "-нибуд": 479, "слу": 480, "ло": 481, "нач": 482, "ное</w>": 483, "став": 484, "а.</w>": 485, "мер": 486, "оро": 487, "бр": 488, "во</w>": 489, "и.</w>": 490, "него</w>": 491, "мет": 492, "ти</w>": 493, "щи": 494, "когда</w>": 495, "..</w>": 496, "ось</w>": 497, "шел</w>": 498, "час</w>": 499, "кон": 500, "к,</w>": 501, "мол": 502, "очень</w>": 503, "ли</w>": 504, "ся.</w>": 505, "ид": 506, "ит</w>": 507, "сп": 508, "кой": 509, "нул</w>": 510, "боль": 511, "ная</w>": 512, "опять</w>": 513, "вам</w>": 514, "мину": 515, "Сон": 516, "ыва": 517, "быть,</w>": 518, "каж": 519, "тр": 520, "Но</w>": 521, "ов</w>": 522, "ля</w>": 523, "су": 524, "вас</w>": 525, "т,</w>": 526, "иш": 527, "раж": 528, "соб": 529, "каз": 530, "у.</w>": 531, "коне": 532, "-нибудь</w>": 533, "ение</w>": 534, "ком</w>": 535, "фи": 536, "ше": 537, "ми,</w>": 538, "Ду": 539, "бес": 540, "отв": 541, "олж": 542, "По": 543, "само": 544, "ку</w>": 545, "ле": 546, "сту": 547, "ней</w>": 548, "если</w>": 549, "слов": 550, "пов": 551, "он,</w>": 552, "ало</w>": 553, "ива": 554, "ан": 555, "врем": 556, "стор": 557, "чит": 558, "ск": 559, "р</w>": 560, "которы": 561, "им</w>": 562, "али</w>": 563, "Это</w>": 564, "ные</w>": 565, "ись</w>": 566, "м.</w>": 567, "Петрович": 568, "сил": 569, "нее</w>": 570, "дов": 571, "ом</w>": 572, "ше</w>": 573, "проч": 574, "ется,</w>": 575, "дав": 576, "прот": 577, "ежд": 578, "ой</w>": 579, "!..</w>": 580, "была</w>": 581, "нес": 582, "сер": 583, "ниц": 584, "вес": 585, "есть</w>": 586, "то,</w>": 587, "для</w>": 588, "тер": 589, "те</w>": 590, "атери": 591, "мест": 592, "вств": 593, "част": 594, "его": 595, "дц": 596, "нима": 597, "яв": 598, "дес": 599, "перед": 600, "ря": 601, "сам</w>": 602, "ма</w>": 603, "тоже</w>": 604, "жал": 605, "ения</w>": 606, "-с,</w>": 607, "й.</w>": 608, "тут</w>": 609, "сем</w>": 610, "себя</w>": 611, "точ": 612, "Не</w>": 613, "может</w>": 614, "все</w>": 615, "ном</w>": 616, "б</w>": 617, "ак</w>": 618, "гос": 619, "си": 620, "ыш": 621, "На": 622, "ясь</w>": 623, "потому</w>": 624, "В</w>": 625, "дв": 626, "е!</w>": 627, "ным</w>": 628, "хо": 629, "мал": 630, "За": 631, "ных</w>": 632, "Катери": 633, "ты": 634, "кого</w>": 635, "пра": 636, "»,</w>": 637, "да,</w>": 638, "ны</w>": 639, "чтобы</w>": 640, "Пор": 641, "ост": 642, "еств": 643, "ня": 644, "люб": 645, "ить,</w>": 646, "нд": 647, "оль": 648, "общ": 649, "Порфи": 650, "Порфири": 651, "дет": 652, "ур": 653, "ичес": 654, "ял</w>": 655, "будто</w>": 656, "же,</w>": 657, "тор": 658, "час": 659, "Род": 660, "рат": 661, "ите</w>": 662, "совсем</w>": 663, "кий</w>": 664, "зн": 665, "человек": 666, "жел": 667, "род": 668, "ил,</w>": 669, "раз</w>": 670, "д</w>": 671, "ительно</w>": 672, "голов": 673, "Ро": 674, "жен": 675, "ля": 676, "ю.</w>": 677, "ь!</w>": 678, "ци": 679, "ним</w>": 680, "кие</w>": 681, "двер": 682, "дер": 683, "вар": 684, "Рома": 685, "челове": 686, "которо": 687, "вст": 688, "комна": 689, "особ": 690, "пис": 691, "пря": 692, "шел": 693, "того</w>": 694, "св": 695, "минут": 696, "но.</w>": 697, "кол": 698, "ется</w>": 699, "ну</w>": 700, "со</w>": 701, "ки,</w>": 702, "ваш": 703, "оста": 704, "ани": 705, "ый</w>": 706, "нил": 707, "сказа": 708, "ен</w>": 709, "реш": 710, "крич": 711, "нем": 712, "Что</w>": 713, "тем</w>": 714, "они</w>": 715, "бла": 716, "вол": 717, "Ну,</w>": 718, "образ": 719, "пере": 720, "сме": 721, "друго": 722, "ья": 723, "ую</w>": 724, "этот</w>": 725, "илась</w>": 726, "прочем,</w>": 727, "тот": 728, "йств": 729, "почти</w>": 730, "пуст": 731, "колько</w>": 732, "вел": 733, "бл": 734, "ред": 735, "прод": 736, "мат": 737, "йл": 738, "как": 739, "ги": 740, "ща": 741, "ут": 742, "послед": 743, "ную</w>": 744, "ничего</w>": 745, "ба": 746, "тотчас</w>": 747, "е?</w>": 748, "мысл": 749, "йд": 750, "мы</w>": 751, "вчер": 752, "них</w>": 753, "видри": 754, "видрига": 755, "видригайл": 756, "чувств": 757, "вест": 758, "тогда</w>": 759, "Свидригайл": 760, "те,</w>": 761, "Она</w>": 762, "ха": 763, "про</w>": 764, "суд": 765, "Со": 766, "без</w>": 767, "мо</w>": 768, "Разумихин": 769, "есту": 770, "спо": 771, "нет": 772, "бра": 773, "хоть</w>": 774, "ерш": 775, "брос": 776, "ит,</w>": 777, "ют": 778, "его,</w>": 779, "случа": 780, "квар": 781, "жд": 782, "полож": 783, "замет": 784, "цел": 785, "Ну</w>": 786, "всех</w>": 787, "Пу": 788, "спрос": 789, "ь?</w>": 790, "хоч": 791, "стол": 792, "при</w>": 793, "ев": 794, "де</w>": 795, "этом</w>": 796, "неч": 797, "ром": 798, "господ": 799, "ете</w>": 800, "нени": 801, "кая</w>": 802, "каки": 803, "крик": 804, "конец": 805, "ват": 806, "каза": 807, "разв": 808, "взгля": 809, "тре": 810, "соверш": 811, "ать,</w>": 812, "на.</w>": 813, "тебе</w>": 814, "лич": 815, "жиз": 816, "ез</w>": 817, "об</w>": 818, "ня</w>": 819, "лек": 820, "след": 821, "ущ": 822, "».</w>": 823, "ке</w>": 824, "слыш": 825, "Вс": 826, "жа": 827, "город": 828, "емен": 829, "там</w>": 830, "сдел": 831, "стал</w>": 832, "ул": 833, "Романов": 834, "ды": 835, "том</w>": 836, "кварти": 837, "е-": 838, "перед</w>": 839, "рез": 840, "эту</w>": 841, "приб": 842, "ужас": 843, "говорил</w>": 844, "мог": 845, "ней": 846, "лест": 847, "ите,</w>": 848, "продолж": 849, "юс": 850, "о.</w>": 851, "и!</w>": 852, "стро": 853, "были</w>": 854, "под</w>": 855, "не,</w>": 856, "ья</w>": 857, "зав": 858, "более</w>": 859, "Луж": 860, "казал": 861, "ением</w>": 862, "Мар": 863, "Вот</w>": 864, "стран": 865, "!»</w>": 866, "хоро": 867, "сей": 868, "ющ": 869, "ели</w>": 870, "ок": 871, "луч": 872, "едь</w>": 873, "действ": 874, "время</w>": 875, "один</w>": 876, "мог</w>": 877, "стоя": 878, "мно": 879, "ж</w>": 880, "ов,</w>": 881, "ела</w>": 882, "ран": 883, "Раскольников,</w>": 884, "друг": 885, "кое</w>": 886, "чет": 887, "ом,</w>": 888, "можно</w>": 889, "подум": 890, "Катерина</w>": 891, "ью</w>": 892, "оз": 893, "енно": 894, "сест": 895, "чтоб</w>": 896, "и…</w>": 897, "Ведь</w>": 898, "после</w>": 899, "кр": 900, "стви": 901, "дол": 902, "ал.</w>": 903, "впрочем,</w>": 904, "дел</w>": 905, "нял": 906, "точно</w>": 907, "пи": 908, "дани": 909, "ну,</w>": 910, "),</w>": 911, "вш": 912, "лестниц": 913, "е…</w>": 914, "нула</w>": 915, "Ка": 916, "Петр</w>": 917, "Вы</w>": 918, "До": 919, "прост": 920, "ете,</w>": 921, "объ": 922, "ким</w>": 923, "конеч": 924, "что,</w>": 925, "ку,</w>": 926, "Алек": 927, "Так</w>": 928, "тебя</w>": 929, "тот</w>": 930, "уш": 931, "ись,</w>": 932, "евс": 933, "еступл": 934, "нич": 935, "ив</w>": 936, "дал": 937, "ей,</w>": 938, "вый</w>": 939, "всего</w>": 940, "ег": 941, "пожал": 942, "Пуль": 943, "Алекса": 944, "Александ": 945, "ких</w>": 946, "поз": 947, "обы": 948, "ко,</w>": 949, "как-то</w>": 950, "сказал</w>": 951, "Пульх": 952, "Пульхери": 953, "хват": 954, "мил": 955, "себе</w>": 956, "кров": 957, "кла": 958, "надо</w>": 959, "скаж": 960, "Александров": 961, ")</w>": 962, "дор": 963, "му": 964, "человек</w>": 965, "Семен": 966, "нулся</w>": 967, "ось,</w>": 968, "доб": 969, "что-то</w>": 970, "ог": 971, "долж": 972, "двор": 973, "самы": 974, "кор": 975, "иться</w>": 976, "рав": 977, "вал</w>": 978, "я!</w>": 979, "хотя</w>": 980, "ежду</w>": 981, "ют</w>": 982, "кажется,</w>": 983, "через</w>": 984, "атель": 985, "стало</w>": 986, "этого</w>": 987, "глаза": 988, "быть</w>": 989, "Нет,</w>": 990, "вд": 991, "та</w>": 992, "ство": 993, "кру": 994, "пы": 995, "извест": 996, "потом</w>": 997, "смотрел</w>": 998, "несколько</w>": 999, "ться</w>": 1000, "сю": 1001, "мел": 1002, "конч": 1003, "эти</w>": 1004, "ять": 1005, "ший</w>": 1006, "свою</w>": 1007, "уда": 1008, "тол": 1009, "-то,</w>": 1010, "-с.</w>": 1011, "наконец": 1012, "лен": 1013, "Досто": 1014, "Достоевс": 1015, "дро": 1016, "улиц": 1017, "Ко": 1018, "так": 1019, "Про": 1020, "ико": 1021, "-то": 1022, "всегда</w>": 1023, "рак": 1024, "вещ": 1025, "пла": 1026, "день": 1027, "уй": 1028, "Ивановна</w>": 1029, "ности</w>": 1030, "ние</w>": 1031, "где</w>": 1032, "беспо": 1033, "кра": 1034, "ался</w>": 1035, "чуть</w>": 1036, "держ": 1037, "бур": 1038, "кар": 1039, "вся": 1040, "торо": 1041, "вод": 1042, "ь…</w>": 1043, "кто</w>": 1044, "Петрович</w>": 1045, "Раскольников.</w>": 1046, "Авд": 1047, "Авдот": 1048, "ме": 1049, "всем</w>": 1050, "мот": 1051, "сла": 1052, "ут</w>": 1053, "Семенов": 1054, "смотря</w>": 1055, "всю</w>": 1056, "пья": 1057, "сторон": 1058, "прибав": 1059, "вы,</w>": 1060, "Пульхерия</w>": 1061, "ист": 1062, "гот": 1063, "Да": 1064, "могл": 1065, "ему,</w>": 1066, "ьма</w>": 1067, "понима": 1068, "имен": 1069, "г,</w>": 1070, "зя": 1071, "хорош": 1072, "шла</w>": 1073, "вать</w>": 1074, "го.</w>": 1075, "сем": 1076, "том,</w>": 1077, "сть</w>": 1078, "дума": 1079, "сказать,</w>": 1080, "два</w>": 1081, "между</w>": 1082, "ра</w>": 1083, "кры": 1084, "стару": 1085, "счит": 1086, "му,</w>": 1087, "слиш": 1088, "я…</w>": 1089, "уда</w>": 1090, "прямо</w>": 1091, "ступ": 1092, "енных</w>": 1093, "нем</w>": 1094, "ак": 1095, "На</w>": 1096, "ожи": 1097, "гру": 1098, "совершенно</w>": 1099, "сегод": 1100, "Роди": 1101, "н,</w>": 1102, "собств": 1103, "бор": 1104, "его.</w>": 1105, "пох": 1106, "ми.</w>": 1107, "молод": 1108, "име": 1109, "х.</w>": 1110, "Как</w>": 1111, "преж": 1112, "Соня</w>": 1113, "ворот": 1114, "леж": 1115, "люд": 1116, "ства": 1117, "прият": 1118, "она,</w>": 1119, "ет.</w>": 1120, "Порфирий</w>": 1121, "Пр": 1122, "тя": 1123, "крас": 1124, "низ": 1125, "сейчас</w>": 1126, "конечно,</w>": 1127, "надо": 1128, "ги</w>": 1129, "произ": 1130, "ни,</w>": 1131, "18": 1132, "беж": 1133, "ке,</w>": 1134, "выход": 1135, "того,</w>": 1136, "дело</w>": 1137, "ят</w>": 1138, "скоре": 1139, "слишком</w>": 1140, "нет,</w>": 1141, "отвеч": 1142, "обра": 1143, "вопрос": 1144, "рома": 1145, "еп": 1146, "кнов": 1147, "минуту</w>": 1148, "ешь</w>": 1149, "Дунеч": 1150, "бед": 1151, "али,</w>": 1152, "здес": 1153, "сердц": 1154, "глу": 1155, "непр": 1156, "ешь,</w>": 1157, "вмест": 1158, "ее,</w>": 1159, "так,</w>": 1160, "й!</w>": 1161, "весьма</w>": 1162, "Зос": 1163, "Зосим": 1164, "чай": 1165, "бот": 1166, "лож": 1167, "особенно</w>": 1168, "разд": 1169, "по-": 1170, "ия</w>": 1171, "нер": 1172, "ня,</w>": 1173, "тес": 1174, "ен,</w>": 1175, "Ли": 1176, "ения": 1177, "ответ": 1178, "яз": 1179, "ала,</w>": 1180, "стоял": 1181, "Замет": 1182, "проб": 1183, "ющи": 1184, "пет": 1185, "обыкнов": 1186, "ная,</w>": 1187, "пор": 1188, "ден": 1189, "весь</w>": 1190, "праши": 1191, "Наст": 1192, "Разумихи": 1193, "пон": 1194, "кричал</w>": 1195, "Разумихин,</w>": 1196, "ливо": 1197, "сред": 1198, "ный,</w>": 1199, "представ": 1200, "муч": 1201, "кой,</w>": 1202, "тому</w>": 1203, "действительно</w>": 1204, "ны,</w>": 1205, "одно</w>": 1206, "воль": 1207, "ты,</w>": 1208, "останов": 1209, "хотел": 1210, "е-х": 1211, "болез": 1212, "нет</w>": 1213, "виж": 1214, "гу": 1215, "хозя": 1216, "ним": 1217, "помни": 1218, "ась,</w>": 1219, "ди": 1220, "ний</w>": 1221, "дом</w>": 1222, "ку.</w>": 1223, "нель": 1224, "проговорил</w>": 1225, "меня,</w>": 1226, "Настас": 1227, "Разумихин</w>": 1228, "-</w>": 1229, ".]": 1230, ".]</w>": 1231, "с,</w>": 1232, "опы": 1233, "ом": 1234, "илось</w>": 1235, "улы": 1236, "будет</w>": 1237, "-та": 1238, "это,</w>": 1239, "ность</w>": 1240, "сущ": 1241, "Родион</w>": 1242, "удив": 1243, "пись": 1244, "ывал": 1245, "е;</w>": 1246, "наш": 1247, "е-то</w>": 1248, "рука": 1249, "Марф": 1250, "би": 1251, "ении</w>": 1252, "эта</w>": 1253, "ения,</w>": 1254, "гом</w>": 1255, "молч": 1256, "зл": 1257, "чувствов": 1258, "ту</w>": 1259, "вся</w>": 1260, "много</w>": 1261, "крикнул</w>": 1262, "продолжал</w>": 1263, "пор</w>": 1264, "и?</w>": 1265, "ка.</w>": 1266, "станов": 1267, "иде": 1268, "эта": 1269, "?»</w>": 1270, "нос": 1271, "пример": 1272, "объяс": 1273, "ение,</w>": 1274, "глас": 1275, "ари": 1276, "перво": 1277, "ною</w>": 1278, "-таки</w>": 1279, "цен": 1280, "пост": 1281, "своей</w>": 1282, "вая</w>": 1283, "лис": 1284, "Свидригайлов": 1285, "нее,</w>": 1286, "именно</w>": 1287, "е:</w>": 1288, "ли,</w>": 1289, "ходил": 1290, "доволь": 1291, "ых</w>": 1292, "друг</w>": 1293, "готов": 1294, "люде": 1295, "ноч": 1296, "Од": 1297, "начал</w>": 1298, "тво": 1299, "Соня,</w>": 1300, "како": 1301, "раздраж": 1302, "улыб": 1303, "ся!</w>": 1304, "ла,</w>": 1305, "С</w>": 1306, "жизн": 1307, "уби": 1308, "лу": 1309, "силь": 1310, "самом</w>": 1311, "ца</w>": 1312, "испу": 1313, "помнил": 1314, "спеш": 1315, "Всё": 1316, "аш": 1317, "бли": 1318, "сты": 1319, "получ": 1320, "знач": 1321, "дан": 1322, "реч": 1323, "кую</w>": 1324, "тру": 1325, "Лужи": 1326, "больше</w>": 1327, "какой": 1328, "тель": 1329, "слуш": 1330, "доро": 1331, "спросил</w>": 1332, "доч": 1333, "вчера</w>": 1334, "который</w>": 1335, "Пол": 1336, "ро</w>": 1337, "иль": 1338, "ербур": 1339, "гда": 1340, "ах</w>": 1341, "воч": 1342, "обо": 1343, "какой</w>": 1344, "нельз": 1345, "пять</w>": 1346, "смеш": 1347, "увер": 1348, "Петрович,</w>": 1349, "которые</w>": 1350, "Ст": 1351, "бу": 1352, "усп": 1353, "серь": 1354, "ощ": 1355, "еть</w>": 1356, "душ": 1357, "повер": 1358, "уй,</w>": 1359, "ить.</w>": 1360, "узна": 1361, "веч": 1362, "енный</w>": 1363, "ности,</w>": 1364, "гер": 1365, "ному</w>": 1366, "прежд": 1367, "хотел</w>": 1368, "больш": 1369, "этой</w>": 1370, "голос": 1371, "ая</w>": 1372, "жи": 1373, "ц</w>": 1374, "ятников": 1375, "трет": 1376, "бер": 1377, "пят": 1378, "тих": 1379, "а?</w>": 1380, "видел": 1381, "ре</w>": 1382, "вши": 1383, "енным</w>": 1384, "ра,</w>": 1385, "созна": 1386, "яни": 1387, "роб": 1388, "ки.</w>": 1389, "кл": 1390, "против": 1391, "меч": 1392, "ех": 1393, "ян": 1394, "Ле": 1395, "такой</w>": 1396, "во,</w>": 1397, "Всё</w>": 1398, "может,</w>": 1399, "теперь,</w>": 1400, "Ты</w>": 1401, "сами</w>": 1402, "над": 1403, "возмож": 1404, "кре": 1405, "ное,</w>": 1406, "тем": 1407, "разум": 1408, "енного</w>": 1409, "остав": 1410, "клю": 1411, "ени</w>": 1412, "Лебез": 1413, "Лебезятников": 1414, "пре": 1415, "три</w>": 1416, "было,</w>": 1417, "дцать</w>": 1418, "благород": 1419, "нас</w>": 1420, "сама</w>": 1421, "блед": 1422, "поскоре": 1423, "Из": 1424, "преступл": 1425, "ятель": 1426, "Если</w>": 1427, "шь</w>": 1428, "имо": 1429, "енное</w>": 1430, "ски": 1431, "нам</w>": 1432, "клад": 1433, "опыт": 1434, "шел,</w>": 1435, "наза": 1436, "бил": 1437, "чем": 1438, "ума": 1439, "При": 1440, "служ": 1441, "ва</w>": 1442, "ного,</w>": 1443, "обрат": 1444, "одна": 1445, "подумал</w>": 1446, "но!</w>": 1447, "говорил": 1448, "Амал": 1449, "ж,</w>": 1450, "пошел</w>": 1451, "ител": 1452, "ател": 1453, "уг": 1454, "старух": 1455, "руки</w>": 1456, "другой</w>": 1457, "пой": 1458, "хозяй": 1459, "еменно</w>": 1460, "ать.</w>": 1461, "вдруг,</w>": 1462, "гда,</w>": 1463, "дива": 1464, "итес": 1465, "знаю,</w>": 1466, "фор": 1467, "мед": 1468, "уз": 1469, "ные,</w>": 1470, "ник</w>": 1471, "равств": 1472, "ого</w>": 1473, "одного</w>": 1474, "ы.</w>": 1475, "шая</w>": 1476, "ам</w>": 1477, "сум": 1478, "ят,</w>": 1479, "рад": 1480, "губ": 1481, "а!</w>": 1482, "давно</w>": 1483, "ится</w>": 1484, "вос": 1485, "пров": 1486, "своего</w>": 1487, "ру</w>": 1488, "юш": 1489, "тел": 1490, "никогда</w>": 1491, "гнов": 1492, "казани": 1493, "человеч": 1494, "здесь</w>": 1495, "ню": 1496, "ые</w>": 1497, "ым</w>": 1498, "Нико": 1499, "вот": 1500, "край": 1501, "отвор": 1502, "лучше</w>": 1503, "ся…</w>": 1504, "подл": 1505, "прибавил</w>": 1506, "пожалуй,</w>": 1507, "мгнов": 1508, "роч": 1509, "ли?</w>": 1510, "Авдотья</w>": 1511, "ии</w>": 1512, "шим</w>": 1513, "ино": 1514, "над</w>": 1515, "ад": 1516, "рассказ": 1517, "олько</w>": 1518, "карма": 1519, "ь;</w>": 1520, "Раскольникова</w>": 1521, "дев": 1522, "сти</w>": 1523, "рая</w>": 1524, "нас": 1525, "ими</w>": 1526, "задум": 1527, "бы,</w>": 1528, "навер": 1529, "брат,</w>": 1530, "глав": 1531, "ению</w>": 1532, "глуб": 1533, "обществ": 1534, "муж": 1535, "Петербур": 1536, "человек,</w>": 1537, "нав": 1538, "серьез": 1539, "подоз": 1540, "ило</w>": 1541, "ье</w>": 1542, "ительно,</w>": 1543, "ясь,</w>": 1544, "терес": 1545, "чрез": 1546, "зачем</w>": 1547, "Да,</w>": 1548, "ь:</w>": 1549, "-с…</w>": 1550, "кто": 1551, "ть.</w>": 1552, "чет</w>": 1553, "против</w>": 1554, "нравств": 1555, "Раскольникова,</w>": 1556, "тыся": 1557, "печ": 1558, "ными</w>": 1559, "аться</w>": 1560, "удар": 1561, "слова</w>": 1562, "ем.</w>": 1563, "дела": 1564, "ию</w>": 1565, "Соф": 1566, "себя,</w>": 1567, "нельзя</w>": 1568, "-с!</w>": 1569, "?..</w>": 1570, "могу</w>": 1571, "бред": 1572, "гляд": 1573, "котору": 1574, ").</w>": 1575, "ивш": 1576, "мой</w>": 1577, "ром</w>": 1578, "ально</w>": 1579, "ева": 1580, "кая": 1581, "женщи": 1582, "непременно</w>": 1583, "еся": 1584, "малень": 1585, "ился,</w>": 1586, "а…</w>": 1587, "У</w>": 1588, "но…</w>": 1589, "роме</w>": 1590, "спраши": 1591, "посмотрел</w>": 1592, "м-то</w>": 1593, "или,</w>": 1594, "ще</w>": 1595, "дух": 1596, "первый</w>": 1597, "к.</w>": 1598, "харак": 1599, "работ": 1600, "Лизав": 1601, "рассуд": 1602, "важ": 1603, "ходил</w>": 1604, "пит": 1605, "интерес": 1606, "вался</w>": 1607, "сегодня</w>": 1608, "ужасно</w>": 1609, "увид": 1610, "сол": 1611, "мор": 1612, "этих</w>": 1613, "геро": 1614, "нему</w>": 1615, "свое</w>": 1616, "глаза</w>": 1617, "сад": 1618, "сви": 1619, "вычай": 1620, "ся?</w>": 1621, "мотал</w>": 1622, "день</w>": 1623, "куда</w>": 1624, "такие</w>": 1625, "лицо</w>": 1626, "бо</w>": 1627, "плать": 1628, "чего": 1629, "болезн": 1630, "вместе</w>": 1631, "дву": 1632, "инств": 1633, "правед": 1634, "начала</w>": 1635, "жив": 1636, "ной,</w>": 1637, "матер": 1638, "бог": 1639, "которую</w>": 1640, "почему</w>": 1641, "ращ": 1642, "Не": 1643, "дома": 1644, "ью,</w>": 1645, "ами</w>": 1646, "чрезвычай": 1647, "меся": 1648, "шед": 1649, "ужели</w>": 1650, "креп": 1651, "например": 1652, "ет!</w>": 1653, "нув</w>": 1654, "Разумихин.</w>": 1655, "енной</w>": 1656, "Во": 1657, "алось</w>": 1658, "показал": 1659, "бел": 1660, "чест": 1661, "мень": 1662, "сы": 1663, "ших</w>": 1664, "просто</w>": 1665, "ин,</w>": 1666, "ила,</w>": 1667, "алась</w>": 1668, "Тут</w>": 1669, "стоял</w>": 1670, "атюш": 1671, "вам,</w>": 1672, "воск": 1673, "вскричал</w>": 1674, "все-таки</w>": 1675, "яза": 1676, "помо": 1677, "истор": 1678, "кому</w>": 1679, "твер": 1680, "характер": 1681, "стоятель": 1682, "енные</w>": 1683, "счаст": 1684, "беспокой": 1685, "лег": 1686, "стен": 1687, "соглас": 1688, "ались</w>": 1689, "фак": 1690, "два": 1691, "Те": 1692, "знал</w>": 1693, "взял</w>": 1694, "сид": 1695, "прер": 1696, "отвечал</w>": 1697, "например,</w>": 1698, "ча,</w>": 1699, "ете?</w>": 1700, "пойд": 1701, "ились</w>": 1702, "настоя": 1703, "Достоевский</w>": 1704, "смер": 1705, "ряд": 1706, "свои</w>": 1707, "него,</w>": 1708, "той</w>": 1709, "ысл": 1710, "несмотря</w>": 1711, "угл": 1712, "иг": 1713, "Свидригайлов</w>": 1714, "Ивановна,</w>": 1715, "сих</w>": 1716, "господин</w>": 1717, "разве</w>": 1718, "у!</w>": 1719, "ись.</w>": 1720, "ся;</w>": 1721, "вчераш": 1722, "Родя,</w>": 1723, "что-нибудь</w>": 1724, "Ах,</w>": 1725, "одной</w>": 1726, "ской</w>": 1727, "высо": 1728, "нуть</w>": 1729, "горя": 1730, "рач": 1731, "тысяч": 1732, "ключ": 1733, "нел": 1734, "ощущ": 1735, "три": 1736, "ком,</w>": 1737, "Ми": 1738, "ют,</w>": 1739, "ялся</w>": 1740, "меш": 1741, "дрож": 1742, "любопыт": 1743, "глаз": 1744, "лет</w>": 1745, "та,</w>": 1746, "ю…</w>": 1747, "мах": 1748, "где": 1749, "енная</w>": 1750, "ой,</w>": 1751, "глубо": 1752, "ство</w>": 1753, "ображ": 1754, "тра": 1755, "вож": 1756, "прежде</w>": 1757, "которого</w>": 1758, "думал</w>": 1759, "Мармел": 1760, "Лизавет": 1761, "даль": 1762, "ьб": 1763, "могла</w>": 1764, "пуска": 1765, "еча</w>": 1766, "ич,</w>": 1767, "стат": 1768, "подо": 1769, "он.</w>": 1770, "ему": 1771, "вас,</w>": 1772, "Преступл": 1773, "ях</w>": 1774, "выраж": 1775, "прин": 1776, "ще": 1777, "вне": 1778, "много": 1779, "страш": 1780, "ги,</w>": 1781, "благод": 1782, "несчаст": 1783, "ек</w>": 1784, "олод": 1785, "От": 1786, "м…</w>": 1787, "рет": 1788, "сюда</w>": 1789, "крайней</w>": 1790, "есть,</w>": 1791, "вздор": 1792, "ил.</w>": 1793, "Зна": 1794, "нароч": 1795, "йте</w>": 1796, "вини": 1797, "наконец</w>": 1798, "«Преступл": 1799, "наказани": 1800, "ения.</w>": 1801, "ранц": 1802, "ника": 1803, "самой</w>": 1804, "иться,</w>": 1805, "вну": 1806, "ются</w>": 1807, "свой</w>": 1808, "шие</w>": 1809, "ними</w>": 1810, "отча": 1811, "дать</w>": 1812, "али.</w>": 1813, "нее.</w>": 1814, "вечер": 1815, "схват": 1816, "дверь</w>": 1817, "ишь,</w>": 1818, "руб": 1819, "куда": 1820, "кроме</w>": 1821, "недо": 1822, "разуме": 1823, "вашей</w>": 1824, "бума": 1825, "прист": 1826, "Под": 1827, "одна</w>": 1828, "народ": 1829, "мнени": 1830, "тов": 1831, "казыва": 1832, "разговор": 1833, "убежд": 1834, "мотр": 1835, "наз": 1836, "лед": 1837, "ел,</w>": 1838, "ении,</w>": 1839, "Впрочем,</w>": 1840, "знал,</w>": 1841, "Тепер": 1842, "батюш": 1843, "ась.</w>": 1844, "минуту,</w>": 1845, "дцат": 1846, "шло</w>": 1847, "господи": 1848, "шеп": 1849, "е-хе!</w>": 1850, "Вид": 1851, "десять</w>": 1852, "стала</w>": 1853, "сказала</w>": 1854, "Марфа</w>": 1855, "покой": 1856, "крикнула</w>": 1857, "одним</w>": 1858, "ным,</w>": 1859, "поднял": 1860, "человека</w>": 1861, "таким</w>": 1862, "их,</w>": 1863, "Петербург": 1864, "поро": 1865, "шля": 1866, "своем</w>": 1867, "ков</w>": 1868, "енно,</w>": 1869, "ою</w>": 1870, "оконч": 1871, "вни": 1872, "вход": 1873, "зап": 1874, "л</w>": 1875, "жест": 1876, "наконец,</w>": 1877, "намер": 1878, "паль": 1879, "юсь</w>": 1880, "й…</w>": 1881, "ет?</w>": 1882, "Я,</w>": 1883, "Гос": 1884, "ее.</w>": 1885, "возь": 1886, "мне,</w>": 1887, "Заметов": 1888, "ныч": 1889, "Об": 1890, "вет": 1891, "иво": 1892, "ует</w>": 1893, "существ": 1894, "йти</w>": 1895, "маль": 1896, "ожидан": 1897, "следов": 1898, "нош": 1899, "тяжел": 1900, "чиво": 1901, "долго</w>": 1902, "ках</w>": 1903, "дра": 1904, "ец": 1905, "стал": 1906, "Та": 1907, "ился.</w>": 1908, "мель": 1909, "вала</w>": 1910, "По</w>": 1911, "шли</w>": 1912, "сторож": 1913, "Зосимов": 1914, "Романыч": 1915, "Анд": 1916, "Андре": 1917, "Все</w>": 1918, "которых</w>": 1919, "186": 1920, "ливо</w>": 1921, "еди": 1922, "леч": 1923, "сам": 1924, "треть": 1925, "давеча</w>": 1926, "сколько</w>": 1927, "ус": 1928, "деньги</w>": 1929, "рубл": 1930, "хотелось</w>": 1931, "гром": 1932, "Ну": 1933, "Зачем</w>": 1934, "Господ": 1935, "Настась": 1936, "рес": 1937, "заметил</w>": 1938, "ящ": 1939, "ира": 1940, "первы": 1941, "ского</w>": 1942, "д,</w>": 1943, "нена": 1944, "сход": 1945, "пе": 1946, "орот": 1947, "дал</w>": 1948, "стояла</w>": 1949, "шего</w>": 1950, "знако": 1951, "юсь,</w>": 1952, "случ": 1953, "удов": 1954, "мой,</w>": 1955, "такое</w>": 1956, "им,</w>": 1957, "говорит,</w>": 1958, "-то?</w>": 1959, "ала.</w>": 1960, "кричала</w>": 1961, "Дун": 1962, "тороп": 1963, "О</w>": 1964, "волю": 1965, "бод": 1966, "сих": 1967, "сихол": 1968, "уден": 1969, "чинов": 1970, "лись</w>": 1971, "удивл": 1972, "сть,</w>": 1973, "обстоятель": 1974, "неожидан": 1975, "оши": 1976, "ста,</w>": 1977, "Раскольникова.</w>": 1978, "ину</w>": 1979, "голову</w>": 1980, "вов": 1981, "смысл": 1982, "пробор": 1983, "ещани": 1984, "словом,</w>": 1985, "окончатель": 1986, "какой-то</w>": 1987, "франц": 1988, "сдела": 1989, "которое</w>": 1990, "своим</w>": 1991, "психол": 1992, "йся</w>": 1993, "ства</w>": 1994, "необыкнов": 1995, "подоб": 1996, "ру,</w>": 1997, "подозр": 1998, "ое</w>": 1999, "ше,</w>": 2000, "стоит</w>": 2001, "Чер": 2002, "ом.</w>": 2003, "видет": 2004, "нить</w>": 2005, "Катерины</w>": 2006, "дно</w>": 2007, "кан": 2008, "самого</w>": 2009, "Микол": 2010, "повтор": 2011, "бег": 2012, "остановился</w>": 2013, "хож": 2014, "поспеш": 2015, "Мож": 2016, "быст": 2017, "толп": 2018, "хло": 2019, "нес</w>": 2020, "довольно</w>": 2021, "ка!</w>": 2022, "пришел</w>": 2023, "мама": 2024, "говари": 2025, "о!</w>": 2026, "плат": 2027, "ений</w>": 2028, "всей</w>": 2029, "II": 2030, "уни": 2031, "ие</w>": 2032, "основ": 2033, "ей.</w>": 2034, "двух</w>": 2035, "конц": 2036, "свет": 2037, "выз": 2038, "соци": 2039, "ение.</w>": 2040, "наб": 2041, "причи": 2042, "призна": 2043, "адов": 2044, "спокой": 2045, "которой</w>": 2046, "ками</w>": 2047, "ена</w>": 2048, "внима": 2049, "этим</w>": 2050, "ке.</w>": 2051, "слуша": 2052, "встреч": 2053, "ла</w>": 2054, "фа": 2055, "потер": 2056, "ду</w>": 2057, "ять,</w>": 2058, "ит.</w>": 2059, "протя": 2060, "го-то</w>": 2061, "извол": 2062, "усил": 2063, "буду</w>": 2064, "наде": 2065, "Они</w>": 2066, "ото": 2067, "осторож": 2068, "кни": 2069, "ующ": 2070, "начи": 2071, "жела": 2072, "жизнь</w>": 2073, "ман": 2074, "худ": 2075, "свер": 2076, "вышел</w>": 2077, "пан": 2078, "нал": 2079, "ствов": 2080, "юб": 2081, "…»</w>": 2082, "всем": 2083, "одну</w>": 2084, "свидани": 2085, "пож": 2086, "какая": 2087, "Теперь</w>": 2088, "дорог": 2089, "кнул</w>": 2090, "говорила</w>": 2091, "мое</w>": 2092, "подле</w>": 2093, "вниз": 2094, "обраща": 2095, "дос": 2096, "всё,</w>": 2097, "ешь?</w>": 2098, "ьте</w>": 2099, "лет": 2100, "прос</w>": 2101, "года</w>": 2102, "ва,</w>": 2103, "други": 2104, "тако": 2105, "ский</w>": 2106, "мысль</w>": 2107, "состоя": 2108, "студен": 2109, "печат": 2110, "приход": 2111, "ства,</w>": 2112, "умер": 2113, "образом</w>": 2114, "своих</w>": 2115, "ве</w>": 2116, "Никола": 2117, "лов": 2118, "ах,</w>": 2119, "Когда</w>": 2120, "кой.</w>": 2121, "внимат": 2122, "ался.</w>": 2123, "зал": 2124, "о…</w>": 2125, "За</w>": 2126, "серд": 2127, "йте": 2128, "сейчас": 2129, "кать,</w>": 2130, "ю!</w>": 2131, "однако</w>": 2132, "ленно</w>": 2133, "и;</w>": 2134, "Петра</w>": 2135, "Мне</w>": 2136, "вами</w>": 2137, "других</w>": 2138, "чани": 2139, "вели": 2140, "крест": 2141, "зи": 2142, "рус": 2143, "лиш": 2144, "страдани": 2145, "него.</w>": 2146, "испол": 2147, "которая</w>": 2148, "сут": 2149, "оби": 2150, "вла": 2151, "убий": 2152, "обход": 2153, "убеж": 2154, "сти": 2155, "цион": 2156, "благо": 2157, "знаком": 2158, "цер": 2159, "ено</w>": 2160, "помеш": 2161, "вслед": 2162, "иц": 2163, "вниматель": 2164, "мич": 2165, "куп": 2166, "самый</w>": 2167, "вать": 2168, "хочу</w>": 2169, "прек": 2170, "иногда</w>": 2171, "дворни": 2172, "весел": 2173, "пода": 2174, "первого</w>": 2175, "прил": 2176, "руч": 2177, "знаете,</w>": 2178, "тра</w>": 2179, "Амалия</w>": 2180, "Только</w>": 2181, "шепт": 2182, "испуг": 2183, "тобо": 2184, "разумеется,</w>": 2185, "не.</w>": 2186, "насчет</w>": 2187, "Александровна,</w>": 2188, "явля": 2189, "ести</w>": 2190, "сти,</w>": 2191, "подн": 2192, "Даже</w>": 2193, "государ": 2194, "Мармеладов": 2195, "деле</w>": 2196, "себе,</w>": 2197, "полез": 2198, "чист": 2199, "це": 2200, "скры": 2201, "девоч": 2202, "такая</w>": 2203, "бель": 2204, "сор": 2205, "дом": 2206, "Ему</w>": 2207, "ым,</w>": 2208, "тем,</w>": 2209, "гад": 2210, "ль</w>": 2211, "ить!</w>": 2212, "кло": 2213, "у…</w>": 2214, "коли</w>": 2215, "ось.</w>": 2216, "глядел</w>": 2217, "я;</w>": 2218, "Бы": 2219, "я?</w>": 2220, "етес": 2221, "ю?</w>": 2222, "ать?</w>": 2223, "Катерине</w>": 2224, "видел</w>": 2225, "посмотр": 2226, "сумас": 2227, "Вдруг</w>": 2228, "дело,</w>": 2229, "пристально</w>": 2230, "нах": 2231, "овани": 2232, "нев": 2233, "второ": 2234, "тревож": 2235, "Дуня,</w>": 2236, "горяч": 2237, "лял": 2238, "гро": 2239, "зв": 2240, "вал,</w>": 2241, "ту.</w>": 2242, "а;</w>": 2243, "прит": 2244, "слы": 2245, "ним,</w>": 2246, "Еще</w>": 2247, "поми": 2248, "время,</w>": 2249, "последнее</w>": 2250, "заме": 2251, "мов": 2252, "я:</w>": 2253, "четвер": 2254, "хорошо</w>": 2255, "тогда,</w>": 2256, "ался,</w>": 2257, "нет?</w>": 2258, "неужели</w>": 2259, "у?</w>": 2260, "ю-то</w>": 2261, "обе": 2262, "о;</w>": 2263, "себя.</w>": 2264, "чувству": 2265, "значит": 2266, "ок</w>": 2267, "ет…</w>": 2268, "беспоко": 2269, "О,</w>": 2270, "быстро</w>": 2271, "но:</w>": 2272, "счита": 2273, "ясь.</w>": 2274, "ответил</w>": 2275, "ической</w>": 2276, "вопрос</w>": 2277, "но-": 2278, "ла.</w>": 2279, "лаг": 2280, "яться</w>": 2281, "праведливо": 2282, "и-": 2283, "здор": 2284, "впол": 2285, "людей</w>": 2286, "из-": 2287, "времени</w>": 2288, "ями</w>": 2289, "ерж": 2290, "ма,</w>": 2291, "право</w>": 2292, "откры": 2293, "стар": 2294, "такого</w>": 2295, "единств": 2296, "вот,</w>": 2297, "реб": 2298, "капит": 2299, "гря": 2300, "вшись</w>": 2301, "К</w>": 2302, "ег</w>": 2303, "чрезвычайно</w>": 2304, "ень,</w>": 2305, "моя</w>": 2306, "сидел</w>": 2307, "вольте</w>": 2308, "нарочно</w>": 2309, "авш": 2310, "сообщ": 2311, "х!</w>": 2312, "моей</w>": 2313, "Гов": 2314, "Говор": 2315, "ать!</w>": 2316, "две</w>": 2317, "Дуня</w>": 2318, "говорить</w>": 2319, "вать,</w>": 2320, "я»</w>": 2321, "противо": 2322, "т.</w>": 2323, "ужд": 2324, "стой": 2325, "оскор": 2326, "еступ": 2327, "ну.</w>": 2328, "брат": 2329, "нару": 2330, "постав": 2331, "начал": 2332, "девуш": 2333, "отвращ": 2334, "нейш": 2335, "сб": 2336, "ен.</w>": 2337, "ней,</w>": 2338, "гра": 2339, "ич</w>": 2340, "остро": 2341, "снов": 2342, "обще</w>": 2343, "пло": 2344, "енном</w>": 2345, "ивая</w>": 2346, "обяза": 2347, "как-нибудь</w>": 2348, "през": 2349, "кая,</w>": 2350, "дела</w>": 2351, "дрог": 2352, "немного</w>": 2353, "заклад": 2354, "хлопо": 2355, "бывал": 2356, "руку</w>": 2357, "ешь": 2358, "взял": 2359, "хит": 2360, "угол": 2361, "тащ": 2362, "пожалуй": 2363, "се</w>": 2364, "тесь,</w>": 2365, "переб": 2366, "мере,</w>": 2367, "Александровна.</w>": 2368, "числ": 2369, "тех</w>": 2370, "каждо": 2371, "наход": 2372, "евид": 2373, "ские</w>": 2374, "ством</w>": 2375, "мрач": 2376, "кими</w>": 2377, "привы": 2378, "кажд": 2379, "гая</w>": 2380, "вперед": 2381, "кну": 2382, "ыв": 2383, "треб": 2384, "лав": 2385, "рот": 2386, "молодой</w>": 2387, "ры</w>": 2388, "пар": 2389, "опас": 2390, "руг": 2391, "ность,</w>": 2392, "ствие</w>": 2393, "которым</w>": 2394, "Пер": 2395, "ками,</w>": 2396, "дом,</w>": 2397, "ами,</w>": 2398, "пун": 2399, "ти,</w>": 2400, "Свидригайлов,</w>": 2401, "обе</w>": 2402, "сел</w>": 2403, "ходить</w>": 2404, "напротив": 2405, "Разве</w>": 2406, "нуло</w>": 2407, "несл": 2408, "к!</w>": 2409, "ерп": 2410, "помин": 2411, "милост": 2412, "ибо</w>": 2413, "Ну-с,</w>": 2414, "оят": 2415, "стали</w>": 2416, "назад,</w>": 2417, "видимо": 2418, "ъяс": 2419, "груд": 2420, "обратился</w>": 2421, "слез": 2422, "каким-то</w>": 2423, "было.</w>": 2424, "надо,</w>": 2425, "ган": 2426, "смех": 2427, "ал?</w>": 2428, "мне": 2429, "во-": 2430, "Поч": 2431, "матри": 2432, "и:</w>": 2433, "спросила</w>": 2434, "пробормотал</w>": 2435, "этак</w>": 2436, "Соня.</w>": 2437, "гу</w>": 2438, "соч": 2439, "ваться</w>": 2440, "собой</w>": 2441, "рост": 2442, "дви": 2443, "ий</w>": 2444, "ум</w>": 2445, "понят": 2446, "енную</w>": 2447, "благодар": 2448, "ных,</w>": 2449, "мать</w>": 2450, "дале": 2451, "подле": 2452, "шев": 2453, "части</w>": 2454, "нии</w>": 2455, "ях,</w>": 2456, "гряз": 2457, "сказать</w>": 2458, "раз,</w>": 2459, "стыд": 2460, "быть": 2461, "ясно</w>": 2462, "сто</w>": 2463, "прош": 2464, "ить?</w>": 2465, "когда": 2466, "потому,</w>": 2467, "пам": 2468, "ут,</w>": 2469, "был,</w>": 2470, "хохот": 2471, "зем": 2472, "й?</w>": 2473, "Зат": 2474, "ется.</w>": 2475, "Петрови": 2476, "будет,</w>": 2477, "смот": 2478, "бог</w>": 2479, "оты": 2480, "вошел</w>": 2481, "Ред": 2482, "Андрей</w>": 2483, "мамень": 2484, "итер": 2485, "«Б": 2486, "слож": 2487, "ного": 2488, "очевид": 2489, "аль</w>": 2490, "поле": 2491, "настоящ": 2492, "будущ": 2493, "дает</w>": 2494, "жизни</w>": 2495, "смат": 2496, "ния</w>": 2497, "нуж": 2498, "жени": 2499, "ены</w>": 2500, "нюю</w>": 2501, "успел</w>": 2502, "ливы": 2503, "роде</w>": 2504, "нату": 2505, "лад": 2506, "ошиб": 2507, "отнош": 2508, "фан": 2509, "четы": 2510, "ишь</w>": 2511, "0-": 2512, "тогда": 2513, "ир": 2514, "шест": 2515, "свидет": 2516, "обед": 2517, "казалось,</w>": 2518, "оно</w>": 2519, "степ": 2520, "самое</w>": 2521, "пунк": 2522, "волос": 2523, "Вы": 2524, "мало</w>": 2525, "встрет": 2526, "Ни": 2527, "злоб": 2528, "ал!</w>": 2529, "инач": 2530, "гост": 2531, "дня</w>": 2532, "йте,</w>": 2533, "ал…</w>": 2534, "Что": 2535, "минут</w>": 2536, "вероят": 2537, "дескать,</w>": 2538, "че</w>": 2539, "бросился</w>": 2540, "лю</w>": 2541, "сказал,</w>": 2542, "какая</w>": 2543, "споко": 2544, "едва</w>": 2545, "хл": 2546, "сообраз": 2547, "вскрикнула</w>": 2548, "нумер": 2549, "алист": 2550, "ве": 2551, "револю": 2552, "хочет</w>": 2553, "нищ": 2554, "протест": 2555, "сматри": 2556, "этому</w>": 2557, "поступ": 2558, "поряд": 2559, "ни.</w>": 2560, "ищ": 2561, "начина": 2562, "холод": 2563, "тора</w>": 2564, "круж": 2565, "трак": 2566, "какие</w>": 2567, "риц": 2568, "Сов": 2569, "каждый</w>": 2570, "принима": 2571, "чик</w>": 2572, "внезап": 2573, "Полеч": 2574, "«А</w>": 2575, "нею</w>": 2576, "это?</w>": 2577, "неприят": 2578, "мая</w>": 2579, "странно</w>": 2580, "знакомы": 2581, "виц": 2582, "Стало</w>": 2583, "в,</w>": 2584, "шел.</w>": 2585, "выраз": 2586, "сердце</w>": 2587, "Но,</w>": 2588, "-с?</w>": 2589, "обращаясь</w>": 2590, "Нич": 2591, "нет!</w>": 2592, "отчаяни": 2593, "почт": 2594, "часа</w>": 2595, "То": 2596, "виз": 2597, "завтра</w>": 2598, "кат": 2599, "шь,</w>": 2600, "только,</w>": 2601, "обид": 2602, "рассчит": 2603, "рю": 2604, "вовсе</w>": 2605, "Чего</w>": 2606, "вчера,</w>": 2607, "уп": 2608, "поскорей</w>": 2609, "сумасшед": 2610, "Александровна</w>": 2611, "прошепт": 2612, "«Преступления</w>": 2613, "пад": 2614, "енни": 2615, "вста": 2616, "няя</w>": 2617, "должен</w>": 2618, "теор": 2619, "стара": 2620, "своими</w>": 2621, "прошл": 2622, "ющий</w>": 2623, "необход": 2624, "Раскольникову</w>": 2625, "ном,</w>": 2626, "вперед</w>": 2627, "востор": 2628, "ты.</w>": 2629, "ейств": 2630, "закон": 2631, "приготов": 2632, "поль": 2633, "почувствов": 2634, "сел": 2635, "чувст": 2636, "ывая</w>": 2637, "ую,</w>": 2638, "ею</w>": 2639, "уж,</w>": 2640, "но?</w>": 2641, "волнени": 2642, "Ста": 2643, "молча</w>": 2644, "назад</w>": 2645, "батюшка,</w>": 2646, "право": 2647, "Уж</w>": 2648, "обращ": 2649, "ил?</w>": 2650, "а:</w>": 2651, "раза</w>": 2652, "коф": 2653, "устро": 2654, "ступл": 2655, "рубле": 2656, "Мы</w>": 2657, "контор": 2658, "ся:</w>": 2659, "недоум": 2660, "нетерп": 2661, "сейчас,</w>": 2662, "право,</w>": 2663, "стер": 2664, "моему,</w>": 2665, "мит": 2666, "кх": 2667, "га</w>": 2668, "стать": 2669, "самых</w>": 2670, "широ": 2671, "свобод": 2672, "ности.</w>": 2673, "ление</w>": 2674, "десят": 2675, "огичес": 2676, "убийств": 2677, "огром": 2678, "гичес": 2679, "способ": 2680, "могли</w>": 2681, "вает</w>": 2682, "щий</w>": 2683, "ту,</w>": 2684, "внутр": 2685, "раздо</w>": 2686, "деть</w>": 2687, "яр": 2688, "ны.</w>": 2689, "ув": 2690, "встре": 2691, "ходя</w>": 2692, "мо,</w>": 2693, "никто</w>": 2694, "ках,</w>": 2695, "лоша": 2696, "фу": 2697, "нул,</w>": 2698, "пь": 2699, "комнате,</w>": 2700, "ничего,</w>": 2701, "Сл": 2702, "илась,</w>": 2703, "ивый</w>": 2704, "Наконец": 2705, "т!</w>": 2706, "ин.</w>": 2707, "оба</w>": 2708, "дост": 2709, "терп": 2710, "значит,</w>": 2711, ".)</w>": 2712, "господина</w>": 2713, "перес": 2714, "атер": 2715, "подроб": 2716, "дых": 2717, "мгновение</w>": 2718, "Настасья</w>": 2719, "ню</w>": 2720, "ду.</w>": 2721, "али?</w>": 2722, "должно</w>": 2723, "Кто</w>": 2724, "Ред.]</w>": 2725, "говорю,</w>": 2726, "Романовна</w>": 2727, "Романыч,</w>": 2728, "литер": 2729, "человечес": 2730, "общест": 2731, "вой": 2732, "ити": 2733, "шки": 2734, "офи": 2735, "ха</w>": 2736, "ли.</w>": 2737, "другого</w>": 2738, "рел": 2739, "похож": 2740, "йдя</w>": 2741, "газ": 2742, "зако": 2743, "ию,</w>": 2744, "место</w>": 2745, "заб": 2746, "случай": 2747, "позвол": 2748, "бря": 2749, "прив": 2750, "объяв": 2751, "зов": 2752, "зло": 2753, "говорит": 2754, "всеми</w>": 2755, "велич": 2756, "котором</w>": 2757, "отц": 2758, "ьи</w>": 2759, "самым</w>": 2760, "ель</w>": 2761, "ерт": 2762, "мост": 2763, "кух": 2764, "перест": 2765, "какое</w>": 2766, "разом</w>": 2767, "мельк": 2768, "замеча": 2769, "таких</w>": 2770, "-нибудь,</w>": 2771, "коло": 2772, "помнил</w>": 2773, "гляды": 2774, "довер": 2775, "прошел</w>": 2776, "кос": 2777, "двадцать</w>": 2778, "присут": 2779, "тихо</w>": 2780, "онь": 2781, "какая-то</w>": 2782, "просто": 2783, "м!</w>": 2784, "нога": 2785, "Потом</w>": 2786, "Софья</w>": 2787, "ились,</w>": 2788, "ваше</w>": 2789, "всему</w>": 2790, "исступл": 2791, "баб": 2792, "ывать</w>": 2793, "первых,</w>": 2794, "Петровна</w>": 2795, "тебе,</w>": 2796, "выгод": 2797, "но;</w>": 2798, "семь</w>": 2799, "у:</w>": 2800, "о:</w>": 2801, "стул": 2802, "(франц": 2803, "фуз": 2804, "Заметов</w>": 2805, "итесь,</w>": 2806, "Дмит": 2807, "Дмитри": 2808, "I</w>": 2809, "илос": 2810, "Наполе": 2811, "человека,</w>": 2812, "чь</w>": 2813, "социаль": 2814, "вом</w>": 2815, "искр": 2816, "ые,</w>": 2817, "всякого</w>": 2818, "Ивановны</w>": 2819, "матери</w>": 2820, "впечат": 2821, "люди</w>": 2822, "ваясь</w>": 2823, "оправ": 2824, "плот": 2825, "кост": 2826, "плеч": 2827, "гораздо</w>": 2828, "возв": 2829, "имо</w>": 2830, "связ": 2831, "выр": 2832, "фанта": 2833, "нами</w>": 2834, "шей</w>": 2835, "революцион": 2836, "ован": 2837, "вообще</w>": 2838, "вслу": 2839, "м;</w>": 2840, "уро": 2841, "велико": 2842, "ок,</w>": 2843, "гов</w>": 2844, "гну": 2845, "ру.</w>": 2846, "примет": 2847, "деш": 2848, "наст": 2849, "кругом</w>": 2850, "ю;</w>": 2851, "да…</w>": 2852, "скоро</w>": 2853, "мом</w>": 2854, "презр": 2855, "известно</w>": 2856, "ровно</w>": 2857, "подошел</w>": 2858, "..": 2859, "ец</w>": 2860, "вздрог": 2861, "помол": 2862, "дерев": 2863, "лю,</w>": 2864, "копе": 2865, "целый</w>": 2866, "пры": 2867, "беспрер": 2868, "беспрерыв": 2869, "руками</w>": 2870, "пор,</w>": 2871, "хватил</w>": 2872, "Поз": 2873, "То</w>": 2874, "зара": 2875, "зол": 2876, "лист": 2877, "док": 2878, "памят": 2879, "тал": 2880, "молчани": 2881, "шар": 2882, "недел": 2883, "-с;</w>": 2884, "гре": 2885, "непод": 2886, "плак": 2887, "бросилась</w>": 2888, "руки,</w>": 2889, "взять</w>": 2890, "пожалуйста,</w>": 2891, "винов": 2892, "ый,</w>": 2893, "говорил,</w>": 2894, "жить</w>": 2895, "Романовна,</w>": 2896, "черт</w>": 2897, "успоко": 2898, "таком</w>": 2899, "окол": 2900, "самую</w>": 2901, "сцен": 2902, "взгляд</w>": 2903, "вза": 2904, "щит": 2905, "предел": 2906, "ос</w>": 2907, "оставал": 2908, "ре,</w>": 2909, "мысли</w>": 2910, "психологичес": 2911, "движ": 2912, "сами": 2913, "здоров": 2914, "вполне</w>": 2915, "Из</w>": 2916, "вли": 2917, "из-за</w>": 2918, "чуж": 2919, "навли": 2920, "ыми</w>": 2921, "внутрен": 2922, "сох": 2923, "полиц": 2924, "проис": 2925, "Са": 2926, "ненави": 2927, "ских</w>": 2928, "вто": 2929, "ре.</w>": 2930, "ском</w>": 2931, "ев</w>": 2932, "перен": 2933, "квартиру</w>": 2934, "лени": 2935, "степени</w>": 2936, "каса": 2937, "ялся,</w>": 2938, "ожал": 2939, "бормотал</w>": 2940, "безобраз": 2941, "смотреть</w>": 2942, "..»</w>": 2943, "ню,</w>": 2944, "комнате</w>": 2945, "тою</w>": 2946, "надцать</w>": 2947, "всего,</w>": 2948, "вшись,</w>": 2949, "ло</w>": 2950, "громко</w>": 2951, "хле": 2952, "предлож": 2953, "суда": 2954, "большой</w>": 2955, "встал</w>": 2956, "Он,</w>": 2957, "рублей</w>": 2958, "ться,</w>": 2959, "ать…</w>": 2960, "кто-то</w>": 2961, "Господи!</w>": 2962, "на;</w>": 2963, "илось,</w>": 2964, "выдерж": 2965, "объясни": 2966, "медленно</w>": 2967, "забыл": 2968, "господи!</w>": 2969, "насмеш": 2970, "видел,</w>": 2971, "Одним</w>": 2972, "глаш": 2973, "ете.</w>": 2974, "правда,</w>": 2975, "вас": 2976, "напротив,</w>": 2977, "требу": 2978, "шага": 2979, "знает,</w>": 2980, "где-нибудь</w>": 2981, "нулась</w>": 2982, "глуп": 2983, "запер": 2984, "осматри": 2985, "Иль": 2986, "Кол": 2987, "вашего</w>": 2988, "Романович,</w>": 2989, "-ха": 2990, "Достоевского</w>": 2991, "е»</w>": 2992, "литерат": 2993, "имы": 2994, "жу": 2995, "полов": 2996, "еся</w>": 2997, "чиновни": 2998, "пен": 2999, "ков,</w>": 3000, "людей,</w>": 3001, "романа</w>": 3002, "год</w>": 3003, "доказа": 3004, "ожид": 3005, "шими</w>": 3006, "мучитель": 3007, "кровь</w>": 3008, "совет": 3009, "полу": 3010, "оскорбл": 3011, "кое,</w>": 3012, "приз": 3013, "подлец": 3014, "ча.</w>": 3015, "тракти": 3016, "ой.</w>": 3017, "сказал": 3018, "сед": 3019, "слав": 3020, "тому,</w>": 3021, "зан": 3022, "дур": 3023, "ая,</w>": 3024, "часто</w>": 3025, "глядыва": 3026, "тон": 3027, "глядеть</w>": 3028, "жиль": 3029, "иться.</w>": 3030, "каких</w>": 3031, "фураж": 3032, "начин": 3033, "третьего</w>": 3034, "ги.</w>": 3035, "пир": 3036, "замолч": 3037, "Проща": 3038, "о?</w>": 3039, "вып": 3040, "каку": 3041, "удоволь": 3042, "мальчи": 3043, "надцат": 3044, "еб": 3045, "ель,</w>": 3046, "внимани": 3047, "надоб": 3048, "пусть</w>": 3049, "Фо": 3050, "чему</w>": 3051, "ю:</w>": 3052, "скажу,</w>": 3053, "е-хе-хе!</w>": 3054, "произнес</w>": 3055, "й-то</w>": 3056, "лучше,</w>": 3057, "хва": 3058, "вать.</w>": 3059, "беш": 3060, "ребен": 3061, "ится,</w>": 3062, "ть-": 3063, "подуш": 3064, "ль,</w>": 3065, "пока</w>": 3066, "скоро": 3067, "конто": 3068, "осмотр": 3069, "очень,</w>": 3070, "пиш": 3071, "мамаш": 3072, "мной</w>": 3073, "разъяс": 3074, "ваш</w>": 3075, "Стран": 3076, "побеж": 3077, "около</w>": 3078, "дура": 3079, "прид": 3080, "часов</w>": 3081, "вскричала</w>": 3082, "Опять</w>": 3083, "потом,</w>": 3084, "тут,</w>": 3085, "ка?</w>": 3086, "мовод": 3087, "Зосимов</w>": 3088, "Прокоф": 3089, "Прокофь": 3090, "век": 3091, "показ": 3092, "определ": 3093, "досто": 3094, "повед": 3095, "этаж": 3096, "близ": 3097, "говорит</w>": 3098, "личи": 3099, "вали</w>": 3100, "выс": 3101, "сюда,</w>": 3102, "расс": 3103, "ям</w>": 3104, "среди</w>": 3105, "казалось</w>": 3106, "нулся,</w>": 3107, "ющим</w>": 3108, "овал</w>": 3109, "дой</w>": 3110, "невозмож": 3111, "ство,</w>": 3112, "или": 3113, "вел</w>": 3114, "кого,</w>": 3115, "заключ": 3116, "отправ": 3117, "процен": 3118, "ями,</w>": 3119, "забот": 3120, "пошл": 3121, "самому</w>": 3122, "пес": 3123, "нц": 3124, "коч": 3125, "вин": 3126, "прекрас": 3127, "шляп": 3128, "девиц": 3129, "дво": 3130, "старуш": 3131, "проговорила</w>": 3132, "глаз</w>": 3133, "сит": 3134, "тро": 3135, "ении.</w>": 3136, "увелич": 3137, "чем-то</w>": 3138, "пораж": 3139, "удовольстви": 3140, "м?</w>": 3141, "уваж": 3142, "Раскольникову,</w>": 3143, ").]</w>": 3144, "мои</w>": 3145, "поря": 3146, "целов": 3147, "узн": 3148, "ем!</w>": 3149, "опуст": 3150, "дом.</w>": 3151, "страх": 3152, "усили": 3153, "закричал</w>": 3154, "чуть-": 3155, "Настасья,</w>": 3156, "одет": 3157, "наверно,</w>": 3158, "слышал</w>": 3159, "напис": 3160, "Дунечка,</w>": 3161, "Конеч": 3162, "Конечно,</w>": 3163, "Дунечка</w>": 3164, "мя": 3165, "х-то</w>": 3166, "ат</w>": 3167, "иной</w>": 3168, "ува": 3169, "подума": 3170, "переш": 3171, "чиво</w>": 3172, "прощ": 3173, "окончательно</w>": 3174, "случае</w>": 3175, "Дмитрий</w>": 3176, "ou": 3177, "en": 3178, "буржу": 3179, "другие</w>": 3180, "ьбы</w>": 3181, "виду": 3182, "ализ": 3183, "кий,</w>": 3184, "всяком</w>": 3185, "героя</w>": 3186, "негод": 3187, "щая</w>": 3188, "мышл": 3189, "последстви": 3190, "цы</w>": 3191, "рассматри": 3192, "значитель": 3193, "нужд": 3194, "сам,</w>": 3195, "ело</w>": 3196, "останавли": 3197, "сод": 3198, "серьезно</w>": 3199, "ов.</w>": 3200, "пле": 3201, "огра": 3202, "справедливо": 3203, "0-х</w>": 3204, "сомнени": 3205, "имеет</w>": 3206, "Нес": 3207, "какой-нибудь</w>": 3208, "вместо</w>": 3209, "рядом</w>": 3210, "матери": 3211, "ску": 3212, "поворот": 3213, "мимо</w>": 3214, "гива": 3215, "кие,</w>": 3216, "ивал</w>": 3217, "щад": 3218, "Лужин</w>": 3219, "Лужин,</w>": 3220, "ным.</w>": 3221, "ти.</w>": 3222, "месяц</w>": 3223, "поминут": 3224, "груст": 3225, "замеч": 3226, "лох": 3227, "столько</w>": 3228, "шагов</w>": 3229, "квартире</w>": 3230, "колоколь": 3231, "глядел": 3232, "ная.</w>": 3233, "билет": 3234, "слуши": 3235, "Слыш": 3236, "стака": 3237, "вслед</w>": 3238, "мещани": 3239, "чес": 3240, "ое,</w>": 3241, "воздух": 3242, "вший</w>": 3243, "Действ": 3244, "Оч": 3245, "потреб": 3246, "денег</w>": 3247, "знает</w>": 3248, "сколь": 3249, "день,</w>": 3250, "Сонеч": 3251, "ожидани": 3252, "дыха": 3253, "ите!</w>": 3254, "сделать</w>": 3255, "крепко</w>": 3256, "стороны</w>": 3257, "поним": 3258, "каком": 3259, "бешен": 3260, "кля": 3261, "послыш": 3262, "принял": 3263, "От</w>": 3264, "Дав": 3265, "обо</w>": 3266, "Гол": 3267, "откров": 3268, "понял": 3269, "ит!</w>": 3270, "тоже,</w>": 3271, "руку,</w>": 3272, "Ах</w>": 3273, "Затем</w>": 3274, "ить…</w>": 3275, "изум": 3276, "пуг": 3277, "вше": 3278, "бумаж": 3279, "там,</w>": 3280, "какие-то</w>": 3281, "здесь,</w>": 3282, "да!</w>": 3283, "обм": 3284, "моводител": 3285, "вспы": 3286, "должны</w>": 3287, "Зосимов,</w>": 3288, "немед": 3289, "Дуня.</w>": 3290, "ры,</w>": 3291, "буржуаз": 3292, ",[": 3293, "обер": 3294, "способств": 3295, "защит": 3296, "ляет</w>": 3297, "направ": 3298, "преступ": 3299, "постоя": 3300, "бе": 3301, "лин": 3302, "своему</w>": 3303, "Этот</w>": 3304, "яться,</w>": 3305, "наблюд": 3306, "Посл": 3307, "ства.</w>": 3308, "лага": 3309, "ющих</w>": 3310, "тай": 3311, "жеств": 3312, "настро": 3313, "одном</w>": 3314, "снова</w>": 3315, "писа": 3316, "явш": 3317, "«В": 3318, "ивши": 3319, "зада": 3320, "ген": 3321, "реши": 3322, "рой</w>": 3323, "ская</w>": 3324, "кого": 3325, "очер": 3326, "енный,</w>": 3327, "прежде,</w>": 3328, "углу</w>": 3329, "кош": 3330, "спуска": 3331, "кро": 3332, "однако,</w>": 3333, "они,</w>": 3334, "пору": 3335, "настеж": 3336, "ули": 3337, "даже,</w>": 3338, "лохмот": 3339, "иначе</w>": 3340, "тый</w>": 3341, "обод": 3342, "раздум": 3343, "стояли</w>": 3344, "вал.</w>": 3345, "илась.</w>": 3346, "валь": 3347, "углу,</w>": 3348, "ени,</w>": 3349, "поп": 3350, "ывал</w>": 3351, "нечего</w>": 3352, "ош": 3353, "отчасти</w>": 3354, "желани": 3355, "гон": 3356, "Понима": 3357, "ча</w>": 3358, "лежал</w>": 3359, "заранее</w>": 3360, "чем,</w>": 3361, "голову.</w>": 3362, "ше.</w>": 3363, "естеств": 3364, "приш": 3365, "х…</w>": 3366, "поднял</w>": 3367, "засме": 3368, "Неужели</w>": 3369, "же": 3370, "лихо": 3371, "дверь,</w>": 3372, "или.</w>": 3373, "деньги": 3374, "пришл": 3375, "вид</w>": 3376, "имел</w>": 3377, "узнал</w>": 3378, "сь</w>": 3379, "ал;</w>": 3380, "объяснени": 3381, "поднялся</w>": 3382, "приез": 3383, "родств": 3384, "лет,</w>": 3385, "случае,</w>": 3386, "думал,</w>": 3387, "ня!</w>": 3388, "говорят,</w>": 3389, "вую</w>": 3390, "почему": 3391, "Разумихина</w>": 3392, "третий</w>": 3393, "внимательно</w>": 3394, "перебил</w>": 3395, "рассказыва": 3396, "смотрела</w>": 3397, "шевел": 3398, "ть…</w>": 3399, "неподвиж": 3400, "Фомич": 3401, "(франц.)</w>": 3402, "извини": 3403, "похор": 3404, "маменька,</w>": 3405, "Порфирий,</w>": 3406, "жизни,</w>": 3407, "ничес": 3408, "физ": 3409, "друга</w>": 3410, "ического</w>": 3411, "отвер": 3412, "взгляд": 3413, "нищет": 3414, "кам</w>": 3415, "любов": 3416, "Сер": 3417, "&#": 3418, "часть</w>": 3419, "нан": 3420, "дома</w>": 3421, "ную,</w>": 3422, "горячо</w>": 3423, "кур": 3424, "газет": 3425, "доста": 3426, "овать</w>": 3427, "другим</w>": 3428, "ям,</w>": 3429, "ство.</w>": 3430, "домой</w>": 3431, "никак</w>": 3432, "дель": 3433, "енными</w>": 3434, "случай</w>": 3435, "проход": 3436, "Ивановны,</w>": 3437, "совест": 3438, "напря": 3439, "подозре": 3440, "ное.</w>": 3441, "секр": 3442, "кус": 3443, "притвор": 3444, "помощ": 3445, "кал": 3446, "какое-то</w>": 3447, "боюс": 3448, "единственно</w>": 3449, "болта": 3450, "у;</w>": 3451, "распи": 3452, "задумчиво": 3453, "нил</w>": 3454, "ившись</w>": 3455, "!..»</w>": 3456, "да.</w>": 3457, "на?</w>": 3458, "ита": 3459, "уход": 3460, "сестриц": 3461, "воскли": 3462, "надеж": 3463, "виду</w>": 3464, "ший,</w>": 3465, "пальц": 3466, "сапо": 3467, "еще,</w>": 3468, "ного.</w>": 3469, "государь,</w>": 3470, "мою</w>": 3471, "изволили</w>": 3472, "такое?</w>": 3473, "к?</w>": 3474, "дет.</w>": 3475, "отда": 3476, "нь": 3477, "баш": 3478, "детей</w>": 3479, "губер": 3480, "ила.</w>": 3481, "сле": 3482, "Амалии</w>": 3483, "оги": 3484, "голос</w>": 3485, "произо": 3486, "Где</w>": 3487, "мере</w>": 3488, "ы!</w>": 3489, "насла": 3490, "лучше": 3491, "шею</w>": 3492, "чуть-чуть</w>": 3493, "головой</w>": 3494, "кою</w>": 3495, "глаза,</w>": 3496, "ночь</w>": 3497, "бросил</w>": 3498, "приех": 3499, "пос": 3500, "делов": 3501, "наруж": 3502, "угрю": 3503, "пани": 3504, "зави": 3505, "невест": 3506, "же.</w>": 3507, "хорошень": 3508, "ть?</w>": 3509, "деньги,</w>": 3510, "Тот</w>": 3511, "тихонь": 3512, "енною</w>": 3513, "камен": 3514, "собою</w>": 3515, "посе": 3516, "Ивановне</w>": 3517, "Слу": 3518, "прог": 3519, "сем,</w>": 3520, "комнаты.</w>": 3521, "обморо": 3522, "так!</w>": 3523, "сидел": 3524, "нему,</w>": 3525, "обеих</w>": 3526, "1</w>": 3527, "инди": 3528, "индивиду": 3529, "иров": 3530, "мас": 3531, "ван": 3532, "ением,</w>": 3533, "страст": 3534, "обстанов": 3535, "окру": 3536, "я»,</w>": 3537, "одному</w>": 3538, "дем": 3539, "смерти</w>": 3540, "пенси": 3541, "камор": 3542, "постоян": 3543, "голод": 3544, "енному</w>": 3545, "Пред": 3546, "все,</w>": 3547, "испы": 3548, "необходимо": 3549, "ениях</w>": 3550, "убед": 3551, "сначала</w>": 3552, "затем</w>": 3553, "тот,</w>": 3554, "ений,</w>": 3555, "ст</w>": 3556, "расчет": 3557, "равно": 3558, "судьб": 3559, "ова</w>": 3560, "письмо</w>": 3561, "рест": 3562, "офицер": 3563, "яд": 3564, "(186": 3565, "переж": 3566, "ью.</w>": 3567, "тен": 3568, "ста</w>": 3569, "одно": 3570, "-а": 3571, "стары": 3572, "реж": 3573, "лице</w>": 3574, "рачи": 3575, "показа": 3576, "лица</w>": 3577, "ге</w>": 3578, "отры": 3579, "й;</w>": 3580, "И,</w>": 3581, "умол": 3582, "Лужина</w>": 3583, "ница</w>": 3584, "помина": 3585, "мечта": 3586, "валась</w>": 3587, "раздражитель": 3588, "нился</w>": 3589, "пораз": 3590, "руках</w>": 3591, "Так,</w>": 3592, "кот": 3593, "тря": 3594, "распивоч": 3595, "поминутно</w>": 3596, "привыч": 3597, "телег": 3598, "и-то</w>": 3599, "спуст": 3600, "старушон": 3601, "человек.</w>": 3602, "разу</w>": 3603, "ит…</w>": 3604, "говорить,</w>": 3605, "на!</w>": 3606, "ели,</w>": 3607, "трот": 3608, "троту": 3609, "круго": 3610, "иные</w>": 3611, "солид": 3612, "Наконец</w>": 3613, "Действительно,</w>": 3614, "можете</w>": 3615, "решительно</w>": 3616, "стол</w>": 3617, "сун": 3618, "сунду": 3619, "пп": 3620, "н.</w>": 3621, "нула,</w>": 3622, "неб": 3623, "знает": 3624, "ите?</w>": 3625, "дома,</w>": 3626, "нож": 3627, "добры": 3628, "на…</w>": 3629, "ил!</w>": 3630, "наслажд": 3631, "слых": 3632, "испуган": 3633, "рассе": 3634, "верно,</w>": 3635, "ь!..</w>": 3636, "тепереш": 3637, "нимал": 3638, "богу,</w>": 3639, "скажу</w>": 3640, "доме</w>": 3641, "перем": 3642, "веж": 3643, "показалось</w>": 3644, "доса": 3645, "малей": 3646, "моему</w>": 3647, "схватил</w>": 3648, "туда</w>": 3649, "цель": 3650, "ваша</w>": 3651, "короб": 3652, "поскорее</w>": 3653, "уважа": 3654, "шту": 3655, "у-то</w>": 3656, "я-то</w>": 3657, "гадал": 3658, "Куда</w>": 3659, "ется!</w>": 3660, "Эх,</w>": 3661, "этом,</w>": 3662, "Пра": 3663, "есть.</w>": 3664, "кричит</w>": 3665, "Сей": 3666, "зай": 3667, "решил</w>": 3668, "Слуша": 3669, "отрез": 3670, "приходил": 3671, "предполож": 3672, "пришел": 3673, "вещи</w>": 3674, "пира": 3675, "отлич": 3676, "резко</w>": 3677, "заметила</w>": 3678, "сегодня": 3679, "вижу,</w>": 3680, "Семенович</w>": 3681, "обрадов": 3682, "человек!</w>": 3683, "мур": 3684, "Вы,</w>": 3685, "хотите</w>": 3686, "сегодня,</w>": 3687, "Авдотье</w>": 3688, "наказания»</w>": 3689, "литератур": 3690, "духов": 3691, "отчет": 3692, "действитель": 3693, "стрем": 3694, "утвер": 3695, "второй</w>": 3696, "негодовани": 3697, "самые</w>": 3698, "Ален": 3699, "влияни": 3700, "мать,</w>": 3701, "вдов": 3702, "помещ": 3703, "дая</w>": 3704, "глубоко</w>": 3705, "гие</w>": 3706, "мы,</w>": 3707, "ает</w>": 3708, "которому</w>": 3709, "жива": 3710, "каким</w>": 3711, "ненавист": 3712, "сос": 3713, "выш": 3714, "ича</w>": 3715, "хся</w>": 3716, "9</w>": 3717, "принес": 3718, "жур": 3719, "стве</w>": 3720, "ением.</w>": 3721, "зр": 3722, "коно": 3723, "шин": 3724, "крат": 3725, "бож": 3726, "могло</w>": 3727, "ательно</w>": 3728, "познаком": 3729, "га.</w>": 3730, "состояни": 3731, "ей-": 3732, "труд": 3733, "ра.</w>": 3734, "оборот": 3735, "отчаян": 3736, "клон": 3737, "ительный</w>": 3738, "жильц": 3739, "лестнице</w>": 3740, "Совсем</w>": 3741, "теш": 3742, "расстро": 3743, "слаб": 3744, "завед": 3745, "лошад": 3746, "другое</w>": 3747, "площад": 3748, "ил…</w>": 3749, "Ни</w>": 3750, "комнату</w>": 3751, "рассерд": 3752, "ваши</w>": 3753, "папир": 3754, "папирос": 3755, "ивал": 3756, "восклиц": 3757, "ски</w>": 3758, "мысль,</w>": 3759, "чувствовал,</w>": 3760, "немного,</w>": 3761, "куда-то</w>": 3762, "голову,</w>": 3763, "твердо</w>": 3764, "ком.</w>": 3765, "фамил": 3766, "пока": 3767, "Лебезятников,</w>": 3768, "алось,</w>": 3769, "Для</w>": 3770, "подхватил</w>": 3771, "вольте,</w>": 3772, "вы…</w>": 3773, "достоин": 3774, "прочи": 3775, "хотела</w>": 3776, "воображ": 3777, "быва": 3778, "те!</w>": 3779, "даве": 3780, "алис": 3781, "шесть</w>": 3782, "Потому</w>": 3783, "тая</w>": 3784, "говоря</w>": 3785, "женщ": 3786, "положил</w>": 3787, "ко.</w>": 3788, "же!</w>": 3789, "ник,</w>": 3790, "кстат": 3791, "поблед": 3792, "тобой</w>": 3793, "знаешь,</w>": 3794, "универ": 3795, "университ": 3796, "ах": 3797, "должна</w>": 3798, "во-первых,</w>": 3799, "поня": 3800, "ена,</w>": 3801, "чив</w>": 3802, "ившись,</w>": 3803, "помя": 3804, "те.</w>": 3805, "Петровича</w>": 3806, "мест</w>": 3807, "жу</w>": 3808, "возьм": 3809, "Бо": 3810, "смотри": 3811, "тяжело</w>": 3812, "спас": 3813, "ть!</w>": 3814, "далеко</w>": 3815, "помешан": 3816, "чего-то</w>": 3817, "ались,</w>": 3818, "Ви": 3819, "нулся.</w>": 3820, "прибавила</w>": 3821, "помнил,</w>": 3822, "по-моему,</w>": 3823, "повернулся</w>": 3824, "вниз</w>": 3825, "вая,</w>": 3826, "минуту.</w>": 3827, "мой!</w>": 3828, "раздав": 3829, "крю": 3830, "ясно,</w>": 3831, "совсем,</w>": 3832, "пропуст": 3833, "Буд": 3834, "удивлением</w>": 3835, "Порфирия</w>": 3836, "вспых": 3837, "проща": 3838, "думаю,</w>": 3839, "сирот": 3840, "e</w>": 3841, "хе-хе!</w>": 3842, "прошептала</w>": 3843, "ции</w>": 3844, "человечест": 3845, "ва.</w>": 3846, "чтож": 3847, "и»</w>": 3848, "ателя</w>": 3849, "3</w>": 3850, "17": 3851, "ине</w>": 3852, "месте</w>": 3853, "полаг": 3854, "состав": 3855, "щие</w>": 3856, "менее</w>": 3857, "преступления</w>": 3858, "демок": 3859, "семей": 3860, "дам</w>": 3861, "ами.</w>": 3862, "рол": 3863, "насил": 3864, "ься</w>": 3865, "застав": 3866, "счет": 3867, "сохра": 3868, "После</w>": 3869, "попа": 3870, "различ": 3871, "показыва": 3872, "фантаст": 3873, "чистот": 3874, "5</w>": 3875, "А.</w>": 3876, "четыре</w>": 3877, "пал": 3878, "обор": 3879, "ться.</w>": 3880, "«С": 3881, "свящ": 3882, "анг": 3883, "последние</w>": 3884, "цени": 3885, "польз": 3886, "Лю": 3887, "очеред": 3888, "трудно</w>": 3889, "ощущение</w>": 3890, "пач": 3891, "цеп": 3892, "скон": 3893, "восп": 3894, "ленного</w>": 3895, "сквоз": 3896, "отвращением</w>": 3897, "разврат": 3898, "ним.</w>": 3899, "нашего</w>": 3900, "нейшим</w>": 3901, "кред": 3902, "улицу.</w>": 3903, "пустя": 3904, "шаг": 3905, "Пожал": 3906, "кварт": 3907, "костю": 3908, "товари": 3909, "смущ": 3910, "нитель": 3911, "них,</w>": 3912, "нрав": 3913, "неле": 3914, "месяц": 3915, "покло": 3916, "щим</w>": 3917, "взглядом</w>": 3918, "угод": 3919, "нул.</w>": 3920, "вашу</w>": 3921, "соображ": 3922, "отпер": 3923, "бород": 3924, "ек,</w>": 3925, "отдал": 3926, "мальчиш": 3927, "еть,</w>": 3928, "пять": 3929, "пьян": 3930, "прилич": 3931, "милостивый</w>": 3932, "Сам</w>": 3933, "чик,</w>": 3934, "виде</w>": 3935, "платье</w>": 3936, "по-видимо": 3937, "меня!</w>": 3938, "кула": 3939, "известно,</w>": 3940, "(он</w>": 3941, "видом</w>": 3942, "«Что</w>": 3943, "сильно</w>": 3944, "Да…</w>": 3945, "голуб": 3946, "оде": 3947, "обес": 3948, "забы": 3949, "Пойд": 3950, "Через</w>": 3951, "сдерж": 3952, "стороны,</w>": 3953, "она.</w>": 3954, "рукой</w>": 3955, "Соня!</w>": 3956, "ки!</w>": 3957, "рублей,</w>": 3958, "Может</w>": 3959, "наг": 3960, "знаешь</w>": 3961, "лись,</w>": 3962, "ме</w>": 3963, "приглаш": 3964, "ведом": 3965, "ный.</w>": 3966, "кажется</w>": 3967, "тебя,</w>": 3968, "прида": 3969, "очевидно,</w>": 3970, "дочер": 3971, "До</w>": 3972, "попрос": 3973, "же?</w>": 3974, "ле</w>": 3975, "мей": 3976, "о-": 3977, "сторону,</w>": 3978, "повторил</w>": 3979, "глаза.</w>": 3980, "коль</w>": 3981, "посещ": 3982, "перевод": 3983, "топо": 3984, "жид": 3985, "али!</w>": 3986, "вскоч": 3987, "лево": 3988, "Мить": 3989, "публи": 3990, "какого": 3991, "-то!</w>": 3992, "решился</w>": 3993, "генер": 3994, "А,</w>": 3995, "итре": 3996, "докто": 3997, "остроум": 3998, "говорите,</w>": 3999, "«П": 4000, "произвед": 4001, "X</w>": 4002, "развит": 4003, "француз": 4004, "пей": 4005, "противополож": 4006, "угнет": 4007, ".[": 4008, "6</w>": 4009, "ющего</w>": 4010, "посред": 4011, "окружа": 4012, "прич": 4013, "глазах</w>": 4014, "демократ": 4015, "Его</w>": 4016, "помог": 4017, "скор": 4018, "позд": 4019, "содерж": 4020, "трагичес": 4021, "дей": 4022, "Сони</w>": 4023, "вым</w>": 4024, "начале</w>": 4025, "неот": 4026, "поко": 4027, "книж": 4028, "сестра</w>": 4029, "истори": 4030, "ству": 4031, "иса": 4032, "раскры": 4033, "зам": 4034, "ются,</w>": 4035, "шая": 4036, "участ": 4037, "рань": 4038, "отдел": 4039, "тогдаш": 4040, "относ": 4041, "явл": 4042, "эконо": 4043, "сен": 4044, "ени.</w>": 4045, "пусто": 4046, "смут": 4047, "некоторым</w>": 4048, "гося</w>": 4049, "ису": 4050, "хар": 4051, "ниш": 4052, "нечто</w>": 4053, "лицом</w>": 4054, "юри": 4055, "мерз": 4056, "кал</w>": 4057, "жар": 4058, "улицу</w>": 4059, "чувствовал</w>": 4060, "стес": 4061, "глупост": 4062, "канав": 4063, "в-": 4064, "неволь": 4065, "ец,</w>": 4066, "некоторое</w>": 4067, "недовер": 4068, "вспомни": 4069, "комнату,</w>": 4070, "строго</w>": 4071, "вскрикнул</w>": 4072, "йте!</w>": 4073, "развяз": 4074, "енный.</w>": 4075, "какого-то</w>": 4076, "зад": 4077, "лас": 4078, "цо</w>": 4079, "осмел": 4080, "узнать,</w>": 4081, "прямо,</w>": 4082, "вероятно,</w>": 4083, "ют.</w>": 4084, "итесь</w>": 4085, "понимаю,</w>": 4086, "тан": 4087, "хлеб": 4088, "была,</w>": 4089, "изволите</w>": 4090, "рь,</w>": 4091, "неприл": 4092, "неприлич": 4093, "плачу": 4094, "колен": 4095, "язы": 4096, "правду</w>": 4097, "один": 4098, "соро": 4099, "Раскольникову.</w>": 4100, "его;</w>": 4101, "дыш": 4102, "то…</w>": 4103, "знаю</w>": 4104, "бь": 4105, "кле": 4106, "диван,</w>": 4107, "свеч": 4108, "сквозь</w>": 4109, "усмех": 4110, "чем-нибудь</w>": 4111, "плю": 4112, "ят.</w>": 4113, "прол": 4114, "наста": 4115, "аться,</w>": 4116, "Прав": 4117, "вторы": 4118, "приглас": 4119, "ам,</w>": 4120, "вшийся</w>": 4121, "«Не</w>": 4122, "изви": 4123, "друж": 4124, "Вер": 4125, "ки;</w>": 4126, "что?</w>": 4127, "действительно,</w>": 4128, "Оба</w>": 4129, "никого</w>": 4130, "Вам</w>": 4131, "руку.</w>": 4132, "мигом</w>": 4133, "Послуша": 4134, "вытащ": 4135, "Фу,</w>": 4136, "иль</w>": 4137, "ь-то</w>": 4138, "свеж": 4139, "где-то</w>": 4140, "такую</w>": 4141, "убил,</w>": 4142, "посад": 4143, "ку!</w>": 4144, "вчерашнего</w>": 4145, "отыск": 4146, "деле,</w>": 4147, "стуч": 4148, "так…</w>": 4149, "письмоводител": 4150, "Илья</w>": 4151, "Никод": 4152, "ывал,</w>": 4153, "поглядел</w>": 4154, "слово</w>": 4155, "дря": 4156, "кори": 4157, "похорон": 4158, "боже</w>": 4159, "Да-с,</w>": 4160, "Порфирия.</w>": 4161, "er": 4162, "Лен": 4163, "Лебезятников</w>": 4164, "принад": 4165, "XI": 4166, "услов": 4167, "ели": 4168, "борьбы</w>": 4169, "2</w>": 4170, "Во</w>": 4171, "изображ": 4172, "енности</w>": 4173, "мног": 4174, "неиз": 4175, "Пис": 4176, "внеш": 4177, "привод": 4178, "эк": 4179, "ника</w>": 4180, "студент,</w>": 4181, "принужд": 4182, "тысячи</w>": 4183, "мысли,</w>": 4184, "дается</w>": 4185, "иво</w>": 4186, "Ма": 4187, "ями.</w>": 4188, "милли": 4189, "ывает</w>": 4190, "слабы": 4191, "общества</w>": 4192, "будет": 4193, "ность.</w>": 4194, "уль": 4195, "Лужина,</w>": 4196, "ятся</w>": 4197, "енные,</w>": 4198, "борьб": 4199, "кажды": 4200, "чувство</w>": 4201, "убил</w>": 4202, "ток</w>": 4203, "невы": 4204, "Ра": 4205, "гой</w>": 4206, "отстав": 4207, "этого,</w>": 4208, "авши": 4209, "му.</w>": 4210, "ник": 4211, "ан</w>": 4212, "ково</w>": 4213, "Петербурге</w>": 4214, "Молод": 4215, "образован": 4216, "процент": 4217, "Мил": 4218, "рассужд": 4219, "следу": 4220, "разви": 4221, "валось</w>": 4222, "ников</w>": 4223, "великодуш": 4224, "енная,</w>": 4225, "ров,</w>": 4226, "быти": 4227, "ступа": 4228, "тысяч</w>": 4229, "свете</w>": 4230, "разговор</w>": 4231, "Каж": 4232, "При</w>": 4233, "уки</w>": 4234, "обязан": 4235, "болезни</w>": 4236, "муча": 4237, "своею</w>": 4238, "яла</w>": 4239, "нуть,</w>": 4240, "иду": 4241, "мелькнуло</w>": 4242, "сквер": 4243, "е!..</w>": 4244, "делать</w>": 4245, "квартиры</w>": 4246, "Стару": 4247, "опять,</w>": 4248, "помолч": 4249, "бары": 4250, "другую</w>": 4251, "верх": 4252, "больше,</w>": 4253, "рив": 4254, "тридцать</w>": 4255, "часы</w>": 4256, "будем</w>": 4257, "вздор,</w>": 4258, "заметил,</w>": 4259, "Один</w>": 4260, "глазами</w>": 4261, "их.</w>": 4262, "время.</w>": 4263, "месяца</w>": 4264, "дох": 4265, "Сто": 4266, "интересов": 4267, "оду": 4268, "илет": 4269, "вами,</w>": 4270, "Мармелад": 4271, "Мармеладов</w>": 4272, "нему.</w>": 4273, "торжеств": 4274, "доброд": 4275, "каба": 4276, "прошу</w>": 4277, "дочь</w>": 4278, "место,</w>": 4279, "аю</w>": 4280, "воспо": 4281, "ла!</w>": 4282, "ились.</w>": 4283, "пропа": 4284, "ант": 4285, "Ивановне,</w>": 4286, "ли:</w>": 4287, "Капер": 4288, "Каперна": 4289, "Капернаум": 4290, "вошла</w>": 4291, "охот": 4292, "Заха": 4293, "алась,</w>": 4294, "вышел,</w>": 4295, "придерж": 4296, "обещ": 4297, "Мал": 4298, "закры": 4299, "придет": 4300, "Тогда</w>": 4301, "Господи,</w>": 4302, "каком-то</w>": 4303, "рассеян": 4304, "указ": 4305, "стук": 4306, "вшей</w>": 4307, "ишь!</w>": 4308, "письмо": 4309, "милый</w>": 4310, "перемени": 4311, "разные</w>": 4312, "Остав": 4313, "наверно</w>": 4314, "хорошо,</w>": 4315, "воскрес": 4316, "ены,</w>": 4317, "лив": 4318, "упомя": 4319, "Петру</w>": 4320, "осторожно</w>": 4321, "объясня": 4322, "говорили</w>": 4323, "шестви": 4324, "наду": 4325, "ит?</w>": 4326, "последнего</w>": 4327, "знал": 4328, "етель": 4329, "положим,</w>": 4330, "Се": 4331, "будь</w>": 4332, "клят": 4333, "ер</w>": 4334, "разреш": 4335, "принять</w>": 4336, "странное</w>": 4337, "чуд": 4338, "угол,</w>": 4339, "пойдем": 4340, "есть!</w>": 4341, "Та</w>": 4342, "ялся.</w>": 4343, "смотре": 4344, "почему-то</w>": 4345, "один,</w>": 4346, "Разумихину,</w>": 4347, "понрав": 4348, "ю-нибудь</w>": 4349, "стари": 4350, "задыха": 4351, "понять</w>": 4352, "разговари": 4353, "разы": 4354, "вось": 4355, "глупо": 4356, "ть:</w>": 4357, "давеш": 4358, "отворил</w>": 4359, "восемь</w>": 4360, "топор</w>": 4361, "ми;</w>": 4362, "нарочно,</w>": 4363, "моч": 4364, "Хот": 4365, "ь-": 4366, "рассме": 4367, "трево": 4368, "де.</w>": 4369, "удерж": 4370, "полчаса</w>": 4371, "ять.</w>": 4372, "хочешь</w>": 4373, "же…</w>": 4374, "робко</w>": 4375, "будет.</w>": 4376, "реко": 4377, "нахмур": 4378, "раздражительно</w>": 4379, "ми!</w>": 4380, "интересу": 4381, "преувелич": 4382, "Извини": 4383, "хотите,</w>": 4384, "говорю</w>": 4385, "знаете?</w>": 4386, "пута": 4387, "усмеш": 4388, "&#2": 4389, "ми…</w>": 4390, "t</w>": 4391, "х:</w>": 4392, "СТ": 4393, "покол": 4394, "пут": 4395, "XIX</w>": 4396, "личности</w>": 4397, "сочи": 4398, "гар": 4399, "филос": 4400, "умира": 4401, "конце</w>": 4402, "цар": 4403, "терпет": 4404, "сущест": 4405, "несправедливо": 4406, "скому</w>": 4407, "романе</w>": 4408, "самим</w>": 4409, "людь": 4410, "искрен": 4411, "ленный</w>": 4412, "преступление</w>": 4413, "сист": 4414, "правиль": 4415, "ний,</w>": 4416, "природ": 4417, "петербур": 4418, "Сенно": 4419, "ейся</w>": 4420, "нах</w>": 4421, "силы</w>": 4422, "назнач": 4423, "дерз": 4424, "нор": 4425, "дрожа": 4426, "ению,</w>": 4427, "ног": 4428, "права</w>": 4429, "лению</w>": 4430, "прак": 4431, "юся</w>": 4432, "обма": 4433, "могут</w>": 4434, "Челов": 4435, "деятель": 4436, "един": 4437, "ений.</w>": 4438, "трех</w>": 4439, "0</w>": 4440, "184": 4441, "«Д": 4442, "катор": 4443, "60-х</w>": 4444, "пережива": 4445, "ким,</w>": 4446, "справед": 4447, "сказыва": 4448, "уществ": 4449, "гур": 4450, "следует</w>": 4451, "аг": 4452, "наи": 4453, "ии,</w>": 4454, "ка…</w>": 4455, "сделал</w>": 4456, "Тол": 4457, "роз": 4458, "оттен": 4459, "улицу,</w>": 4460, "есл": 4461, "мени": 4462, "душев": 4463, "проц": 4464, "двери</w>": 4465, "Здес": 4466, "крош": 4467, "ряд</w>": 4468, "нимать</w>": 4469, "многие</w>": 4470, "стру": 4471, "мичес": 4472, "выйд": 4473, "ость</w>": 4474, "жерт": 4475, "спокойно</w>": 4476, "лестнице,</w>": 4477, "последний</w>": 4478, "собо": 4479, "которыми</w>": 4480, "квартира</w>": 4481, "забыл</w>": 4482, "переступ": 4483, "любез": 4484, "особенно": 4485, "комод": 4486, "сере": 4487, "полтора</w>": 4488, "вперед,</w>": 4489, "идти</w>": 4490, "Точ": 4491, "одни</w>": 4492, "выходя</w>": 4493, "вался,</w>": 4494, "ительно.</w>": 4495, "поддерж": 4496, "голова</w>": 4497, "захотелось</w>": 4498, "вышла</w>": 4499, "товарищ": 4500, "возб": 4501, "ной.</w>": 4502, "зас": 4503, "спрашивал": 4504, "высоком": 4505, "обеими</w>": 4506, "недав": 4507, "встал,</w>": 4508, "исти": 4509, "супр": 4510, "куда-нибудь</w>": 4511, "ничего": 4512, "проп": 4513, "сколько": 4514, "пуск": 4515, "нейшие</w>": 4516, "илис": 4517, "гн": 4518, "нас,</w>": 4519, "волнов": 4520, "часу</w>": 4521, "целков": 4522, "взяла</w>": 4523, "давеча,</w>": 4524, "Семеновна,</w>": 4525, "жена</w>": 4526, "превос": 4527, "превосход": 4528, "шарман": 4529, "слушал</w>": 4530, "прыг": 4531, "ют!</w>": 4532, "думаете,</w>": 4533, "смех</w>": 4534, "пойм": 4535, "лестницы</w>": 4536, "броса": 4537, "пущ": 4538, "фатер": 4539, "уйд": 4540, "Марфы</w>": 4541, "мужи": 4542, "съ": 4543, "корот": 4544, "зато</w>": 4545, "утро": 4546, "езд": 4547, "честь</w>": 4548, "присл": 4549, "случай,</w>": 4550, "уверена,</w>": 4551, "дело.</w>": 4552, "секрет": 4553, "можешь</w>": 4554, "яю</w>": 4555, "покамест</w>": 4556, "емся</w>": 4557, "называ": 4558, "Петровича.</w>": 4559, "шее</w>": 4560, "целую</w>": 4561, "искри": 4562, "внуш": 4563, "знать,</w>": 4564, "этого": 4565, "вообраз": 4566, "прода": 4567, "лез": 4568, ".,</w>": 4569, "Дело</w>": 4570, "раст": 4571, "шагах</w>": 4572, "догадал": 4573, "хотел,</w>": 4574, "ми-то</w>": 4575, "та.</w>": 4576, "посмотрела</w>": 4577, "хлопот": 4578, "-э": 4579, "слова,</w>": 4580, "плач": 4581, "комнаты</w>": 4582, "сил</w>": 4583, "пришла</w>": 4584, "вроде</w>": 4585, "раш": 4586, "рыва": 4587, "Сейчас</w>": 4588, "мерт": 4589, "равно</w>": 4590, "услыш": 4591, "никакой</w>": 4592, "Между</w>": 4593, "обидел": 4594, "Надо</w>": 4595, "ях.</w>": 4596, "стоял,</w>": 4597, "минуты</w>": 4598, "нилась</w>": 4599, "ит;</w>": 4600, "выбеж": 4601, "загля": 4602, "месте,</w>": 4603, "повторял</w>": 4604, "имею</w>": 4605, "какого-нибудь</w>": 4606, "пьян</w>": 4607, "него": 4608, "Ла": 4609, "Никодим</w>": 4610, "просить</w>": 4611, "Петрович.</w>": 4612, "кажет": 4613, "сумасшедши": 4614, "on": 4615, "во-вторы": 4616, "зар": 4617, "ведь,</w>": 4618, "рекомен": 4619, "прогрес": 4620, "ильщи": 4621, "уме": 4622, "Митре": 4623, "спрашива": 4624, "свидетел": 4625, "сь,</w>": 4626, "тесь</w>": 4627, "Вообраз": 4628, "порядоч": 4629, "немедленно</w>": 4630, "-ха!</w>": 4631, "психологи": 4632, "дети</w>": 4633, "Иису": 4634, "хе-хе-хе!</w>": 4635, "и-кх": 4636, "Эта</w>": 4637, "принадлеж": 4638, "миров": 4639, "ам": 4640, "также</w>": 4641, "речи": 4642, "человека.</w>": 4643, "соврем": 4644, "алистичес": 4645, "Со</w>": 4646, "эпох": 4647, "карти": 4648, "той,</w>": 4649, "ап": 4650, "ничтож": 4651, "молодого</w>": 4652, "существующ": 4653, "пыт": 4654, "чая</w>": 4655, "ивать</w>": 4656, "человечеств": 4657, "Сердц": 4658, "осталь": 4659, "нераз": 4660, "ствия</w>": 4661, "пя": 4662, "петербург": 4663, "исключ": 4664, "поры": 4665, "необыкновенны": 4666, "судь": 4667, "ством,</w>": 4668, "ям.</w>": 4669, "твар": 4670, "испыта": 4671, "х»</w>": 4672, "Свидригайлова,</w>": 4673, "слабо": 4674, "ный": 4675, "душе</w>": 4676, "убить</w>": 4677, "крот": 4678, "Одна": 4679, "носи": 4680, "юби": 4681, "Гор": 4682, "спл": 4683, "стояв": 4684, "успе": 4685, "худож": 4686, "идеи</w>": 4687, "страда": 4688, "4</w>": 4689, "раздел": 4690, "лен</w>": 4691, "служб": 4692, "(18": 4693, "уто": 4694, "ге,</w>": 4695, "почувствовал</w>": 4696, "упор": 4697, "привел": 4698, "удач": 4699, "характер</w>": 4700, "увлеч": 4701, "хо</w>": 4702, "всякой</w>": 4703, "свидетель": 4704, "ностью</w>": 4705, "обви": 4706, "Несмотр": 4707, "Несмотря</w>": 4708, "какую</w>": 4709, "лаз": 4710, "понял</w>": 4711, "детей,</w>": 4712, "факт": 4713, "сознатель": 4714, "лица,</w>": 4715, "исход": 4716, "за,</w>": 4717, "жир": 4718, "каждое</w>": 4719, "ными,</w>": 4720, "глазами,</w>": 4721, "прибли": 4722, "первой</w>": 4723, "сот": 4724, "зная</w>": 4725, "правд": 4726, "гроз": 4727, "наклон": 4728, "таков": 4729, "отказа": 4730, "реша": 4731, "слышно</w>": 4732, "носил": 4733, "Там</w>": 4734, "здеш": 4735, "ому</w>": 4736, "легч": 4737, "поход": 4738, "некоторого</w>": 4739, "всякий</w>": 4740, "вздор</w>": 4741, "Люб": 4742, "ради</w>": 4743, "пошел,</w>": 4744, "меша": 4745, "любил</w>": 4746, "немец": 4747, "просп": 4748, "считать</w>": 4749, "илас": 4750, "уви": 4751, "ободр": 4752, "длин": 4753, "особенным</w>": 4754, "помню,</w>": 4755, "стола</w>": 4756, "дверью</w>": 4757, "вынул</w>": 4758, "серебря": 4759, "рубля</w>": 4760, "карман</w>": 4761, "комнаты,</w>": 4762, "спор": 4763, "дня": 4764, "ницу</w>": 4765, "хол": 4766, "ностию</w>": 4767, "каком</w>": 4768, "маз": 4769, "видно</w>": 4770, "Лицо</w>": 4771, "Особ": 4772, "послуш": 4773, "разгов": 4774, "разгово": 4775, "иных</w>": 4776, "сей</w>": 4777, "нял</w>": 4778, "наше</w>": 4779, "етесь</w>": 4780, "пош": 4781, "нули</w>": 4782, "слова.</w>": 4783, "умен": 4784, "очут": 4785, "леп": 4786, "вытерп": 4787, "своей,</w>": 4788, "ки…</w>": 4789, "рубаш": 4790, "ет:</w>": 4791, "ноги</w>": 4792, "(а</w>": 4793, "Бер": 4794, "воротился</w>": 4795, "«Х": 4796, "!),</w>": 4797, "ия,</w>": 4798, "провож": 4799, "стис": 4800, "посмотрел": 4801, "сия</w>": 4802, "ждал</w>": 4803, "отца</w>": 4804, "ем…</w>": 4805, "Двер": 4806, "Кажется,</w>": 4807, "женщина,</w>": 4808, "тридцат": 4809, "комнату.</w>": 4810, "денег": 4811, "ив,</w>": 4812, "рать</w>": 4813, "поцелов": 4814, "Чем</w>": 4815, "твоего</w>": 4816, "добро": 4817, "уса": 4818, "ме,</w>": 4819, "овать,</w>": 4820, "утеш": 4821, "горь": 4822, "нисколько</w>": 4823, "уведом": 4824, "покаж": 4825, "прям": 4826, "отвечала</w>": 4827, "дня,</w>": 4828, "слов</w>": 4829, "компани": 4830, "шей,</w>": 4831, "конторе</w>": 4832, "Петровича,</w>": 4833, "извоз": 4834, "V</w>": 4835, "злобно</w>": 4836, "“.</w>": 4837, "“</w>": 4838, "двадцат": 4839, "дяд": 4840, "раб": 4841, "Почему</w>": 4842, "проходил</w>": 4843, "начало</w>": 4844, "размах": 4845, "увидел</w>": 4846, "Вон</w>": 4847, "беспокойтесь,</w>": 4848, "Э-э": 4849, "думать</w>": 4850, "нит": 4851, "вдруг": 4852, "кой-": 4853, "ждал,</w>": 4854, "Право,</w>": 4855, "отыски": 4856, "кладби": 4857, "ть;</w>": 4858, "какую-нибудь</w>": 4859, "вался.</w>": 4860, "его?</w>": 4861, "завтра": 4862, "стараясь</w>": 4863, "куш": 4864, "таинств": 4865, "жить,</w>": 4866, "Голова</w>": 4867, "оборачи": 4868, "касается</w>": 4869, "ило,</w>": 4870, "нем,</w>": 4871, "гул": 4872, "молни": 4873, "видимо,</w>": 4874, "береж": 4875, "губы</w>": 4876, "черт!</w>": 4877, "бах": 4878, "чего,</w>": 4879, "ешь!</w>": 4880, "виноват": 4881, "оволь": 4882, "позвольте</w>": 4883, "ты…</w>": 4884, "подло": 4885, "подозрева": 4886, "Тут,</w>": 4887, "Черт</w>": 4888, "во-вторых,</w>": 4889, "отоз": 4890, "Паш": 4891, "Пашень": 4892, "манер": 4893, "рот</w>": 4894, "Разумихина,</w>": 4895, "настой": 4896, "красильщи": 4897, "том.</w>": 4898, "видите</w>": 4899, "х;</w>": 4900, "слышал": 4901, "пень": 4902, "пожар": 4903, "»?</w>": 4904, "вздор!</w>": 4905, "генерал": 4906, "кап": 4907, "полюб": 4908, "Рес": 4909, "Рессл": 4910, "Порфирий.</w>": 4911, "Свидригайлов.</w>": 4912, "in": 4913, "комму": 4914, "re": 4915, "an": 4916, "Г.</w>": 4917, "ником</w>": 4918, "новых</w>": 4919, "III</w>": 4920, "крестья": 4921, "стр": 4922, "преп": 4923, "препят": 4924, "выражение</w>": 4925, "анализ": 4926, "принци": 4927, "совести</w>": 4928, "атель</w>": 4929, "ью": 4930, "мир": 4931, "зы": 4932, "подвер": 4933, "филосо": 4934, "философ": 4935, "образ</w>": 4936, "ана": 4937, "прор": 4938, "соз": 4939, "спер": 4940, "подтвер": 4941, "убийства</w>": 4942, "ств</w>": 4943, "шую</w>": 4944, "богат": 4945, "прави": 4946, "рож": 4947, "униж": 4948, "теперь…</w>": 4949, "нения</w>": 4950, "истории</w>": 4951, "власт": 4952, "ием</w>": 4953, "кли": 4954, "вод</w>": 4955, "подав": 4956, "клас": 4957, "цвет": 4958, "представлял": 4959, "нием</w>": 4960, "меня": 4961, "старухи</w>": 4962, "лека": 4963, "каждым</w>": 4964, "разры": 4965, "бесконеч": 4966, "ему.</w>": 4967, "скую</w>": 4968, "счастливы": 4969, "р,</w>": 4970, "ически</w>": 4971, "глад": 4972, "ужда": 4973, "Глав": 4974, "шаяся</w>": 4975, "внимание</w>": 4976, "7</w>": 4977, "Николая</w>": 4978, "еля</w>": 4979, "ге.</w>": 4980, "ними,</w>": 4981, "смир": 4982, "ания</w>": 4983, "голове,</w>": 4984, "решимо": 4985, "фигур": 4986, "бессил": 4987, "человеку</w>": 4988, "ывали</w>": 4989, "облич": 4990, "№</w>": 4991, "осво": 4992, "ания,</w>": 4993, "вследствие</w>": 4994, "чисто": 4995, "буль": 4996, "заку": 4997, "пуб": 4998, "вались</w>": 4999, "измени": 5000, "Здесь</w>": 5001, "посторон": 5002, "матери,</w>": 5003, "освещ": 5004, "наши</w>": 5005, "последней</w>": 5006, "моно": 5007, "чувства</w>": 5008, "кать</w>": 5009, "дев</w>": 5010, "сторону</w>": 5011, "сущности,</w>": 5012, "вызыва": 5013, "вести</w>": 5014, "брата</w>": 5015, "гнус": 5016, "склад": 5017, "солнц": 5018, "люди,</w>": 5019, "най": 5020, "шка": 5021, "лестницу.</w>": 5022, "никакого</w>": 5023, "кольз": 5024, "улице</w>": 5025, "вон": 5026, "Кстат": 5027, "забыть": 5028, "рукой,</w>": 5029, "какая-нибудь</w>": 5030, "порт": 5031, "главное,</w>": 5032, "случилось</w>": 5033, "раз.</w>": 5034, "щел": 5035, "дав</w>": 5036, "прихож": 5037, "олос": 5038, "поспешил</w>": 5039, "были,</w>": 5040, "Может,</w>": 5041, "сталь": 5042, "-с</w>": 5043, "ите": 5044, "пошла</w>": 5045, "прислуши": 5046, "Точно</w>": 5047, "сделать,</w>": 5048, "тротуар": 5049, "авший</w>": 5050, "причем</w>": 5051, "опять": 5052, "Был</w>": 5053, "щегол": 5054, "Было</w>": 5055, "беспрерывно</w>": 5056, "говорить.</w>": 5057, "пятьдес": 5058, "какого</w>": 5059, "бывший</w>": 5060, "х?</w>": 5061, "Особенно</w>": 5062, "ика": 5063, "хлопота": 5064, "Мармеладов,</w>": 5065, "ось…</w>": 5066, "ально,</w>": 5067, "нейший</w>": 5068, "ст,</w>": 5069, "бы!</w>": 5070, "рен": 5071, "шли,</w>": 5072, "рад,</w>": 5073, "судить</w>": 5074, "ить;</w>": 5075, "ял,</w>": 5076, "ным": 5077, "что!</w>": 5078, "отве": 5079, "вижу</w>": 5080, "целковых</w>": 5081, "вздра": 5082, "нейшее</w>": 5083, "Афа": 5084, "божи": 5085, "человеком</w>": 5086, "домой,</w>": 5087, "ский,</w>": 5088, "ожив": 5089, "зашел</w>": 5090, "засмеялся</w>": 5091, "захохот": 5092, "глядя</w>": 5093, "чахо": 5094, "чахоточ": 5095, "вы!</w>": 5096, "нем.</w>": 5097, "поднима": 5098, "Дверь</w>": 5099, "церем": 5100, "ками.</w>": 5101, "лихорад": 5102, "тив</w>": 5103, "вскрик": 5104, "заплак": 5105, "сделал,</w>": 5106, "предрассуд": 5107, "никаких</w>": 5108, "состоянии</w>": 5109, "неча": 5110, "нечаян": 5111, "ялась</w>": 5112, "сердце.</w>": 5113, "адрес": 5114, "ко-": 5115, "Сла": 5116, "узнал,</w>": 5117, "делать?</w>": 5118, "прас": 5119, "ней.</w>": 5120, "бросить</w>": 5121, "сканд": 5122, "многое</w>": 5123, "мною</w>": 5124, "некоторые</w>": 5125, "доказатель": 5126, "невин": 5127, "предполаг": 5128, "ится.</w>": 5129, "некоторых</w>": 5130, "занят": 5131, "ется;</w>": 5132, "старался</w>": 5133, "поправ": 5134, "юрид": 5135, "ном.</w>": 5136, "Во-": 5137, "гом,</w>": 5138, "икат": 5139, "свидания</w>": 5140, "вышл": 5141, "извозчи": 5142, "улыбка</w>": 5143, "ка-то</w>": 5144, "собира": 5145, "тон</w>": 5146, "ения;</w>": 5147, "закла": 5148, "дай</w>": 5149, "етесь?</w>": 5150, "скрыва": 5151, "или…</w>": 5152, "всегда,</w>": 5153, "припомнил": 5154, "скамей": 5155, "дали</w>": 5156, "хлы": 5157, "Послушайте,</w>": 5158, "допраши": 5159, "чего?</w>": 5160, "Это,</w>": 5161, "…[": 5162, "вало</w>": 5163, "нялся</w>": 5164, "изо</w>": 5165, "Па": 5166, "секу": 5167, "Сердце</w>": 5168, "это.</w>": 5169, "убил": 5170, "грудь</w>": 5171, "прята": 5172, "ко…</w>": 5173, "тихо,</w>": 5174, "подар": 5175, "шая,</w>": 5176, "умр": 5177, "ду!</w>": 5178, "развра": 5179, "мог,</w>": 5180, "белье</w>": 5181, "то.</w>": 5182, "повод": 5183, "когда,</w>": 5184, "ски,</w>": 5185, "вопрос:</w>": 5186, "прошло</w>": 5187, "подож": 5188, "взгляда</w>": 5189, "скоч": 5190, "Ишь</w>": 5191, "тыл": 5192, "продолжала</w>": 5193, "мертво": 5194, "побежал</w>": 5195, "яч": 5196, "руки.</w>": 5197, "ступил</w>": 5198, "Эй,</w>": 5199, "-а-": 5200, "Что?</w>": 5201, "Кох</w>": 5202, "самая</w>": 5203, "полной</w>": 5204, "ума</w>": 5205, "кварталь": 5206, "квартиру,</w>": 5207, "затороп": 5208, "присутстви": 5209, "алась.</w>": 5210, "благородный</w>": 5211, "нить,</w>": 5212, "отчего</w>": 5213, "кредит": 5214, "жесто": 5215, "показалось,</w>": 5216, "убийц": 5217, "Всего</w>": 5218, "бреду,</w>": 5219, "ить:</w>": 5220, "ил:</w>": 5221, "довольно!</w>": 5222, "плева": 5223, "хлоп": 5224, "Пос": 5225, "Какая</w>": 5226, "прят": 5227, "помню": 5228, "поды": 5229, "видишь,</w>": 5230, "По-": 5231, "сконфуз": 5232, "вашим</w>": 5233, "дрян": 5234, "![": 5235, "ова": 5236, "Скаж": 5237, "ете!</w>": 5238, "закладчи": 5239, "Зосимов.</w>": 5240, "Мико": 5241, "Микола": 5242, "Лужин.</w>": 5243, "желаю</w>": 5244, "энер": 5245, "Об</w>": 5246, "жизнь,</w>": 5247, "сюр": 5248, "меня.</w>": 5249, "надц": 5250, "пред</w>": 5251, "искренно</w>": 5252, "Авдотьи</w>": 5253, "Пульхерии</w>": 5254, "веру": 5255, "покрас": 5256, "поги": 5257, "Про</w>": 5258, "прошептал</w>": 5259, "е-то": 5260, "лж": 5261, "Ох,</w>": 5262, "желал</w>": 5263, "ваших</w>": 5264, "Семенович,</w>": 5265, "Софье</w>": 5266, "иант": 5267, "авто": 5268, "чт": 5269, "следующ": 5270, "Кар": 5271, "вопрос,</w>": 5272, "вшие</w>": 5273, "является</w>": 5274, "ющие</w>": 5275, "нение</w>": 5276, "«Преступлении</w>": 5277, "ический</w>": 5278, "помочь</w>": 5279, "оскорб": 5280, "многих</w>": 5281, "числе</w>": 5282, "нравственного</w>": 5283, "вош": 5284, "чин": 5285, "позво": 5286, "енника": 5287, "существу": 5288, "исто": 5289, "и».</w>": 5290, "нравственных</w>": 5291, "герой</w>": 5292, "вое</w>": 5293, "овщи": 5294, "представля": 5295, "провин": 5296, "мещ": 5297, "всех,</w>": 5298, "сознание</w>": 5299, "счастли": 5300, "Гер": 5301, "двум": 5302, "людей.</w>": 5303, "покор": 5304, "вещей,</w>": 5305, "честв": 5306, "нести</w>": 5307, "рожд": 5308, "«иде": 5309, "сив": 5310, "голосом</w>": 5311, "момен": 5312, "Соне,</w>": 5313, "возврат": 5314, "неожиданно</w>": 5315, "нейшем</w>": 5316, "желая</w>": 5317, "полага": 5318, "дь</w>": 5319, "Человек</w>": 5320, "положение</w>": 5321, "невыноси": 5322, "фантастичес": 5323, "комысл": 5324, "дворян": 5325, "стин": 5326, "ье,</w>": 5327, "Раскольниковым</w>": 5328, "ина</w>": 5329, "году</w>": 5330, "появ": 5331, "кончил</w>": 5332, "Н.</w>": 5333, "сторо": 5334, "ярко</w>": 5335, "шевс": 5336, "распро": 5337, "делу</w>": 5338, "авлов": 5339, "стрел": 5340, "смерт": 5341, "солд": 5342, "нуться</w>": 5343, "овой</w>": 5344, "–18": 5345, "Молодой</w>": 5346, "кнулся</w>": 5347, "несо": 5348, "англи": 5349, "англий": 5350, "Призна": 5351, "силу</w>": 5352, "отриц": 5353, "е»,</w>": 5354, "запис": 5355, "жизни": 5356, "Все": 5357, "емат": 5358, "прежних</w>": 5359, "перер": 5360, "!)</w>": 5361, "душу</w>": 5362, "бога": 5363, "торгов": 5364, "моз": 5365, "началь": 5366, "полно": 5367, "ека": 5368, "обратно</w>": 5369, "событи": 5370, "точки</w>": 5371, "цы,</w>": 5372, "посту": 5373, "мым</w>": 5374, "вой</w>": 5375, "аль,</w>": 5376, "Лужина.</w>": 5377, "первом</w>": 5378, "хозяйки": 5379, "дре": 5380, "оттого</w>": 5381, "миг</w>": 5382, "улице.</w>": 5383, "неизвестно</w>": 5384, "охват": 5385, "ная…</w>": 5386, "непримет": 5387, "ною,</w>": 5388, "сильнее</w>": 5389, "дома.</w>": 5390, "четвертый</w>": 5391, "крошеч": 5392, "перегород": 5393, "Старуха</w>": 5394, "взглянул</w>": 5395, "сть.</w>": 5396, "пробормот": 5397, "прежнему</w>": 5398, "желты": 5399, "большим</w>": 5400, "«Это</w>": 5401, "несла</w>": 5402, "вещь</w>": 5403, "новое</w>": 5404, "грубо": 5405, "Вот": 5406, "копеек": 5407, "неуж": 5408, "опомнил": 5409, "елся</w>": 5410, "га,</w>": 5411, "изред": 5412, "припомни": 5413, "Или</w>": 5414, "кругом.</w>": 5415, "енька": 5416, "страшно</w>": 5417, "надцати,</w>": 5418, "хом,</w>": 5419, "высокомер": 5420, "зел": 5421, "восторжен": 5422, "кое-": 5423, "как,</w>": 5424, "видимо</w>": 5425, "лок": 5426, "ляр": 5427, "бой": 5428, "наки": 5429, "бар": 5430, "сошел</w>": 5431, "бав": 5432, "граж": 5433, "зачем,</w>": 5434, "сострадани": 5435, "ти!</w>": 5436, "Ничего,</w>": 5437, "заяв": 5438, "ыр": 5439, "тор,</w>": 5440, "кулаком</w>": 5441, "знаете</w>": 5442, "Дет": 5443, "вашем</w>": 5444, "выстав": 5445, "горд": 5446, "мина": 5447, "ремя</w>": 5448, "свя": 5449, "места</w>": 5450, "укра": 5451, "физи": 5452, "Мол": 5453, "вина</w>": 5454, "копеек</w>": 5455, "ят!</w>": 5456, "женщина</w>": 5457, "здра": 5458, "ют…</w>": 5459, "подошла</w>": 5460, "ала": 5461, "раздал": 5462, "шум": 5463, "утр": 5464, "суп": 5465, "другая</w>": 5466, "похоро": 5467, "сверх</w>": 5468, "богу": 5469, "удер": 5470, "сюда.</w>": 5471, "возвращ": 5472, "Ничего</w>": 5473, "Ден": 5474, "протяну": 5475, "ты?</w>": 5476, "его!</w>": 5477, "моем</w>": 5478, "Зав": 5479, "нет.</w>": 5480, "того": 5481, "енькая</w>": 5482, "лестницы,</w>": 5483, "отво": 5484, "рок</w>": 5485, "угол</w>": 5486, "стол,</w>": 5487, "комната</w>": 5488, "вшего</w>": 5489, "окна</w>": 5490, "лестницу</w>": 5491, "брата,</w>": 5492, "рукой.</w>": 5493, "матерью</w>": 5494, "шем</w>": 5495, "проснулся</w>": 5496, "карман,</w>": 5497, "пришлось</w>": 5498, "возможно</w>": 5499, "Гм!</w>": 5500, "Какой</w>": 5501, "пальто</w>": 5502, "столи": 5503, "приятно</w>": 5504, "Хоро": 5505, "надо?</w>": 5506, "Извест": 5507, "помал": 5508, "Пись": 5509, "знаю.</w>": 5510, "сж": 5511, "знакомый</w>": 5512, "-то.</w>": 5513, "ал:</w>": 5514, "лишком</w>": 5515, "люблю</w>": 5516, "мся</w>": 5517, "впоследстви": 5518, "брод": 5519, "всем,</w>": 5520, "нять</w>": 5521, "Свидригайлова.</w>": 5522, "внов": 5523, "преду": 5524, "е-нибудь</w>": 5525, "оттого,</w>": 5526, "мяг": 5527, "дело": 5528, "рал</w>": 5529, "принял</w>": 5530, "Дунечка.</w>": 5531, "ено,</w>": 5532, "лю.</w>": 5533, "читал</w>": 5534, "моего</w>": 5535, "разор": 5536, "мамаша": 5537, "мамаша</w>": 5538, "узнать</w>": 5539, "ют?</w>": 5540, "упраши": 5541, "лер": 5542, "нами,</w>": 5543, "делать,</w>": 5544, "вен": 5545, "проклят": 5546, "бира": 5547, "явилась</w>": 5548, "дико</w>": 5549, "уйти</w>": 5550, "догон": 5551, "ьте,</w>": 5552, "судары": 5553, "устал": 5554, "но-с,</w>": 5555, "шел!</w>": 5556, "перевер": 5557, "смотрев</w>": 5558, "больно</w>": 5559, "начнет</w>": 5560, "д.</w>": 5561, "Рус": 5562, "Разумихину</w>": 5563, "лись.</w>": 5564, "ен;</w>": 5565, "долго,</w>": 5566, "ы;</w>": 5567, "вспомнил</w>": 5568, "почувствовал,</w>": 5569, "представл": 5570, "священни": 5571, "ему:</w>": 5572, "коле": 5573, "ись!</w>": 5574, "Миколка,</w>": 5575, "ную.</w>": 5576, "кричит": 5577, "шат": 5578, "дыхани": 5579, "ать;</w>": 5580, "изумл": 5581, "обстоятельства": 5582, "лавоч": 5583, "места,</w>": 5584, "Лизавета</w>": 5585, "жаром</w>": 5586, "взя": 5587, "каких-то</w>": 5588, "вещь,</w>": 5589, "ница,</w>": 5590, "уверяю</w>": 5591, "устав": 5592, "дальше.</w>": 5593, "думаешь,</w>": 5594, "опомни": 5595, "топор": 5596, "чего-нибудь</w>": 5597, "лечь</w>": 5598, "когда-нибудь</w>": 5599, "час,</w>": 5600, "напротив</w>": 5601, "продолжа": 5602, "силах</w>": 5603, "»…</w>": 5604, "из-под</w>": 5605, "ы…</w>": 5606, "подворот": 5607, "лестницу,</w>": 5608, "квартиру": 5609, "Напротив": 5610, "нил,</w>": 5611, "дверь.</w>": 5612, "другой,</w>": 5613, "кошел": 5614, "лицу</w>": 5615, "пуга": 5616, "вошел,</w>": 5617, "чь": 5618, "начинала</w>": 5619, "Пожалуй": 5620, "ввер": 5621, "вопл": 5622, "Пой": 5623, "четверть</w>": 5624, "поручи": 5625, "капитэ": 5626, "капитэн,</w>": 5627, "Доволь": 5628, "слег": 5629, "кив": 5630, "ны?</w>": 5631, "Пест": 5632, "Пестря": 5633, "вышел.</w>": 5634, "завер": 5635, "устра": 5636, "пришел,</w>": 5637, "голосом.</w>": 5638, "следовало</w>": 5639, "Ар": 5640, "Вчер": 5641, "брат</w>": 5642, "распоряд": 5643, "чем?</w>": 5644, "еть.</w>": 5645, "непремен": 5646, "ко!</w>": 5647, "ился…</w>": 5648, "уверен,</w>": 5649, "нашем</w>": 5650, "Смотр": 5651, "так?</w>": 5652, "допрос": 5653, "Знаю,</w>": 5654, "вы?</w>": 5655, "рад</w>": 5656, "ито": 5657, "нел</w>": 5658, "пьяный</w>": 5659, "ку-то</w>": 5660, "обло": 5661, "&#23": 5662, "села</w>": 5663, "голос,</w>": 5664, "Шил": 5665, "арест": 5666, "протес": 5667, "папень": 5668, "одного,</w>": 5669, "Людви": 5670, "Людвигов": 5671, "верите</w>": 5672, "предчувствов": 5673, "Так": 5674, "ответила</w>": 5675, "ous": 5676, "одолж": 5677, "um": 5678, "Лебезятников.</w>": 5679, "en</w>": 5680, "пас": 5681, "ll": 5682, "М.</w>": 5683, "«Преступление</w>": 5684, "установ": 5685, "В.</w>": 5686, "величай": 5687, "препятстви": 5688, "развити": 5689, "«Е": 5690, "отчетливо</w>": 5691, "собой,</w>": 5692, "прав</w>": 5693, "ь»</w>": 5694, "ющее</w>": 5695, "оставалось</w>": 5696, "обр": 5697, "мощ": 5698, "молв": 5699, "общественной</w>": 5700, "роман": 5701, "столь</w>": 5702, "сти.</w>": 5703, "енным,</w>": 5704, "история</w>": 5705, "ник.</w>": 5706, "ростовщи": 5707, "влиянием</w>": 5708, "гроб": 5709, "наблю": 5710, "мучительно</w>": 5711, "ответ</w>": 5712, "им.</w>": 5713, "преступления.</w>": 5714, "нов</w>": 5715, "наруш": 5716, "нные</w>": 5717, "етел": 5718, "миллион": 5719, "гне": 5720, "мый</w>": 5721, "резуль": 5722, "результа": 5723, "емой</w>": 5724, "практи": 5725, "нормаль": 5726, "кую,</w>": 5727, "следовател": 5728, "толку</w>": 5729, "происход": 5730, "Нас": 5731, "бесполез": 5732, "оправдани": 5733, "следств": 5734, "лицо,</w>": 5735, "ого,</w>": 5736, "ским</w>": 5737, "овла": 5738, "Мысл": 5739, "описа": 5740, "Го": 5741, "Мос": 5742, "раньше</w>": 5743, "ев,</w>": 5744, "приговор": 5745, "арми": 5746, "получил</w>": 5747, "повест": 5748, "ниж": 5749, "годы</w>": 5750, "Черны": 5751, "журнал": 5752, "ой": 5753, "такому</w>": 5754, "вали,</w>": 5755, "возм": 5756, "Доб": 5757, "теори": 5758, "иру": 5759, "женщины</w>": 5760, "Оно</w>": 5761, "мом,</w>": 5762, "возраж": 5763, "ева,</w>": 5764, "молодеж": 5765, "указыва": 5766, "экономи": 5767, "обрет": 5768, "ениям</w>": 5769, "преступление,</w>": 5770, "жда": 5771, "твой</w>": 5772, "соблаз": 5773, "желез": 5774, "Перед": 5775, "подда": 5776, "рода</w>": 5777, "шта": 5778, "встреча": 5779, "стой,</w>": 5780, "ров</w>": 5781, "процес": 5782, "последов": 5783, "предмет": 5784, "уя</w>": 5785, "слыша": 5786, "кива": 5787, "оль</w>": 5788, "щего</w>": 5789, "Сони,</w>": 5790, "иту": 5791, "ви</w>": 5792, "ивается</w>": 5793, "ся»,</w>": 5794, "глаша": 5795, "тос": 5796, "другом</w>": 5797, "шего,</w>": 5798, "убит": 5799, "берег": 5800, "ня.</w>": 5801, "искал</w>": 5802, "самою</w>": 5803, "боялся</w>": 5804, "онд": 5805, "слушать</w>": 5806, "улыбкой.</w>": 5807, "Гм…</w>": 5808, "ел.</w>": 5809, "лохмотья": 5810, "скуч": 5811, "такими</w>": 5812, "проспек": 5813, "читал,</w>": 5814, "изуч": 5815, "темно": 5816, "пору</w>": 5817, "колокольчи": 5818, "совсем": 5819, "носо": 5820, "волосы</w>": 5821, "лица.</w>": 5822, "большая</w>": 5823, "«И</w>": 5824, "чай</w>": 5825, "кругл": 5826, "зер": 5827, "ины</w>": 5828, "лицо.</w>": 5829, "любопытно</w>": 5830, "зуб": 5831, "уклад": 5832, "Как!</w>": 5833, "спешил</w>": 5834, "решитель": 5835, "восклик": 5836, "Кроме</w>": 5837, "какую-то</w>": 5838, "нашел": 5839, "II</w>": 5840, "озя": 5841, "зелен": 5842, "ском": 5843, "уже,</w>": 5844, "итый</w>": 5845, "смел": 5846, "вольте": 5847, "сбива": 5848, "какою-то</w>": 5849, "кем</w>": 5850, "Милост": 5851, "было;</w>": 5852, "готов</w>": 5853, "супруг": 5854, "Очень</w>": 5855, "дней</w>": 5856, "Позвольте,</w>": 5857, "зная,</w>": 5858, "вый": 5859, "ние.</w>": 5860, "дама": 5861, "звер": 5862, "сколько-нибудь</w>": 5863, "скло": 5864, "золот": 5865, "воспомина": 5866, "идти": 5867, "ете…</w>": 5868, "великолеп": 5869, "са</w>": 5870, "в.</w>": 5871, "Потом,</w>": 5872, "сударь,</w>": 5873, "рук</w>": 5874, "дал,</w>": 5875, "ки-то</w>": 5876, "тогда…</w>": 5877, "нень": 5878, "взволнов": 5879, "дети,</w>": 5880, "накры": 5881, "вечер</w>": 5882, "поспешно</w>": 5883, "жить": 5884, "Катер": 5885, "Катерину</w>": 5886, "Ивановну</w>": 5887, "достав": 5888, "становился</w>": 5889, "цы": 5890, "Захары": 5891, "они": 5892, "деньга": 5893, "проси": 5894, "Семена</w>": 5895, "ет-с,</w>": 5896, "вид,</w>": 5897, "воскликнул</w>": 5898, "дорого": 5899, "значит</w>": 5900, "ругатель": 5901, "пойду</w>": 5902, "ие,</w>": 5903, "шел?</w>": 5904, "прием": 5905, "не…</w>": 5906, "Пусть</w>": 5907, "ца,</w>": 5908, "часов,</w>": 5909, "ское</w>": 5910, "нею,</w>": 5911, "взад</w>": 5912, "хватив</w>": 5913, "закричала</w>": 5914, "копей": 5915, "схватила</w>": 5916, "потащ": 5917, "ение!</w>": 5918, "бедная</w>": 5919, "паш": 5920, "злов": 5921, "окош": 5922, "махнул</w>": 5923, "лак": 5924, "становилось</w>": 5925, "занима": 5926, "Ча": 5927, "вздрогнул</w>": 5928, "Павлов": 5929, "зайд": 5930, "ходил,</w>": 5931, "сразу</w>": 5932, "волнении</w>": 5933, "Давно</w>": 5934, "ем;</w>": 5935, "читать</w>": 5936, "оставил</w>": 5937, "счет</w>": 5938, "Афана": 5939, "сама": 5940, "напрас": 5941, "нельзя,</w>": 5942, "Дуню,</w>": 5943, "Дуню</w>": 5944, "вещи,</w>": 5945, "Сама</w>": 5946, "хотели</w>": 5947, "Петровна,</w>": 5948, "успела</w>": 5949, "осер": 5950, "отъ": 5951, "вновь</w>": 5952, "Затем,</w>": 5953, "Мало</w>": 5954, "знали,</w>": 5955, "будешь</w>": 5956, "прет": 5957, "так.</w>": 5958, "пил</w>": 5959, "Разуме": 5960, "Разумеется,</w>": 5961, "нельзя": 5962, "карь": 5963, "карьер": 5964, "риск": 5965, "говорили,</w>": 5966, "ке": 5967, "имся</w>": 5968, "деликат": 5969, "госпо": 5970, "чет,</w>": 5971, "искрив": 5972, "судоро": 5973, "Вз": 5974, "приним": 5975, "ило.</w>": 5976, "капиталь": 5977, "“,</w>": 5978, "выговари": 5979, "наив": 5980, "замечани": 5981, "отмах": 5982, "яж": 5983, "будет?</w>": 5984, "ишь?</w>": 5985, "кончи": 5986, "сестрой</w>": 5987, "истер": 5988, "ах.</w>": 5989, "о-помал": 5990, "Во-первых,</w>": 5991, "стороны.</w>": 5992, "повал": 5993, "нетерпел": 5994, "моло": 5995, "извольте</w>": 5996, "ли…</w>": 5997, "хочется</w>": 5998, "нагнулся</w>": 5999, "разглядеть</w>": 6000, "вытащил</w>": 6001, "выда": 6002, "видно,</w>": 6003, "вам?</w>": 6004, "кончит": 6005, "тихонько</w>": 6006, "Тем</w>": 6007, "ню.</w>": 6008, "необыкновенно</w>": 6009, "выбр": 6010, "жды</w>": 6011, "придав": 6012, "принужден</w>": 6013, "дальше": 6014, "смысле</w>": 6015, "радоч": 6016, "проходил": 6017, "пыш": 6018, "возбуж": 6019, "дрожал": 6020, "Воз": 6021, "кладбищ": 6022, "дороге</w>": 6023, "лицом,</w>": 6024, "ь!»</w>": 6025, "гость</w>": 6026, "будет!</w>": 6027, "Миколка</w>": 6028, "уча": 6029, "глазами.</w>": 6030, "переводя</w>": 6031, "топор,</w>": 6032, "мой.</w>": 6033, "тра,</w>": 6034, "ницы,</w>": 6035, "имела</w>": 6036, "видеть</w>": 6037, "пить</w>": 6038, "заклад,</w>": 6039, "жу,</w>": 6040, "ки?</w>": 6041, "диване</w>": 6042, "машин": 6043, "более,</w>": 6044, "поконч": 6045, "протянул</w>": 6046, "Нет</w>": 6047, "прита": 6048, "уйте,</w>": 6049, "Прошло</w>": 6050, "минуты,</w>": 6051, "отрыви": 6052, "ите.</w>": 6053, "секунд": 6054, "навз": 6055, "дернул</w>": 6056, "бумаг": 6057, "пантал": 6058, "послышался</w>": 6059, "подняла</w>": 6060, "вымы": 6061, "ложил</w>": 6062, "зво": 6063, "зву": 6064, "запор</w>": 6065, "т…</w>": 6066, "ите:</w>": 6067, "крюч": 6068, "Поро": 6069, "мгновение,</w>": 6070, "дворник</w>": 6071, "его:</w>": 6072, "улицы,</w>": 6073, "друг,</w>": 6074, "ать:</w>": 6075, "дверей</w>": 6076, "овер": 6077, "чу</w>": 6078, "осла": 6079, "Вес": 6080, "шний</w>": 6081, "ей!</w>": 6082, "подви": 6083, "взглянув</w>": 6084, "удовлет": 6085, "стул</w>": 6086, "малейшего</w>": 6087, "ен!</w>": 6088, "ет;</w>": 6089, "дружес": 6090, "понимаю</w>": 6091, "прежде": 6092, "-с:</w>": 6093, "стыдно</w>": 6094, "перемен": 6095, "расспраши": 6096, "задерж": 6097, "заста": 6098, "стало,</w>": 6099, "было!</w>": 6100, "артель": 6101, "всегда": 6102, "улич": 6103, "это!</w>": 6104, "Разумихина.</w>": 6105, "наплева": 6106, "человек?</w>": 6107, "рассказывал": 6108, "яло</w>": 6109, "откла": 6110, "ался…</w>": 6111, "чиво,</w>": 6112, "сбеж": 6113, "руш": 6114, "ожидании</w>": 6115, "Видишь,</w>": 6116, "мош": 6117, "правда</w>": 6118, "представить,</w>": 6119, "болтов": 6120, "Инач": 6121, "поту": 6122, "тревожно</w>": 6123, "хвал": 6124, "им!</w>": 6125, "точь-": 6126, "точь-в-": 6127, "точь-в-точ": 6128, "миг": 6129, "имеете</w>": 6130, "конфуз": 6131, "доктор</w>": 6132, "молчание.</w>": 6133, "хожу</w>": 6134, "Андрея</w>": 6135, "Извините,</w>": 6136, "сами,</w>": 6137, "дешь</w>": 6138, "основани": 6139, "ьей</w>": 6140, "люблю,</w>": 6141, "ли!</w>": 6142, "ю-с.</w>": 6143, "Изл": 6144, "облокот": 6145, "камень</w>": 6146, "да?</w>": 6147, "дурак": 6148, "Ее</w>": 6149, "ноча": 6150, "ночам</w>": 6151, "знаю…</w>": 6152, "е-кх": 6153, "няла</w>": 6154, "обернулся</w>": 6155, "Полечка,</w>": 6156, "привид": 6157, "Есть</w>": 6158, "капель": 6159, "Ты,</w>": 6160, "коридор": 6161, "забоч": 6162, "приду</w>": 6163, "скажите</w>": 6164, "Прокофьич": 6165, "Романовна.</w>": 6166, "будущем</w>": 6167, "моих</w>": 6168, "глупы": 6169, "уша": 6170, "По-моему,</w>": 6171, "Сони.</w>": 6172, "Романыч.</w>": 6173, "провиант": 6174, "мировой</w>": 6175, "чита": 6176, "века</w>": 6177, "крестьян": 6178, "Рос": 6179, "Росси": 6180, "гармо": 6181, "эго": 6182, "Вели": 6183, "Пушки": 6184, "русской</w>": 6185, "гум": 6186, "м»</w>": 6187, "обез": 6188, "нерав": 6189, "захват": 6190, "социального</w>": 6191, "ция</w>": 6192, "ителей</w>": 6193, "защи": 6194, "оставаться</w>": 6195, "бой</w>": 6196, "енност": 6197, "наказания»,</w>": 6198, "шеств": 6199, "пром": 6200, "другими</w>": 6201, "причин</w>": 6202, "путе": 6203, "права,</w>": 6204, "размышл": 6205, "оставить</w>": 6206, "нант": 6207, "помещи": 6208, "найти</w>": 6209, "положения</w>": 6210, "ющей</w>": 6211, "«Если</w>": 6212, "енного,</w>": 6213, "мышля": 6214, "двумя</w>": 6215, "вез": 6216, "имея</w>": 6217, "стать</w>": 6218, "«необыкновенны": 6219, "потом": 6220, "излож": 6221, "убийства,</w>": 6222, "поставить</w>": 6223, "обыкновенны": 6224, "слабым</w>": 6225, "мод": 6226, "ющими</w>": 6227, "крови</w>": 6228, "постеп": 6229, "постепенно</w>": 6230, "ощут": 6231, "шаг</w>": 6232, "спокойно,</w>": 6233, "истин": 6234, "сестру,</w>": 6235, "сердце,</w>": 6236, "отврат": 6237, "старуху</w>": 6238, "дл": 6239, "полици": 6240, "жая</w>": 6241, "легкомысл": 6242, "Мысль</w>": 6243, "сплет": 6244, "Петербурге,</w>": 6245, "свят": 6246, "анный</w>": 6247, "рая,</w>": 6248, "всеобщ": 6249, "выпу": 6250, "написа": 6251, "«За": 6252, "имев": 6253, "тья</w>": 6254, "8</w>": 6255, "Однако</w>": 6256, "яние</w>": 6257, "тех,</w>": 6258, "революционер": 6259, "делает</w>": 6260, "Чернышевс": 6261, "ес</w>": 6262, "народ</w>": 6263, "задач": 6264, "(и</w>": 6265, "полит": 6266, "увств": 6267, "процентщи": 6268, "студент</w>": 6269, "неудач": 6270, "сестры</w>": 6271, "ическими</w>": 6272, "подобных</w>": 6273, "зрения</w>": 6274, "лон": 6275, "объяснить</w>": 6276, "ательно,</w>": 6277, "пользу</w>": 6278, "казался</w>": 6279, "стих": 6280, "сказал:</w>": 6281, "ников,</w>": 6282, "легко</w>": 6283, "тую</w>": 6284, "ции,</w>": 6285, "производ": 6286, "перенос": 6287, "очередь,</w>": 6288, "ством.</w>": 6289, "Мармеладова,</w>": 6290, "чахот": 6291, "ссор": 6292, "переул": 6293, "чива": 6294, "ших,</w>": 6295, "ниях</w>": 6296, "лестнице.</w>": 6297, "раза,</w>": 6298, "третьем</w>": 6299, "ляя</w>": 6300, "рые</w>": 6301, "нный</w>": 6302, "натур": 6303, "впечатлени": 6304, "поступо": 6305, "начинает</w>": 6306, "воспит": 6307, "человеком,</w>": 6308, "обдум": 6309, "гать</w>": 6310, "енно-": 6311, "бул": 6312, "состояние</w>": 6313, "отношении</w>": 6314, "Бла": 6315, "алл": 6316, "деч": 6317, "преим": 6318, "довед": 6319, "ым.</w>": 6320, "власть</w>": 6321, "Свидригайлова</w>": 6322, "мач": 6323, "торжест": 6324, "утром</w>": 6325, "обли": 6326, "последних</w>": 6327, "привед": 6328, "еши": 6329, "квартиру.</w>": 6330, "хозяйка</w>": 6331, "одною</w>": 6332, "боялся,</w>": 6333, "проскольз": 6334, "уй</w>": 6335, "кир": 6336, "нервы</w>": 6337, "вп": 6338, "Дру": 6339, "указывая</w>": 6340, "схватился</w>": 6341, "мелоч": 6342, "всё…</w>": 6343, "Ид": 6344, "ворот</w>": 6345, "к-то</w>": 6346, "драз": 6347, "сердца</w>": 6348, "щими</w>": 6349, "проч.</w>": 6350, "этаж.</w>": 6351, "вынос": 6352, "выез": 6353, "отворилась</w>": 6354, "ку:</w>": 6355, "сверка": 6356, "простов": 6357, "пожел": 6358, "мех": 6359, "месяц,</w>": 6360, "Пом": 6361, "отвод": 6362, "уме</w>": 6363, "грош": 6364, "барыш": 6365, "Вся</w>": 6366, "кармана</w>": 6367, "сро": 6368, "терпеть</w>": 6369, "почита": 6370, "пятнадцать</w>": 6371, "замолчал.</w>": 6372, "ы-то</w>": 6373, "внезапно</w>": 6374, "нелепост": 6375, "вшее</w>": 6376, "вальный</w>": 6377, "жад": 6378, "выпил</w>": 6379, "стакан</w>": 6380, "хмел": 6381, "Цел": 6382, "изредка</w>": 6383, "Что-то</w>": 6384, "вздох": 6385, "Хозя": 6386, "щеголь": 6387, "яли</w>": 6388, "взгляда,</w>": 6389, "впечатление</w>": 6390, "начать</w>": 6391, "чиновник</w>": 6392, "пух": 6393, "мися</w>": 6394, "Одна</w>": 6395, "держал": 6396, "удал": 6397, "тоск": 6398, "стол.</w>": 6399, "Ибо</w>": 6400, "виде,</w>": 6401, "состо": 6402, "или?</w>": 6403, "желание</w>": 6404, "лб": 6405, "человеку,</w>": 6406, "Нев": 6407, "туда,</w>": 6408, "инки</w>": 6409, "вероятно</w>": 6410, "хих": 6411, "Случ": 6412, "нау": 6413, "по-видимому</w>": 6414, "Хри": 6415, "гел": 6416, "дама</w>": 6417, "лива": 6418, "скорб": 6419, "позор": 6420, "губерна": 6421, "али…</w>": 6422, "недавно</w>": 6423, "допуст": 6424, "уез": 6425, "видал</w>": 6426, "анная</w>": 6427, "тоф": 6428, "ила…</w>": 6429, "Липп": 6430, "Липпев": 6431, "Липпевех": 6432, "Липпевехз": 6433, "представить</w>": 6434, "ряду</w>": 6435, "науч": 6436, "ток,</w>": 6437, "тепл": 6438, "ежал</w>": 6439, "личико</w>": 6440, "словеч": 6441, "вместе,</w>": 6442, "киров": 6443, "средства</w>": 6444, "чаю,</w>": 6445, "господи,</w>": 6446, "уторо": 6447, "вошед": 6448, "почках</w>": 6449, "емен</w>": 6450, "откуда</w>": 6451, "Два</w>": 6452, "каб": 6453, "етесь,</w>": 6454, "наеди": 6455, "остановился,</w>": 6456, "подбород": 6457, "прочим,</w>": 6458, "Хе-хе-хе!</w>": 6459, "глот": 6460, "сказала,</w>": 6461, "уко": 6462, "мад": 6463, "них.</w>": 6464, "авшие</w>": 6465, "понимал,</w>": 6466, "ала?</w>": 6467, "твои</w>": 6468, "нам": 6469, "задумавш": 6470, "боюсь…</w>": 6471, "стула</w>": 6472, "чат": 6473, "остановилась</w>": 6474, "нувшись</w>": 6475, "внимания,</w>": 6476, "то!</w>": 6477, "две": 6478, "ках.</w>": 6479, "сестре</w>": 6480, "он!</w>": 6481, "настежь,</w>": 6482, "труб": 6483, "тами</w>": 6484, "Соне</w>": 6485, "неу": 6486, "ваясь,</w>": 6487, "возьми,</w>": 6488, "выта": 6489, "бас": 6490, "принялся</w>": 6491, "надо.</w>": 6492, "суров": 6493, "помолча": 6494, "слышно,</w>": 6495, "тош": 6496, "илось.</w>": 6497, "напле": 6498, "ешь.</w>": 6499, "бога,</w>": 6500, "побледнел": 6501, "обвини": 6502, "уроки</w>": 6503, "ом…</w>": 6504, "полков": 6505, "Дуне</w>": 6506, "бы.</w>": 6507, "случаях</w>": 6508, "огор": 6509, "ева</w>": 6510, "полном</w>": 6511, "Вообще</w>": 6512, "родствен": 6513, "просил</w>": 6514, "деловой</w>": 6515, "Правда,</w>": 6516, "нила</w>": 6517, "будут</w>": 6518, "показался</w>": 6519, "обязан</w>": 6520, "досадой</w>": 6521, "встала</w>": 6522, "надежд": 6523, "Петровичу,</w>": 6524, "именно,</w>": 6525, "завис": 6526, "госпож": 6527, "радо": 6528, "писыва": 6529, "благослов": 6530, "посет": 6531, "Почти</w>": 6532, "Вас": 6533, "торопясь</w>": 6534, "измуч": 6535, "нейшая</w>": 6536, "голове</w>": 6537, "посмотри": 6538, "решено</w>": 6539, "ночь,</w>": 6540, "произнес": 6541, "Знач": 6542, "вон</w>": 6543, "комфор": 6544, "ште": 6545, "пойдет</w>": 6546, "дух</w>": 6547, "просто-": 6548, "просто-за": 6549, "стоит,</w>": 6550, "еть?</w>": 6551, "шь?</w>": 6552, "вопросы</w>": 6553, "няв</w>": 6554, "голове.</w>": 6555, "ку;</w>": 6556, "впереди</w>": 6557, "о-помалу</w>": 6558, "понять,</w>": 6559, "руками.</w>": 6560, "заки": 6561, "ошиба": 6562, "понимал": 6563, "ожидал</w>": 6564, "досад": 6565, "бров": 6566, "вшись.</w>": 6567, "таки": 6568, "городов": 6569, "платье,</w>": 6570, "ея</w>": 6571, "Э-эх!</w>": 6572, "ны…</w>": 6573, "посмотрев</w>": 6574, "нется,</w>": 6575, "прон": 6576, "фу!</w>": 6577, "по-видимому,</w>": 6578, "первую</w>": 6579, "слово,</w>": 6580, "перешел</w>": 6581, "заметил.</w>": 6582, "что-нибуд": 6583, "помоч": 6584, "нашел</w>": 6585, "лихорадоч": 6586, "озно": 6587, "усилием</w>": 6588, "всматри": 6589, "усиленно</w>": 6590, "женщин</w>": 6591, "рассчитыва": 6592, "наяв": 6593, "чон": 6594, "кобыл": 6595, "кобылен": 6596, "пременно</w>": 6597, "хохоч": 6598, "впрям": 6599, "сторон</w>": 6600, "тесни": 6601, "приподнялся</w>": 6602, "стану</w>": 6603, "высшей</w>": 6604, "мещанин</w>": 6605, "замеш": 6606, "Лизавета,</w>": 6607, "ши</w>": 6608, "завтра,</w>": 6609, "Эк</w>": 6610, "свед": 6611, "ное": 6612, "сестри": 6613, "Хорош": 6614, "целые</w>": 6615, "проч.,</w>": 6616, "быть.</w>": 6617, "Ивановну,</w>": 6618, "пора": 6619, "тыми</w>": 6620, "угла": 6621, "скажу.</w>": 6622, "бессмысл": 6623, "вред": 6624, "скажи</w>": 6625, "дело…</w>": 6626, "ешься,</w>": 6627, "б,</w>": 6628, "болен,</w>": 6629, "кам": 6630, "двери,</w>": 6631, "сует": 6632, "снял</w>": 6633, "спрята": 6634, "рец": 6635, "поводу</w>": 6636, "потихонь": 6637, "потихоньку</w>": 6638, "придет</w>": 6639, "упа": 6640, "«не</w>": 6641, "лестницы.</w>": 6642, "ом:</w>": 6643, "кого-то</w>": 6644, "али": 6645, "попроб": 6646, "ало.</w>": 6647, "Напротив,</w>": 6648, "то-то</w>": 6649, "пошевел": 6650, "хитро": 6651, "выпуст": 6652, "Помил": 6653, "минуту": 6654, "ный…</w>": 6655, "более.</w>": 6656, "енькие</w>": 6657, "Кров": 6658, "подход": 6659, "шу": 6660, "«Как</w>": 6661, "Кон": 6662, "дело!</w>": 6663, "дворника</w>": 6664, "видите,</w>": 6665, "-ка</w>": 6666, "ну;</w>": 6667, "прежнее</w>": 6668, "очки</w>": 6669, "кажду": 6670, "каждую</w>": 6671, "Вдруг,</w>": 6672, "сой": 6673, "заходил": 6674, "довольно,</w>": 6675, "Боль": 6676, "вспомнил,</w>": 6677, "радост": 6678, "т?</w>": 6679, "лся</w>": 6680, "напряж": 6681, "Что,</w>": 6682, "ен…</w>": 6683, "всею</w>": 6684, "ку?</w>": 6685, "мерещ": 6686, "поскорей,</w>": 6687, "запира": 6688, "бутыл": 6689, "обращаться</w>": 6690, "контору</w>": 6691, "надзи": 6692, "надзират": 6693, "верно</w>": 6694, "перевел</w>": 6695, "жаль,</w>": 6696, "оно": 6697, "удовлетвор": 6698, "позволю": 6699, "р-": 6700, "Петрович!</w>": 6701, "нетерпением</w>": 6702, "нител": 6703, "говорил…</w>": 6704, "слегка</w>": 6705, "вексел": 6706, "согласен,</w>": 6707, "презрительно</w>": 6708, "отрезал</w>": 6709, "ми?</w>": 6710, "поняти": 6711, "ходить,</w>": 6712, "ите…</w>": 6713, "хе-х": 6714, "маленькие</w>": 6715, "ут?</w>": 6716, "стене</w>": 6717, "угрив": 6718, "й:</w>": 6719, "угрюмо</w>": 6720, "доров": 6721, "надоел": 6722, "ешь…</w>": 6723, "ей-богу,</w>": 6724, "делать": 6725, "ницы</w>": 6726, "зага": 6727, "мон": 6728, "колот": 6729, "перек": 6730, "глядела</w>": 6731, "припоми": 6732, "артельщи": 6733, "клони": 6734, "стул,</w>": 6735, "помню…</w>": 6736, "надо!</w>": 6737, "приподн": 6738, "ешься!</w>": 6739, "ирубле": 6740, "ишь": 6741, "встревож": 6742, "брю": 6743, "топ": 6744, "настаивал</w>": 6745, "настойчиво</w>": 6746, "черточ": 6747, "точь-в-точь</w>": 6748, "вру": 6749, "Душки": 6750, "принес</w>": 6751, "вр": 6752, "шам": 6753, "Св": 6754, "ом?</w>": 6755, "хотя,</w>": 6756, "Нед": 6757, "фф": 6758, "молча": 6759, "ьяр": 6760, "вас.</w>": 6761, "рекомендов": 6762, "але": 6763, "соглаш": 6764, "говорят</w>": 6765, "те…</w>": 6766, "прервал</w>": 6767, "нелов": 6768, "му…</w>": 6769, "Можно</w>": 6770, "странным</w>": 6771, "пляс": 6772, "улыбнул": 6773, "Заметов,</w>": 6774, "помните,</w>": 6775, "иться!</w>": 6776, "можешь,</w>": 6777, "серьезно,</w>": 6778, "дурак,</w>": 6779, "Катериной</w>": 6780, "гордо": 6781, "чувствуя</w>": 6782, "хво": 6783, "потуп": 6784, "понял,</w>": 6785, "провод": 6786, "Романовне</w>": 6787, "беру</w>": 6788, "целом": 6789, "целомуд": 6790, "лично</w>": 6791, "кстати,</w>": 6792, "Прокофьич,</w>": 6793, "считаю</w>": 6794, "рога": 6795, "Семеновна</w>": 6796, "одолжение,</w>": 6797, "Соню</w>": 6798, "-ха-ха!</w>": 6799, "послуша": 6800, "так-с,</w>": 6801, "Мещани": 6802, "Арка": 6803, "Романович": 6804, "употреб": 6805, "предлаг": 6806, "подозрения</w>": 6807, "Фили": 6808, "Иисус</w>": 6809, "Полечка</w>": 6810, "прися": 6811, "Семенович": 6812, "Софьи</w>": 6813, "Леня,</w>": 6814, "бо,</w>": 6815, "u</w>": 6816, "or": 6817, "Ф.</w>": 6818, "ЧА": 6819, "ЧАСТ": 6820, "Д.</w>": 6821, "возра": 6822, "обно</w>": 6823, "и»,</w>": 6824, "Родиона</w>": 6825, "вопросов</w>": 6826, "XV": 6827, "рефор": 6828, "(по</w>": 6829, "общества,</w>": 6830, "х»,</w>": 6831, "романи": 6832, "личности.</w>": 6833, "показал</w>": 6834, "бесчеловеч": 6835, "принцип": 6836, "значение</w>": 6837, "заво": 6838, "путь</w>": 6839, "неравен": 6840, "роман</w>": 6841, "полное</w>": 6842, "траг": 6843, "гнев": 6844, "гает</w>": 6845, "ительные</w>": 6846, "неизбеж": 6847, "щает</w>": 6848, "ждает</w>": 6849, "суб": 6850, "тив": 6851, "круг</w>": 6852, "вших</w>": 6853, "предшеств": 6854, "Эти</w>": 6855, "ражение</w>": 6856, "главный</w>": 6857, "совершения</w>": 6858, "демократической</w>": 6859, "циаль": 6860, "живет</w>": 6861, "Сенной,</w>": 6862, "постоянно</w>": 6863, "впечатл": 6864, "существующего</w>": 6865, "личие</w>": 6866, "кает</w>": 6867, "жизни.</w>": 6868, "инов": 6869, "читател": 6870, "лишь</w>": 6871, "ние,</w>": 6872, "Нер": 6873, "раща": 6874, "дик": 6875, "сердца,</w>": 6876, "сопротив": 6877, "неотраз": 6878, "авшая</w>": 6879, "выше</w>": 6880, "оказыва": 6881, "героя.</w>": 6882, "думая,</w>": 6883, "нюдь</w>": 6884, "оди": 6885, "людьми,</w>": 6886, "ощу": 6887, "цу,</w>": 6888, "ительной</w>": 6889, "Порфирия,</w>": 6890, "она": 6891, "стов</w>": 6892, "хом.</w>": 6893, "главного</w>": 6894, "художеств": 6895, "собственной</w>": 6896, "сверх": 6897, "осужда": 6898, "имя</w>": 6899, "бря</w>": 6900, "Моск": 6901, "ству</w>": 6902, "печа": 6903, "прочел</w>": 6904, "вывед": 6905, "солдат": 6906, "–186": 6907, "Достоевского,</w>": 6908, "60-": 6909, "од</w>": 6910, "«Врем": 6911, "«Э": 6912, "ближ": 6913, "идеал": 6914, "орга": 6915, "ленно,</w>": 6916, "упорно</w>": 6917, "полем": 6918, "болью</w>": 6919, "вслух</w>": 6920, "Лебезятникова,</w>": 6921, "дов,</w>": 6922, "воду</w>": 6923, "миз": 6924, "журн": 6925, "звуч": 6926, "нен": 6927, "говорит:</w>": 6928, "ости</w>": 6929, "времени.</w>": 6930, "освобод": 6931, "простран": 6932, "сло": 6933, "Второ": 6934, "новый</w>": 6935, "положитель": 6936, "приобрет": 6937, "аристо": 6938, "аристократ": 6939, "распростра": 6940, "анных</w>": 6941, "заплат": 6942, "пойти</w>": 6943, "улицы</w>": 6944, "бульва": 6945, "ениях,</w>": 6946, "ключа": 6947, "напряжен": 6948, "показать</w>": 6949, "мыслей</w>": 6950, "героя,</w>": 6951, "тое</w>": 6952, "мого</w>": 6953, "нное</w>": 6954, "прел": 6955, "лице,</w>": 6956, "читателя</w>": 6957, "тщ": 6958, "униз": 6959, "ых,</w>": 6960, "Сю": 6961, "главное</w>": 6962, "ния,</w>": 6963, "енность</w>": 6964, "лука": 6965, "вого</w>": 6966, "наж": 6967, "пом</w>": 6968, "ником": 6969, "ливый</w>": 6970, "вый,</w>": 6971, "ущест": 6972, "новей": 6973, "Обе</w>": 6974, "бывает</w>": 6975, "енность,</w>": 6976, "совести,</w>": 6977, "сестру</w>": 6978, "пари": 6979, "суж": 6980, "пороге</w>": 6981, "отправился</w>": 6982, "благополуч": 6983, "избег": 6984, "проходя</w>": 6985, "ипох": 6986, "ипохонд": 6987, "ипохондри": 6988, "заним": 6989, "приста": 6990, "видал.</w>": 6991, "Нов": 6992, "духот": 6993, "кирп": 6994, "возможности</w>": 6995, "особенное</w>": 6996, "собою,</w>": 6997, "худо</w>": 6998, "преимуществ": 6999, "тами,</w>": 7000, "пьяный,</w>": 7001, "ло,</w>": 7002, "судор": 7003, "судорож": 7004, "рах</w>": 7005, "нее!</w>": 7006, "Никто</w>": 7007, "нужно</w>": 7008, "мечт": 7009, "канаву,</w>": 7010, "обоих</w>": 7011, "дой": 7012, "вздрогнул,</w>": 7013, "имым</w>": 7014, "вост": 7015, "болт": 7016, "недоверчиво": 7017, "ступила</w>": 7018, "мебел": 7019, "любопытством</w>": 7020, "колеч": 7021, "рубля": 7022, "старуха</w>": 7023, "протянула</w>": 7024, "кармане</w>": 7025, "ка:</w>": 7026, "деньги.</w>": 7027, "размер": 7028, "прохож": 7029, "вход</w>": 7030, "вниз.</w>": 7031, "Никогда</w>": 7032, "пив": 7033, "дой,</w>": 7034, "Просто</w>": 7035, "целая</w>": 7036, "вив</w>": 7037, "вставая</w>": 7038, "новое,</w>": 7039, "гал": 7040, "замо": 7041, "оже,</w>": 7042, "прен": 7043, "проговорил": 7044, "государь</w>": 7045, "прилож": 7046, "говорил.</w>": 7047, "Милостивый</w>": 7048, "отсюда</w>": 7049, "ное!</w>": 7050, "Позвольте</w>": 7051, "разде": 7052, "прес": 7053, "гм…</w>": 7054, "надобно</w>": 7055, "беспокойством</w>": 7056, "Пон": 7057, "подлец,</w>": 7058, "вих": 7059, "говорить!</w>": 7060, "черта</w>": 7061, "кова</w>": 7062, "Знаете</w>": 7063, "чул": 7064, "ходило</w>": 7065, "танце": 7066, "сидит,</w>": 7067, "деть": 7068, "мужа,</w>": 7069, "помер": 7070, "докумен": 7071, "когда-то</w>": 7072, "отказал": 7073, "понимаете</w>": 7074, "Липпевехзель,</w>": 7075, "нейши": 7076, "Вос": 7077, "гнал</w>": 7078, "ные…</w>": 7079, "бело": 7080, "наш</w>": 7081, "еда": 7082, "вздрагива": 7083, "постель": 7084, "способствов": 7085, "билет</w>": 7086, "цию</w>": 7087, "ходит</w>": 7088, "превосходитель": 7089, "попу": 7090, "пятьдесят</w>": 7091, "блю": 7092, "никаки": 7093, "неделю</w>": 7094, "думала,</w>": 7095, "Нет-с,</w>": 7096, "ю!..</w>": 7097, "сорок</w>": 7098, "подробност": 7099, "домаш": 7100, "дам,</w>": 7101, "бесчест": 7102, "ья,</w>": 7103, "гипет": 7104, "купл": 7105, "руками,</w>": 7106, "придется</w>": 7107, "жаль</w>": 7108, "еть": 7109, "ялись</w>": 7110, "еть!</w>": 7111, "Мен": 7112, "продав": 7113, "возлюб": 7114, "Соню,</w>": 7115, "произвел": 7116, "Коз": 7117, "знаю!</w>": 7118, "покры": 7119, "церемон": 7120, "ходила</w>": 7121, "жав</w>": 7122, "Гла": 7123, "Глаза</w>": 7124, "трепет": 7125, "показалась</w>": 7126, "слушала</w>": 7127, "маленькая</w>": 7128, "дверях</w>": 7129, "исступлении,</w>": 7130, "задрож": 7131, "девочка</w>": 7132, "ывала</w>": 7133, "жизнь!</w>": 7134, "нагл": 7135, "бедную</w>": 7136, "язв": 7137, "вообщ": 7138, "Прос": 7139, "ль?</w>": 7140, "щи</w>": 7141, "Прас": 7142, "Прасков": 7143, "Пре": 7144, "ат,</w>": 7145, "енький</w>": 7146, "Вах": 7147, "приятел": 7148, "Слава</w>": 7149, "вали.</w>": 7150, "спрашивал</w>": 7151, "написать</w>": 7152, "стояло</w>": 7153, "целых</w>": 7154, "подробности,</w>": 7155, "Петровны,</w>": 7156, "приходил</w>": 7157, "носить</w>": 7158, "приказ": 7159, "случилось,</w>": 7160, "погуб": 7161, "напол": 7162, "Марфе</w>": 7163, "отец</w>": 7164, "знали</w>": 7165, "восстанов": 7166, "нее": 7167, "ждали</w>": 7168, "такой": 7169, "опять-таки</w>": 7170, "жаль": 7171, "произошло</w>": 7172, "прежда": 7173, "йдет</w>": 7174, "Говорю</w>": 7175, "знать</w>": 7176, "кам,</w>": 7177, "девушка</w>": 7178, "втором</w>": 7179, "проговор": 7180, "разговора,</w>": 7181, "постели</w>": 7182, "иначе,</w>": 7183, "Петровичу.</w>": 7184, "университет": 7185, "впоследствии</w>": 7186, "наших</w>": 7187, "само</w>": 7188, "этом-то</w>": 7189, "казал</w>": 7190, "устроить</w>": 7191, "отвечал,</w>": 7192, "очень": 7193, "скоро,</w>": 7194, "сва": 7195, "шут": 7196, "несколь": 7197, "выходит</w>": 7198, "пяти</w>": 7199, "Дунечкой</w>": 7200, "возьмет</w>": 7201, "происшестви": 7202, "обнима": 7203, "Прощай,</w>": 7204, "душно</w>": 7205, "своему,</w>": 7206, "немнож": 7207, "ны!</w>": 7208, "буду": 7209, "догад": 7210, "Значит,</w>": 7211, "н!</w>": 7212, "заклад</w>": 7213, "етельствов": 7214, "штей": 7215, "газеты</w>": 7216, "ведо": 7217, "смерти,</w>": 7218, "если,</w>": 7219, "просто-запросто</w>": 7220, "хочу,</w>": 7221, "сторуб": 7222, "-ка,</w>": 7223, "вчерашний</w>": 7224, "пронесл": 7225, "шелков": 7226, "платьиц": 7227, "залож": 7228, "озл": 7229, "ился;</w>": 7230, "жимая</w>": 7231, "мури": 7232, "йтесь,</w>": 7233, "взглядом.</w>": 7234, "Посмотр": 7235, "как!</w>": 7236, "ребенок": 7237, "сударыня,</w>": 7238, "Ба": 7239, "пробормотала</w>": 7240, "сожал": 7241, "свете,</w>": 7242, "ная!</w>": 7243, "неж": 7244, "друга": 7245, "услышал</w>": 7246, "ительным</w>": 7247, "спуская</w>": 7248, "дам": 7249, "вслух,</w>": 7250, "понимал</w>": 7251, "один.</w>": 7252, "смел</w>": 7253, "сюда…</w>": 7254, "больниц": 7255, "математ": 7256, "(17": 7257, "-то…</w>": 7258, "пошел.</w>": 7259, "див": 7260, "себе.</w>": 7261, "Луч": 7262, "Ино": 7263, "отвернулся</w>": 7264, "пойду,</w>": 7265, "подним": 7266, "сильное</w>": 7267, "памяти</w>": 7268, "далеко,</w>": 7269, "ивший</w>": 7270, "старо": 7271, "лошаде": 7272, "бывало,</w>": 7273, "берет</w>": 7274, "ушел,</w>": 7275, "вска": 7276, "посме": 7277, "хо.</w>": 7278, "еще!</w>": 7279, "огл": 7280, "размаху</w>": 7281, "разом,</w>": 7282, "Несколько</w>": 7283, "целует</w>": 7284, "ку…</w>": 7285, "просы": 7286, "совершенно,</w>": 7287, "сходя</w>": 7288, "просто,</w>": 7289, "самол": 7290, "ите-": 7291, "задумчиво</w>": 7292, "приду,</w>": 7293, "разыски": 7294, "мо.</w>": 7295, "коре": 7296, "сестро": 7297, "сестра,</w>": 7298, "завещани": 7299, "ограб": 7300, "тысячу</w>": 7301, "Уб": 7302, "одно,</w>": 7303, "упал</w>": 7304, "ло.</w>": 7305, "слабо</w>": 7306, "ав,</w>": 7307, "очнулся,</w>": 7308, "нап": 7309, "мыш": 7310, "настоящий</w>": 7311, "полос": 7312, "меньше</w>": 7313, "кстати</w>": 7314, "т-то</w>": 7315, "Послед": 7316, "втя": 7317, "болезни": 7318, "альные</w>": 7319, "явшись</w>": 7320, "предвар": 7321, "увидал,</w>": 7322, "стоя</w>": 7323, "ступень": 7324, "яться.</w>": 7325, "долго.</w>": 7326, "устройств": 7327, "двор,</w>": 7328, "этаж,</w>": 7329, "квартира,</w>": 7330, "задых": 7331, "мысль:</w>": 7332, "ха,</w>": 7333, "двери.</w>": 7334, "отч": 7335, "прой": 7336, "взглянула</w>": 7337, "нешь</w>": 7338, "чувствуя,</w>": 7339, "руке</w>": 7340, "ударил</w>": 7341, "обыкновенно</w>": 7342, "фут": 7343, "футля": 7344, "воздуху</w>": 7345, "ую.</w>": 7346, "нелепо": 7347, "оча": 7348, "идти,</w>": 7349, "пора</w>": 7350, "заре": 7351, "заревел</w>": 7352, "недалеко</w>": 7353, "ьма,</w>": 7354, "ушла</w>": 7355, "взвиз": 7356, "отлично</w>": 7357, "сидел,</w>": 7358, "встретил</w>": 7359, "вскочил</w>": 7360, "пьян,</w>": 7361, "видел!</w>": 7362, "«Да</w>": 7363, "ослабел": 7364, "Хоть</w>": 7365, "приду": 7366, "дешь?</w>": 7367, "хитрост": 7368, "заглянул</w>": 7369, "хотел.</w>": 7370, "впро": 7371, "впрочем</w>": 7372, "траур": 7373, "перст": 7374, "фуражку</w>": 7375, "взы": 7376, "взыска": 7377, "больной</w>": 7378, "обязатель": 7379, "сни": 7380, "вски": 7381, "окно</w>": 7382, "кивнул</w>": 7383, "дочь,</w>": 7384, "сесть</w>": 7385, "полет": 7386, "влюб": 7387, "отчаст": 7388, "рассказа": 7389, "мне…</w>": 7390, "могу,</w>": 7391, "вглядыва": 7392, "говорите</w>": 7393, "итесь.</w>": 7394, "стула.</w>": 7395, "хорошо": 7396, "заключил</w>": 7397, "набереж": 7398, "ение:</w>": 7399, "бреду</w>": 7400, "входе</w>": 7401, "направился</w>": 7402, "мгновение.</w>": 7403, "гим</w>": 7404, "неожиданный</w>": 7405, "девушка,</w>": 7406, "оборотился</w>": 7407, "присталь": 7408, "загадоч": 7409, "хри": 7410, "Настасья": 7411, "отозвался</w>": 7412, "нашей</w>": 7413, "болезнь,</w>": 7414, "просьб": 7415, "ича,</w>": 7416, "Семеновича</w>": 7417, "вреш": 7418, "есть?</w>": 7419, "дава": 7420, "нейшего</w>": 7421, "Мать</w>": 7422, "подно": 7423, "подногот": 7424, "То-то</w>": 7425, "поруч": 7426, "недоумении</w>": 7427, "наплевать</w>": 7428, "полицей": 7429, "увидал</w>": 7430, "Потому,</w>": 7431, "Оно,</w>": 7432, "гим": 7433, "енное,</w>": 7434, "туз": 7435, "сверк": 7436, "слышал,</w>": 7437, "авшись</w>": 7438, "ются.</w>": 7439, "пришли</w>": 7440, "слух": 7441, "положительно</w>": 7442, "обруг": 7443, "Николай</w>": 7444, "показани": 7445, "оправд": 7446, "приму": 7447, "ффек": 7448, "фамильяр": 7449, "сдержать</w>": 7450, "нительно</w>": 7451, "Родя</w>": 7452, "Родь": 7453, "назва": 7454, "Весьма</w>": 7455, "Бак": 7456, "Бакале": 7457, "неправиль": 7458, "Да.</w>": 7459, "имеют</w>": 7460, "самоувер": 7461, "шарманщи": 7462, "тротуа": 7463, "мрачно</w>": 7464, "шампан": 7465, "Заметов.</w>": 7466, "Излер</w>": 7467, "спе": 7468, "пожар</w>": 7469, "те?</w>": 7470, "отшат": 7471, "велел</w>": 7472, "объявля": 7473, "прищ": 7474, "потеря": 7475, "извините,</w>": 7476, "теперь!</w>": 7477, "он?</w>": 7478, "убил?</w>": 7479, "&#233": 7480, "&#233;": 7481, "Слушай,</w>": 7482, "говорю?</w>": 7483, "говорил?</w>": 7484, "Наконец,</w>": 7485, "этого-то</w>": 7486, "Батюш": 7487, "одного": 7488, "Видно</w>": 7489, "ждала</w>": 7490, "Кх": 7491, "скороговор": 7492, "ялась,</w>": 7493, "будьте</w>": 7494, "шу</w>": 7495, "бледное</w>": 7496, "убы": 7497, "Бог</w>": 7498, "ничего.</w>": 7499, "Бес": 7500, "паци": 7501, "пациен": 7502, "вышли</w>": 7503, "намек": 7504, "Родя?</w>": 7505, "у!..</w>": 7506, "емте</w>": 7507, "испугом</w>": 7508, "мать.</w>": 7509, "понимаете,</w>": 7510, "естан": 7511, "Видите,</w>": 7512, "глаз,</w>": 7513, "воскликнула</w>": 7514, "озабоч": 7515, "звал</w>": 7516, "энергичес": 7517, "иметь</w>": 7518, "перешаг": 7519, "кой-что</w>": 7520, "Сегод": 7521, "тю": 7522, "представьте</w>": 7523, "это-то</w>": 7524, "ваго": 7525, "as": 7526, "глядели</w>": 7527, "напомни": 7528, "хочет,</w>": 7529, "будете</w>": 7530, "поссор": 7531, "поминки</w>": 7532, "Соне.</w>": 7533, "Порфирию</w>": 7534, "допуска": 7535, "Вообразите,</w>": 7536, "собственно</w>": 7537, "a</w>": 7538, "gu": 7539, "извините</w>": 7540, "существует</w>": 7541, "иться?</w>": 7542, "Мещанин</w>": 7543, "Аркади": 7544, "Аркадий</w>": 7545, "ai": 7546, "Ресслих</w>": 7547, "оно,</w>": 7548, "панси": 7549, "вы-то</w>": 7550, "Соня?</w>": 7551, "ю-с,</w>": 7552, "Хе-хе!</w>": 7553, "жильцов,</w>": 7554, "мужчи": 7555, "Софью</w>": 7556, "поляч": 7557, "Амалию</w>": 7558, "и-кхи!</w>": 7559, "Коля,</w>": 7560, "пуф": 7561, "вошь</w>": 7562, "inq": 7563, "inq</w>": 7564, "sous": 7565, "Шиллер": 7566, "st": 7567, "ения!</w>": 7568, "принадлежит</w>": 7569, "литерату": 7570, "времен": 7571, "временем</w>": 7572, "«Г": 7573, "«Во": 7574, "явился</w>": 7575, "алистической</w>": 7576, "человеческой</w>": 7577, "виде": 7578, "крепост": 7579, "И.</w>": 7580, "собра": 7581, "стр.</w>": 7582, "побед": 7583, "кен": 7584, "общество</w>": 7585, "начиная</w>": 7586, "индивидуалистичес": 7587, "наказании»</w>": 7588, "романа,</w>": 7589, "настоящего</w>": 7590, "обездол": 7591, "проз": 7592, "скою</w>": 7593, "е».</w>": 7594, "героем</w>": 7595, "взгляды</w>": 7596, "(в</w>": 7597, "ляют</w>": 7598, "другое.</w>": 7599, "стремится</w>": 7600, "субъ": 7601, "субъек": 7602, "поднять</w>": 7603, "исполн": 7604, "боли</w>": 7605, "коры": 7606, "ливая</w>": 7607, "альных</w>": 7608, "ящи": 7609, "вшиеся</w>": 7610, "последу": 7611, "убийство</w>": 7612, "страдан": 7613, "систем": 7614, "собственных</w>": 7615, "76": 7616, "гувер": 7617, "гувернант": 7618, "семейство</w>": 7619, "честный</w>": 7620, "Жив": 7621, "мещан": 7622, "ивше": 7623, "самостоятель": 7624, "нищеты,</w>": 7625, "резал</w>": 7626, "разря": 7627, "молчал": 7628, "вшим</w>": 7629, "благодетел": 7630, "ми:</w>": 7631, "твор": 7632, "Созна": 7633, "м»,</w>": 7634, "непри": 7635, "пони": 7636, "ющим,</w>": 7637, "уши": 7638, "остается</w>": 7639, "Сво": 7640, "человеческого</w>": 7641, "рассуж": 7642, "отвлеч": 7643, "протест</w>": 7644, "средства": 7645, "людям</w>": 7646, "закон</w>": 7647, "лежа": 7648, "я».</w>": 7649, "действия</w>": 7650, "личном</w>": 7651, "анное</w>": 7652, "срав": 7653, "ствующ": 7654, "красот": 7655, "отвращение</w>": 7656, "борьба</w>": 7657, "ению.</w>": 7658, "веш": 7659, "отдель": 7660, "силой</w>": 7661, "бедня": 7662, "разговоре</w>": 7663, "рисов": 7664, "жига": 7665, "Крас": 7666, "о»,</w>": 7667, "руков": 7668, "руковод": 7669, "получи": 7670, "молодых</w>": 7671, "внимания</w>": 7672, "мир</w>": 7673, "источ": 7674, "половина</w>": 7675, "автора</w>": 7676, "ка»,</w>": 7677, "тысяча": 7678, "чут": 7679, "нравственной</w>": 7680, "нов,</w>": 7681, "вра": 7682, "связи</w>": 7683, "перевод</w>": 7684, "Бел": 7685, "писател": 7686, "печата": 7687, "вшаяся</w>": 7688, "крити": 7689, "вие</w>": 7690, "1849</w>": 7691, "шихся</w>": 7692, "цев</w>": 7693, "Гогол": 7694, "зачит": 7695, "казн": 7696, "Сева": 7697, "Севасто": 7698, "Тот": 7699, "Петербург.</w>": 7700, "годов,</w>": 7701, "рал": 7702, "глух": 7703, "кого.</w>": 7704, "годов</w>": 7705, "стом</w>": 7706, "качеств": 7707, "передов": 7708, "вшая</w>": 7709, "ика</w>": 7710, "получила</w>": 7711, "стью</w>": 7712, "совершен": 7713, "высказыва": 7714, "осуществ": 7715, "замы": 7716, "адво": 7717, "ителя</w>": 7718, "хуже</w>": 7719, "идес": 7720, "доказыва": 7721, "который,</w>": 7722, "скорее</w>": 7723, "ании</w>": 7724, "преступлени": 7725, "карт": 7726, "буржуазного</w>": 7727, "наиболее</w>": 7728, "отмет": 7729, "силой,</w>": 7730, "гранич": 7731, "дения</w>": 7732, "судьбу</w>": 7733, "ические</w>": 7734, "углуб": 7735, "Наполеона</w>": 7736, "тно</w>": 7737, "ает,</w>": 7738, "угроз": 7739, "жили</w>": 7740, "хозяи": 7741, "речь</w>": 7742, "публич": 7743, "фактов</w>": 7744, "города</w>": 7745, "нения,</w>": 7746, "соеди": 7747, "авших</w>": 7748, "гущ": 7749, "воспри": 7750, "свет</w>": 7751, "сознательно</w>": 7752, "заметно</w>": 7753, "чувств,</w>": 7754, "пуская</w>": 7755, "ств,</w>": 7756, "сма": 7757, "дурно</w>": 7758, "трактир": 7759, "щет": 7760, "тщательно</w>": 7761, "ично</w>": 7762, "ывают</w>": 7763, "наме": 7764, "лены</w>": 7765, "точку</w>": 7766, "ков.</w>": 7767, "сел,</w>": 7768, "«М": 7769, "вряд</w>": 7770, "становится</w>": 7771, "историю</w>": 7772, "судьба</w>": 7773, "ката": 7774, "брак</w>": 7775, "собственного</w>": 7776, "Благод": 7777, "Благодар": 7778, "паралл": 7779, "Дуней</w>": 7780, "Свидригайловым,</w>": 7781, "ужа": 7782, "сердеч": 7783, "дается,</w>": 7784, "экономичес": 7785, "единственная</w>": 7786, "реза": 7787, "разных</w>": 7788, "роль</w>": 7789, "неумол": 7790, "потерял</w>": 7791, "довести</w>": 7792, "омерз": 7793, "Пья": 7794, "отца,</w>": 7795, "счастье</w>": 7796, "едино": 7797, "Си": 7798, "бир": 7799, "ки:</w>": 7800, "пусты": 7801, "вые</w>": 7802, "одол": 7803, "ЧАСТЬ": 7804, "ЧАСТЬ</w>": 7805, "тир": 7806, "настежь</w>": 7807, "аться.</w>": 7808, "дела,</w>": 7809, "страх</w>": 7810, "всё-то</w>": 7811, "сти…</w>": 7812, "нового</w>": 7813, "Пожалуй,</w>": 7814, "способен</w>": 7815, "пожалуй</w>": 7816, "тах</w>": 7817, "Кстати,</w>": 7818, "фигу": 7819, "лохмоть": 7820, "похожее</w>": 7821, "эда": 7822, "ят…</w>": 7823, "нее…</w>": 7824, "воле</w>": 7825, "предприят": 7826, "мира": 7827, "нерв": 7828, "боюсь,</w>": 7829, "жил</w>": 7830, "брякнул</w>": 7831, "щелоч": 7832, "видимым</w>": 7833, "старушонка,</w>": 7834, "тряпь": 7835, "плеча": 7836, "кашл": 7837, "каким": 7838, "каким-нибудь</w>": 7839, "по-прежнему</w>": 7840, "располож": 7841, "деревян": 7842, "спин": 7843, "стуль": 7844, "лам": 7845, "лос": 7846, "к;</w>": 7847, "а»,</w>": 7848, "серебряные</w>": 7849, "часы.</w>": 7850, "щеч": 7851, "Много</w>": 7852, "Алена</w>": 7853, "выкуп": 7854, "Ваш": 7855, "уйти": 7856, "пришел.</w>": 7857, "оставш": 7858, "оставшись</w>": 7859, "ключ</w>": 7860, "док</w>": 7861, "сему</w>": 7862, "копеек.</w>": 7863, "получить</w>": 7864, "рубль</w>": 7865, "папиросоч": 7866, "воро": 7867, "ворочу": 7868, "дело?</w>": 7869, "прийти</w>": 7870, "нилось,</w>": 7871, "вниз,</w>": 7872, "входил</w>": 7873, "Ть": 7874, "шему</w>": 7875, "лавке</w>": 7876, "прежнюю</w>": 7877, "счасти": 7878, "отп": 7879, "некотором</w>": 7880, "толпе</w>": 7881, "сапоги</w>": 7882, "четыр": 7883, "слово.</w>": 7884, "поминал</w>": 7885, "первое</w>": 7886, "оттенком</w>": 7887, "пренеб": 7888, "безум": 7889, "жилет": 7890, "ничь": 7891, "выступ": 7892, "иногда,</w>": 7893, "позвольте": 7894, "гивая</w>": 7895, "возбуд": 7896, "шки</w>": 7897, "ник!</w>": 7898, "енноруч": 7899, "намед": 7900, "фыр": 7901, "»[": 7902, "Еван": 7903, "Евангел": 7904, "изъяс": 7905, "нее:</w>": 7906, "моя,</w>": 7907, "хихи": 7908, "говорить": 7909, "стукнул</w>": 7910, "столу.</w>": 7911, "хочу!</w>": 7912, "отчаянии,</w>": 7913, "лист</w>": 7914, "лежит,</w>": 7915, "побо": 7916, "дому</w>": 7917, "слеза": 7918, "тремя</w>": 7919, "состоянии.</w>": 7920, "Понимаете</w>": 7921, "украш": 7922, "ял.</w>": 7923, "оров": 7924, "брака,</w>": 7925, "можете,</w>": 7926, "имел": 7927, "Дар": 7928, "естественно": 7929, "деви": 7930, "особы": 7931, "лоп": 7932, "лома": 7933, "пользу": 7934, "худень": 7935, "тся</w>": 7936, "бить</w>": 7937, "Сонечка</w>": 7938, "чики</w>": 7939, "говоря,</w>": 7940, "встать</w>": 7941, "ваться.</w>": 7942, "Как,</w>": 7943, "чает,</w>": 7944, "Капернаумов": 7945, "поут": 7946, "«Ну,</w>": 7947, "ног</w>": 7948, "входа</w>": 7949, "евший</w>": 7950, "«Хуторо": 7951, "«Хуторок": 7952, "популяр": 7953, "внимательно.</w>": 7954, "не:</w>": 7955, "цыпочках</w>": 7956, "стал,</w>": 7957, "лот": 7958, "стря": 7959, "что-нибудь,</w>": 7960, "выходит,</w>": 7961, "ела,</w>": 7962, "бывать</w>": 7963, "обеда</w>": 7964, "помня</w>": 7965, "надеюсь,</w>": 7966, "жалован": 7967, "удержал": 7968, "вот-с,</w>": 7969, "Денег</w>": 7970, "понимаете?</w>": 7971, "луж": 7972, "ать-то</w>": 7973, "-с!..</w>": 7974, "Да!</w>": 7975, "вку": 7976, "идет</w>": 7977, "ит:</w>": 7978, "енькие,</w>": 7979, "припад": 7980, "забыв</w>": 7981, "меня…</w>": 7982, "Дом</w>": 7983, "ра…</w>": 7984, "думал.</w>": 7985, "ногами,</w>": 7986, "плача</w>": 7987, "обой": 7988, "вошли</w>": 7989, "прошли</w>": 7990, "особенности</w>": 7991, "ливо.</w>": 7992, "ные.</w>": 7993, "последнем</w>": 7994, "несло</w>": 7995, "девочка,</w>": 7996, "полу,</w>": 7997, "диван.</w>": 7998, "хом</w>": 7999, "удав": 8000, "входя</w>": 8001, "незнако": 8002, "кивал</w>": 8003, "ные!</w>": 8004, "головы</w>": 8005, "руках.</w>": 8006, "комнату": 8007, "распоря": 8008, "размен": 8009, "охота</w>": 8010, "их-то</w>": 8011, "стены</w>": 8012, "вот-": 8013, "вот-вот</w>": 8014, "неш": 8015, "тет": 8016, "одному,</w>": 8017, "половину</w>": 8018, "иться;</w>": 8019, "монома": 8020, "перестала</w>": 8021, "объясниться</w>": 8022, "разбуд": 8023, "Вот,</w>": 8024, "говорю.</w>": 8025, "говоришь,</w>": 8026, "колы": 8027, "Без</w>": 8028, "есть:</w>": 8029, "скорей</w>": 8030, "вышла,</w>": 8031, "ил;</w>": 8032, "дала</w>": 8033, "тебе?</w>": 8034, "Вахру": 8035, "нам,</w>": 8036, "нули,</w>": 8037, "Дунечки": 8038, "любит</w>": 8039, "причины,</w>": 8040, "души": 8041, "город,</w>": 8042, "ала;</w>": 8043, "отстра": 8044, "канцел": 8045, "ел!</w>": 8046, "раска": 8047, "письмо,</w>": 8048, "письме</w>": 8049, "несчастную</w>": 8050, "хав</w>": 8051, "слезы,</w>": 8052, "сряду</w>": 8053, "собир": 8054, "Мое</w>": 8055, "ника,</w>": 8056, "претен": 8057, "ответа</w>": 8058, "надвор": 8059, "Петербург,</w>": 8060, "каждою</w>": 8061, "впа": 8062, "тще": 8063, "любит,</w>": 8064, "поняла,</w>": 8065, "больших</w>": 8066, "настоящее</w>": 8067, "те;</w>": 8068, "колени</w>": 8069, "образом,</w>": 8070, "утро</w>": 8071, "выиг": 8072, "тись</w>": 8073, "оном</w>": 8074, "сух": 8075, "тобой,</w>": 8076, "у-нибудь</w>": 8077, "сойд": 8078, "трое</w>": 8079, "трех": 8080, "нашу</w>": 8081, "немного.</w>": 8082, "наша</w>": 8083, "го?</w>": 8084, "юсь.</w>": 8085, "лая</w>": 8086, "подушку</w>": 8087, "шляпу</w>": 8088, "обыкновению</w>": 8089, "дороги,</w>": 8090, "IV</w>": 8091, "сомнений</w>": 8092, "черту</w>": 8093, "такой,</w>": 8094, "спаль": 8095, "добр": 8096, "пожерт": 8097, "пойдет.</w>": 8098, "сию</w>": 8099, "сне": 8100, "ивать,</w>": 8101, "лась</w>": 8102, "ется?</w>": 8103, "ец!</w>": 8104, "жертв": 8105, "господином</w>": 8106, "равно,</w>": 8107, "вать?</w>": 8108, "теперь?</w>": 8109, "левый</w>": 8110, "нок,</w>": 8111, "нет;</w>": 8112, "задуш": 8113, "одна,</w>": 8114, "это…</w>": 8115, "оглядел": 8116, "остановил</w>": 8117, "юще": 8118, "мало-помалу</w>": 8119, "материи</w>": 8120, "сзад": 8121, "ало,</w>": 8122, "оборва": 8123, "нахмури": 8124, "толков": 8125, "схватив</w>": 8126, "напо": 8127, "оставалась</w>": 8128, "возьму</w>": 8129, "оглядел</w>": 8130, "хлопотал</w>": 8131, "изу": 8132, "глаз.</w>": 8133, "рос": 8134, "указал</w>": 8135, "махнув</w>": 8136, "тяжело.</w>": 8137, "-три</w>": 8138, "восем": 8139}, "merges": [[",", "</w>"], ["о", "</w>"], ["и", "</w>"], ["е", "</w>"], ["а", "</w>"], ["с", "т"], [".", "</w>"], ["о", "в"], ["я", "</w>"], ["п", "о"], ["ь", "</w>"], ["н", "и"], ["а", "л"], ["п", "р"], ["к", "о"], ["т", "о"], ["т", "о</w>"], ["—", "</w>"], ["е", "р"], ["к", "а"], ["е", "т"], ["н", "а"], ["е", "л"], ["м", "</w>"], ["р", "а"], ["е", "н"], ["н", "о"], ["й", "</w>"], ["о", "т"], ["и", "л"], ["н", "е"], ["у", "</w>"], ["в", "</w>"], ["н", "е</w>"], ["к", "</w>"], ["и", "т"], ["о", "н"], ["г", "о</w>"], ["б", "ы"], ["в", "о"], ["в", "а"], ["н", "о</w>"], ["о", "д"], ["н", "а</w>"], ["з", "а"], ["с", "</w>"], ["ч", "то</w>"], ["!", "</w>"], ["в", "с"], ["о", "б"], ["о", "л"], ["о", "р"], ["е", "д"], ["с", "л"], ["ь", ",</w>"], ["н", "ы"], ["т", "а"], ["е", "м"], ["р", "у"], ["в", "ы"], ["а", "т"], ["о", "с"], ["ж", "е</w>"], ["е", ",</w>"], ["х", "</w>"], ["а", "с"], ["д", "а"], ["м", "о"], ["л", "ь"], ["…", "</w>"], ["н", "у"], ["?", "</w>"], ["е", "ст"], ["я", ",</w>"], ["ю", "</w>"], ["он", "</w>"], ["пр", "и"], ["и", ",</w>"], ["с", "я</w>"], ["е", "го</w>"], ["е", "с"], ["ал", "</w>"], ["бы", "л"], ["г", "о"], ["е", "ни"], ["р", "о"], ["в", "и"], ["у", "д"], ["п", "ер"], ["ра", "з"], ["я", "т"], ["ка", "к</w>"], ["е", "м</w>"], ["л", "и"], ["у", "м"], ["к", "и"], ["р", "и"], ["ы", "</w>"], ["пр", "о"], ["и", "з"], ["по", "д"], ["л", "а"], ["ч", "а"], ["с", "а"], ["р", "е"], ["д", "а</w>"], ["у", ",</w>"], ["к", "ов"], ["м", "а"], ["н", "ов"], ["т", "е"], ["ет", "</w>"], ["ел", "ь"], ["-", "то</w>"], ["и", "с"], ["к", "о</w>"], [";", "</w>"], ["ко", "ль"], ["ил", "</w>"], ["д", "о"], ["ст", "а"], ["у", "ж"], ["и", "н"], ["й", ",</w>"], ["бы", "</w>"], ["от", "</w>"], ["д", "ел"], ["т", "</w>"], ["д", "ру"], ["ни", "ков"], ["м", ",</w>"], ["е", "з"], ["э", "то</w>"], ["б", "уд"], ["с", "м"], ["г", "ов"], [":", "</w>"], ["с", "е"], ["в", "ер"], ["ст", "в"], ["Р", "ас"], ["е", "щ"], ["з", "на"], ["коль", "ников"], ["та", "к</w>"], ["Рас", "кольников"], ["г", "л"], ["вс", "ё"], ["ш", "и"], ["р", "ов"], ["э", "то"], ["с", "ка"], ["м", "и"], ["а", ",</w>"], ["г", "</w>"], ["о", "ч"], ["м", "ен"], ["гов", "ор"], ["ст", "о"], ["но", ",</w>"], ["е", "ж"], ["м", "и</w>"], ["ну", "л"], ["ч", "то"], ["всё", "</w>"], ["и", "ч"], ["о", "ж"], ["м", "у</w>"], ["ел", "</w>"], ["с", "во"], ["с", "я"], ["н", "</w>"], ["д", "е"], ["х", "од"], ["по", "л"], ["е", "е</w>"], ["а", "в"], ["з", "а</w>"], ["г", "да</w>"], ["т", "ь</w>"], ["я", "л"], ["ра", "с"], ["р", "ы"], ["ч", "и"], ["ь", ".</w>"], ["с", "я,</w>"], ["вы", "</w>"], ["е", "й</w>"], ["е", "ш"], ["ви", "д"], ["б", "ол"], ["с", "о"], ["л", "ю"], ["П", "ет"], ["к", "у"], ["е", "ч"], ["г", "а"], ["А", "</w>"], ["ет", ",</w>"], ["е", ".</w>"], ["х", "от"], ["п", "о</w>"], ["и", "х"], ["т", "ь,</w>"], ["мо", "ж"], ["ит", "ь</w>"], ["в", "ал"], ["ю", ",</w>"], ["ем", "у</w>"], ["п", "у"], ["ещ", "е</w>"], ["то", "ль"], ["был", "о</w>"], ["я", "с"], ["-", "с"], ["д", "о</w>"], ["ко", "то"], ["ат", "ь</w>"], ["О", "н</w>"], ["к", "и</w>"], ["но", "го</w>"], ["ят", "ь</w>"], ["да", "же</w>"], ["го", ",</w>"], ["е", "к"], ["и", "х</w>"], ["ал", "а</w>"], ["толь", "ко</w>"], ["ит", "ель"], ["се", "б"], ["он", "а</w>"], ["»", "</w>"], ["те", "пер"], ["ел", "ов"], ["с", "ов"], ["м", "ы"], ["о", "п"], ["у", "б"], ["п", "л"], ["в", "дру"], ["т", "у"], ["в", "ед"], ["Я", "</w>"], ["ч", "ер"], ["а", "з"], ["в", "з"], ["у", "же</w>"], ["но", "й</w>"], ["и", "в"], ["ч", "елов"], ["э", "т"], ["у", "ч"], ["х", ",</w>"], ["ны", "й</w>"], ["ен", "но</w>"], ["т", "ы</w>"], ["но", "ст"], ["из", "</w>"], ["ал", "ь"], ["а", "р"], ["и", "м"], ["вс", "е"], ["д", "у"], ["пр", "ос"], ["к", "а</w>"], ["по", "то"], ["Д", "а</w>"], ["ил", "и</w>"], ["от", "р"], ["ко", "й</w>"], ["Р", "аз"], ["вдру", "г</w>"], ["И", "</w>"], ["по", "м"], ["ер", "и"], ["ко", "м"], ["ш", "л"], ["на", ",</w>"], ["т", "ь"], ["г", "ол"], ["к", "ри"], ["ит", "ь"], ["ч", "у"], ["уж", "</w>"], ["ем", ",</w>"], ["ш", "а"], ["ал", ",</w>"], ["н", "и</w>"], ["ен", "ь</w>"], ["п", "а"], ["гл", "я"], ["тепер", "ь</w>"], ["сл", "и</w>"], ["ст", "ра"], ["г", "од"], ["был", "</w>"], ["ил", "ся</w>"], ["по", "сл"], ["Пет", "ров"], ["см", "отр"], ["ас", "ь</w>"], ["я", ".</w>"], ["г", "ла"], ["ли", "ц"], ["пр", "ед"], ["по", "ч"], ["т", "и"], ["о", ",</w>"], ["ен", "ны"], ["И", "ва"], ["во", "р"], ["ен", "ь"], ["мен", "я</w>"], ["б", "ез"], ["Раз", "ум"], ["ска", "з"], ["те", "б"], ["ат", "ь"], ["е", "й"], ["ы", ",</w>"], ["ч", "его</w>"], ["ин", "</w>"], ["Ива", "нов"], ["д", "ум"], ["ка", ",</w>"], ["с", "ко"], ["в", "от</w>"], ["Разум", "их"], ["пр", "ав"], ["б", "о"], ["-", "ни"], ["вед", "ь</w>"], ["р", "ем"], ["во", "з"], ["ч", "ем</w>"], ["м", "не</w>"], ["Раскольников", "</w>"], ["ил", "а</w>"], ["г", "ор"], ["-ни", "буд"], ["сл", "у"], ["л", "о"], ["на", "ч"], ["но", "е</w>"], ["ста", "в"], ["а", ".</w>"], ["м", "ер"], ["ор", "о"], ["б", "р"], ["в", "о</w>"], ["и", ".</w>"], ["не", "го</w>"], ["м", "ет"], ["т", "и</w>"], ["щ", "и"], ["ко", "гда</w>"], [".", ".</w>"], ["ос", "ь</w>"], ["ш", "ел</w>"], ["ча", "с</w>"], ["ко", "н"], ["к", ",</w>"], ["м", "ол"], ["оч", "ень</w>"], ["л", "и</w>"], ["ся", ".</w>"], ["и", "д"], ["ит", "</w>"], ["с", "п"], ["ко", "й"], ["нул", "</w>"], ["бол", "ь"], ["на", "я</w>"], ["оп", "ять</w>"], ["ва", "м</w>"], ["ми", "ну"], ["С", "он"], ["ы", "ва"], ["бы", "ть,</w>"], ["ка", "ж"], ["т", "р"], ["Н", "о</w>"], ["ов", "</w>"], ["л", "я</w>"], ["с", "у"], ["ва", "с</w>"], ["т", ",</w>"], ["и", "ш"], ["ра", "ж"], ["с", "об"], ["ка", "з"], ["у", ".</w>"], ["ко", "не"], ["-нибуд", "ь</w>"], ["ени", "е</w>"], ["ко", "м</w>"], ["ф", "и"], ["ш", "е"], ["м", "и,</w>"], ["Д", "у"], ["б", "ес"], ["от", "в"], ["ол", "ж"], ["П", "о"], ["са", "мо"], ["к", "у</w>"], ["л", "е"], ["ст", "у"], ["не", "й</w>"], ["е", "сли</w>"], ["сл", "ов"], ["п", "ов"], ["он", ",</w>"], ["ал", "о</w>"], ["и", "ва"], ["а", "н"], ["в", "рем"], ["ст", "ор"], ["ч", "ит"], ["с", "к"], ["р", "</w>"], ["кото", "ры"], ["и", "м</w>"], ["ал", "и</w>"], ["Э", "то</w>"], ["ны", "е</w>"], ["ис", "ь</w>"], ["м", ".</w>"], ["Петров", "ич"], ["с", "ил"], ["не", "е</w>"], ["д", "ов"], ["о", "м</w>"], ["ш", "е</w>"], ["про", "ч"], ["ет", "ся,</w>"], ["да", "в"], ["пр", "от"], ["еж", "д"], ["о", "й</w>"], ["!", "..</w>"], ["был", "а</w>"], ["не", "с"], ["с", "ер"], ["ни", "ц"], ["в", "ес"], ["ест", "ь</w>"], ["то", ",</w>"], ["д", "ля</w>"], ["т", "ер"], ["т", "е</w>"], ["ат", "ери"], ["м", "ест"], ["в", "ств"], ["ча", "ст"], ["е", "го"], ["д", "ц"], ["ни", "ма"], ["я", "в"], ["д", "ес"], ["пер", "ед"], ["р", "я"], ["са", "м</w>"], ["м", "а</w>"], ["то", "же</w>"], ["ж", "ал"], ["ени", "я</w>"], ["-с", ",</w>"], ["й", ".</w>"], ["ту", "т</w>"], ["с", "ем</w>"], ["себ", "я</w>"], ["то", "ч"], ["Н", "е</w>"], ["мож", "ет</w>"], ["вс", "е</w>"], ["но", "м</w>"], ["б", "</w>"], ["а", "к</w>"], ["г", "ос"], ["с", "и"], ["ы", "ш"], ["Н", "а"], ["яс", "ь</w>"], ["пото", "му</w>"], ["В", "</w>"], ["д", "в"], ["е", "!</w>"], ["ны", "м</w>"], ["х", "о"], ["м", "ал"], ["З", "а"], ["ны", "х</w>"], ["К", "атери"], ["т", "ы"], ["ко", "го</w>"], ["пр", "а"], ["»", ",</w>"], ["да", ",</w>"], ["ны", "</w>"], ["что", "бы</w>"], ["П", "ор"], ["о", "ст"], ["ест", "в"], ["н", "я"], ["лю", "б"], ["ит", "ь,</w>"], ["н", "д"], ["ол", "ь"], ["об", "щ"], ["Пор", "фи"], ["Порфи", "ри"], ["д", "ет"], ["у", "р"], ["ич", "ес"], ["ял", "</w>"], ["буд", "то</w>"], ["ж", "е,</w>"], ["то", "р"], ["ч", "ас"], ["Р", "од"], ["ра", "т"], ["ит", "е</w>"], ["сов", "сем</w>"], ["ки", "й</w>"], ["з", "н"], ["челов", "ек"], ["ж", "ел"], ["р", "од"], ["ил", ",</w>"], ["раз", "</w>"], ["д", "</w>"], ["итель", "но</w>"], ["гол", "ов"], ["Р", "о"], ["ж", "ен"], ["л", "я"], ["ю", ".</w>"], ["ь", "!</w>"], ["ц", "и"], ["ни", "м</w>"], ["ки", "е</w>"], ["д", "вер"], ["д", "ер"], ["ва", "р"], ["Ро", "ма"], ["челов", "е"], ["кото", "ро"], ["в", "ст"], ["ком", "на"], ["ос", "об"], ["п", "ис"], ["пр", "я"], ["ш", "ел"], ["то", "го</w>"], ["с", "в"], ["мину", "т"], ["но", ".</w>"], ["ко", "л"], ["ет", "ся</w>"], ["н", "у</w>"], ["с", "о</w>"], ["к", "и,</w>"], ["ва", "ш"], ["о", "ста"], ["а", "ни"], ["ы", "й</w>"], ["ни", "л"], ["ска", "за"], ["ен", "</w>"], ["ре", "ш"], ["кри", "ч"], ["не", "м"], ["Ч", "то</w>"], ["т", "ем</w>"], ["он", "и</w>"], ["б", "ла"], ["во", "л"], ["Н", "у,</w>"], ["об", "раз"], ["пер", "е"], ["см", "е"], ["дру", "го"], ["ь", "я"], ["у", "ю</w>"], ["это", "т</w>"], ["ил", "ась</w>"], ["проч", "ем,</w>"], ["то", "т"], ["й", "ств"], ["поч", "ти</w>"], ["пу", "ст"], ["коль", "ко</w>"], ["в", "ел"], ["б", "л"], ["р", "ед"], ["пр", "од"], ["м", "ат"], ["й", "л"], ["ка", "к"], ["г", "и"], ["щ", "а"], ["у", "т"], ["посл", "ед"], ["ну", "ю</w>"], ["ни", "чего</w>"], ["б", "а"], ["тот", "час</w>"], ["е", "?</w>"], ["мы", "сл"], ["й", "д"], ["м", "ы</w>"], ["в", "чер"], ["ни", "х</w>"], ["вид", "ри"], ["видри", "га"], ["видрига", "йл"], ["чу", "вств"], ["в", "ест"], ["то", "гда</w>"], ["С", "видригайл"], ["т", "е,</w>"], ["О", "на</w>"], ["х", "а"], ["пр", "о</w>"], ["с", "уд"], ["С", "о"], ["без", "</w>"], ["м", "о</w>"], ["Разумих", "ин"], ["ест", "у"], ["с", "по"], ["н", "ет"], ["б", "ра"], ["хот", "ь</w>"], ["ер", "ш"], ["бр", "ос"], ["ит", ",</w>"], ["ю", "т"], ["е", "го,</w>"], ["слу", "ча"], ["к", "вар"], ["ж", "д"], ["пол", "ож"], ["за", "мет"], ["ц", "ел"], ["Н", "у</w>"], ["все", "х</w>"], ["П", "у"], ["с", "прос"], ["ь", "?</w>"], ["х", "оч"], ["ст", "ол"], ["пр", "и</w>"], ["е", "в"], ["д", "е</w>"], ["это", "м</w>"], ["не", "ч"], ["ро", "м"], ["гос", "под"], ["ет", "е</w>"], ["не", "ни"], ["ка", "я</w>"], ["ка", "ки"], ["кри", "к"], ["коне", "ц"], ["ва", "т"], ["ка", "за"], ["раз", "в"], ["вз", "гля"], ["т", "ре"], ["сов", "ерш"], ["ат", "ь,</w>"], ["на", ".</w>"], ["теб", "е</w>"], ["ли", "ч"], ["ж", "из"], ["ез", "</w>"], ["об", "</w>"], ["н", "я</w>"], ["л", "ек"], ["сл", "ед"], ["у", "щ"], ["»", ".</w>"], ["к", "е</w>"], ["сл", "ыш"], ["В", "с"], ["ж", "а"], ["гор", "од"], ["ем", "ен"], ["та", "м</w>"], ["с", "дел"], ["ст", "ал</w>"], ["у", "л"], ["Рома", "нов"], ["д", "ы"], ["то", "м</w>"], ["квар", "ти"], ["е", "-"], ["перед", "</w>"], ["ре", "з"], ["эт", "у</w>"], ["при", "б"], ["уж", "ас"], ["говор", "ил</w>"], ["мо", "г"], ["не", "й"], ["л", "ест"], ["ит", "е,</w>"], ["прод", "олж"], ["ю", "с"], ["о", ".</w>"], ["и", "!</w>"], ["ст", "ро"], ["был", "и</w>"], ["под", "</w>"], ["не", ",</w>"], ["ь", "я</w>"], ["за", "в"], ["бол", "ее</w>"], ["Л", "уж"], ["каз", "ал"], ["ени", "ем</w>"], ["М", "ар"], ["В", "от</w>"], ["стра", "н"], ["!", "»</w>"], ["х", "оро"], ["се", "й"], ["ю", "щ"], ["ел", "и</w>"], ["о", "к"], ["л", "уч"], ["ед", "ь</w>"], ["де", "йств"], ["врем", "я</w>"], ["од", "ин</w>"], ["мо", "г</w>"], ["сто", "я"], ["м", "но"], ["ж", "</w>"], ["ов", ",</w>"], ["ел", "а</w>"], ["ра", "н"], ["Раскольников", ",</w>"], ["дру", "г"], ["ко", "е</w>"], ["ч", "ет"], ["о", "м,</w>"], ["мож", "но</w>"], ["под", "ум"], ["Катери", "на</w>"], ["ь", "ю</w>"], ["о", "з"], ["ен", "но"], ["с", "ест"], ["что", "б</w>"], ["и", "…</w>"], ["В", "едь</w>"], ["посл", "е</w>"], ["к", "р"], ["ст", "ви"], ["д", "ол"], ["ал", ".</w>"], ["в", "прочем,</w>"], ["дел", "</w>"], ["н", "ял"], ["точ", "но</w>"], ["п", "и"], ["да", "ни"], ["ну", ",</w>"], [")", ",</w>"], ["в", "ш"], ["лест", "ниц"], ["е", "…</w>"], ["нул", "а</w>"], ["К", "а"], ["Пет", "р</w>"], ["В", "ы</w>"], ["Д", "о"], ["про", "ст"], ["ет", "е,</w>"], ["об", "ъ"], ["ки", "м</w>"], ["коне", "ч"], ["что", ",</w>"], ["к", "у,</w>"], ["А", "лек"], ["Т", "ак</w>"], ["теб", "я</w>"], ["то", "т</w>"], ["у", "ш"], ["ис", "ь,</w>"], ["е", "вс"], ["есту", "пл"], ["ни", "ч"], ["и", "в</w>"], ["д", "ал"], ["е", "й,</w>"], ["вы", "й</w>"], ["вс", "его</w>"], ["е", "г"], ["по", "жал"], ["Пу", "ль"], ["Алек", "са"], ["Алекса", "нд"], ["ки", "х</w>"], ["по", "з"], ["о", "бы"], ["ко", ",</w>"], ["как", "-то</w>"], ["сказ", "ал</w>"], ["Пуль", "х"], ["Пульх", "ери"], ["х", "ват"], ["м", "ил"], ["себ", "е</w>"], ["к", "ров"], ["к", "ла"], ["на", "до</w>"], ["ска", "ж"], ["Александ", "ров"], [")", "</w>"], ["д", "ор"], ["м", "у"], ["челове", "к</w>"], ["С", "емен"], ["нул", "ся</w>"], ["ос", "ь,</w>"], ["д", "об"], ["что", "-то</w>"], ["о", "г"], ["д", "олж"], ["д", "вор"], ["са", "мы"], ["ко", "р"], ["ить", "ся</w>"], ["ра", "в"], ["в", "ал</w>"], ["я", "!</w>"], ["хот", "я</w>"], ["ежд", "у</w>"], ["ю", "т</w>"], ["каж", "ется,</w>"], ["чер", "ез</w>"], ["ат", "ель"], ["ст", "ало</w>"], ["это", "го</w>"], ["гла", "за"], ["бы", "ть</w>"], ["Н", "ет,</w>"], ["в", "д"], ["т", "а</w>"], ["ст", "во"], ["к", "ру"], ["п", "ы"], ["из", "вест"], ["пото", "м</w>"], ["смотр", "ел</w>"], ["нес", "колько</w>"], ["ть", "ся</w>"], ["с", "ю"], ["м", "ел"], ["кон", "ч"], ["эт", "и</w>"], ["ят", "ь"], ["ши", "й</w>"], ["сво", "ю</w>"], ["у", "да"], ["то", "л"], ["-", "то,</w>"], ["-с", ".</w>"], ["на", "конец"], ["л", "ен"], ["До", "сто"], ["Досто", "евс"], ["д", "ро"], ["у", "лиц"], ["К", "о"], ["та", "к"], ["П", "ро"], ["и", "ко"], ["-", "то"], ["все", "гда</w>"], ["ра", "к"], ["в", "ещ"], ["п", "ла"], ["д", "ень"], ["у", "й"], ["Иванов", "на</w>"], ["ност", "и</w>"], ["ни", "е</w>"], ["г", "де</w>"], ["бес", "по"], ["к", "ра"], ["ал", "ся</w>"], ["чу", "ть</w>"], ["дер", "ж"], ["б", "ур"], ["ка", "р"], ["вс", "я"], ["то", "ро"], ["во", "д"], ["ь", "…</w>"], ["к", "то</w>"], ["Петрович", "</w>"], ["Раскольников", ".</w>"], ["А", "вд"], ["Авд", "от"], ["м", "е"], ["вс", "ем</w>"], ["м", "от"], ["сл", "а"], ["у", "т</w>"], ["Семен", "ов"], ["смотр", "я</w>"], ["вс", "ю</w>"], ["п", "ья"], ["стор", "он"], ["приб", "ав"], ["вы", ",</w>"], ["Пульхери", "я</w>"], ["и", "ст"], ["г", "от"], ["Д", "а"], ["мо", "гл"], ["ем", "у,</w>"], ["ь", "ма</w>"], ["по", "нима"], ["и", "мен"], ["г", ",</w>"], ["з", "я"], ["хоро", "ш"], ["шл", "а</w>"], ["ва", "ть</w>"], ["го", ".</w>"], ["с", "ем"], ["то", "м,</w>"], ["ст", "ь</w>"], ["дум", "а"], ["сказа", "ть,</w>"], ["дв", "а</w>"], ["м", "ежду</w>"], ["р", "а</w>"], ["к", "ры"], ["ста", "ру"], ["с", "чит"], ["м", "у,</w>"], ["сл", "иш"], ["я", "…</w>"], ["уд", "а</w>"], ["пря", "мо</w>"], ["сту", "п"], ["енны", "х</w>"], ["не", "м</w>"], ["а", "к"], ["Н", "а</w>"], ["ож", "и"], ["г", "ру"], ["соверш", "енно</w>"], ["се", "год"], ["Род", "и"], ["н", ",</w>"], ["соб", "ств"], ["б", "ор"], ["его", ".</w>"], ["по", "х"], ["ми", ".</w>"], ["мол", "од"], ["им", "е"], ["х", ".</w>"], ["К", "ак</w>"], ["пр", "еж"], ["Сон", "я</w>"], ["вор", "от"], ["л", "еж"], ["лю", "д"], ["ст", "ва"], ["при", "ят"], ["о", "на,</w>"], ["ет", ".</w>"], ["Порфири", "й</w>"], ["П", "р"], ["т", "я"], ["к", "рас"], ["ни", "з"], ["сей", "час</w>"], ["конеч", "но,</w>"], ["на", "до"], ["г", "и</w>"], ["про", "из"], ["ни", ",</w>"], ["1", "8"], ["б", "еж"], ["к", "е,</w>"], ["вы", "ход"], ["то", "го,</w>"], ["дел", "о</w>"], ["ят", "</w>"], ["ско", "ре"], ["слиш", "ком</w>"], ["н", "ет,</w>"], ["отв", "еч"], ["об", "ра"], ["во", "прос"], ["ро", "ма"], ["е", "п"], ["к", "нов"], ["минут", "у</w>"], ["еш", "ь</w>"], ["Ду", "неч"], ["б", "ед"], ["ал", "и,</w>"], ["з", "дес"], ["сер", "дц"], ["гл", "у"], ["не", "пр"], ["еш", "ь,</w>"], ["в", "мест"], ["е", "е,</w>"], ["та", "к,</w>"], ["й", "!</w>"], ["вес", "ьма</w>"], ["З", "ос"], ["Зос", "им"], ["ча", "й"], ["б", "от"], ["л", "ож"], ["особ", "енно</w>"], ["раз", "д"], ["по", "-"], ["и", "я</w>"], ["н", "ер"], ["н", "я,</w>"], ["т", "ес"], ["ен", ",</w>"], ["Л", "и"], ["ени", "я"], ["отв", "ет"], ["я", "з"], ["ал", "а,</w>"], ["сто", "ял"], ["За", "мет"], ["пр", "об"], ["ю", "щи"], ["п", "ет"], ["обы", "кнов"], ["на", "я,</w>"], ["по", "р"], ["д", "ен"], ["вес", "ь</w>"], ["пра", "ши"], ["На", "ст"], ["Разумих", "и"], ["по", "н"], ["крич", "ал</w>"], ["Разумихин", ",</w>"], ["ли", "во"], ["с", "ред"], ["ны", "й,</w>"], ["пред", "став"], ["м", "уч"], ["ко", "й,</w>"], ["то", "му</w>"], ["действ", "ительно</w>"], ["ны", ",</w>"], ["од", "но</w>"], ["во", "ль"], ["т", "ы,</w>"], ["оста", "нов"], ["хот", "ел"], ["е-", "х"], ["бол", "ез"], ["н", "ет</w>"], ["ви", "ж"], ["г", "у"], ["хо", "зя"], ["ни", "м"], ["пом", "ни"], ["ас", "ь,</w>"], ["д", "и"], ["ни", "й</w>"], ["до", "м</w>"], ["ку", ".</w>"], ["н", "ель"], ["про", "говорил</w>"], ["мен", "я,</w>"], ["Наст", "ас"], ["Разумих", "ин</w>"], ["-", "</w>"], [".", "]"], [".]", "</w>"], ["с", ",</w>"], ["оп", "ы"], ["о", "м"], ["ил", "ось</w>"], ["ул", "ы"], ["буд", "ет</w>"], ["-", "та"], ["это", ",</w>"], ["ност", "ь</w>"], ["су", "щ"], ["Роди", "он</w>"], ["уд", "ив"], ["пис", "ь"], ["ы", "вал"], ["е", ";</w>"], ["на", "ш"], ["е", "-то</w>"], ["ру", "ка"], ["Мар", "ф"], ["б", "и"], ["ени", "и</w>"], ["эт", "а</w>"], ["ени", "я,</w>"], ["го", "м</w>"], ["мол", "ч"], ["з", "л"], ["чувств", "ов"], ["т", "у</w>"], ["вс", "я</w>"], ["м", "ного</w>"], ["крик", "нул</w>"], ["продолж", "ал</w>"], ["по", "р</w>"], ["и", "?</w>"], ["ка", ".</w>"], ["ста", "нов"], ["и", "де"], ["э", "та"], ["?", "»</w>"], ["но", "с"], ["при", "мер"], ["объ", "яс"], ["ени", "е,</w>"], ["гл", "ас"], ["а", "ри"], ["пер", "во"], ["но", "ю</w>"], ["-та", "ки</w>"], ["ц", "ен"], ["по", "ст"], ["сво", "ей</w>"], ["ва", "я</w>"], ["ли", "с"], ["Свидригайл", "ов"], ["не", "е,</w>"], ["имен", "но</w>"], ["е", ":</w>"], ["л", "и,</w>"], ["ход", "ил"], ["дов", "оль"], ["ы", "х</w>"], ["дру", "г</w>"], ["гот", "ов"], ["лю", "де"], ["но", "ч"], ["О", "д"], ["нач", "ал</w>"], ["т", "во"], ["Сон", "я,</w>"], ["ка", "ко"], ["разд", "раж"], ["улы", "б"], ["ся", "!</w>"], ["ла", ",</w>"], ["С", "</w>"], ["жиз", "н"], ["уб", "и"], ["л", "у"], ["сил", "ь"], ["само", "м</w>"], ["ц", "а</w>"], ["ис", "пу"], ["пом", "нил"], ["сп", "еш"], ["Вс", "ё"], ["а", "ш"], ["б", "ли"], ["ст", "ы"], ["пол", "уч"], ["зна", "ч"], ["да", "н"], ["ре", "ч"], ["ку", "ю</w>"], ["т", "ру"], ["Луж", "и"], ["боль", "ше</w>"], ["ка", "кой"], ["т", "ель"], ["слу", "ш"], ["д", "оро"], ["спрос", "ил</w>"], ["до", "ч"], ["вчер", "а</w>"], ["которы", "й</w>"], ["П", "ол"], ["р", "о</w>"], ["ил", "ь"], ["ер", "бур"], ["г", "да"], ["а", "х</w>"], ["во", "ч"], ["об", "о"], ["ка", "кой</w>"], ["нель", "з"], ["п", "ять</w>"], ["см", "еш"], ["у", "вер"], ["Петрович", ",</w>"], ["которы", "е</w>"], ["С", "т"], ["б", "у"], ["у", "сп"], ["сер", "ь"], ["о", "щ"], ["ет", "ь</w>"], ["ду", "ш"], ["пов", "ер"], ["у", "й,</w>"], ["ит", "ь.</w>"], ["у", "зна"], ["в", "еч"], ["ен", "ный</w>"], ["ност", "и,</w>"], ["г", "ер"], ["но", "му</w>"], ["пр", "ежд"], ["хот", "ел</w>"], ["боль", "ш"], ["это", "й</w>"], ["гол", "ос"], ["а", "я</w>"], ["ж", "и"], ["ц", "</w>"], ["ят", "ников"], ["тр", "ет"], ["б", "ер"], ["п", "ят"], ["т", "их"], ["а", "?</w>"], ["ви", "дел"], ["р", "е</w>"], ["в", "ши"], ["енны", "м</w>"], ["ра", ",</w>"], ["со", "зна"], ["я", "ни"], ["р", "об"], ["ки", ".</w>"], ["к", "л"], ["прот", "ив"], ["м", "еч"], ["е", "х"], ["я", "н"], ["Л", "е"], ["та", "кой</w>"], ["во", ",</w>"], ["Всё", "</w>"], ["мож", "ет,</w>"], ["тепер", "ь,</w>"], ["Т", "ы</w>"], ["са", "ми</w>"], ["на", "д"], ["воз", "мож"], ["к", "ре"], ["но", "е,</w>"], ["т", "ем"], ["раз", "ум"], ["ен", "ного</w>"], ["о", "став"], ["к", "лю"], ["ен", "и</w>"], ["Ле", "без"], ["Лебез", "ятников"], ["пр", "е"], ["тр", "и</w>"], ["был", "о,</w>"], ["дц", "ать</w>"], ["бла", "город"], ["на", "с</w>"], ["са", "ма</w>"], ["бл", "ед"], ["по", "скоре"], ["И", "з"], ["пр", "еступл"], ["ят", "ель"], ["Е", "сли</w>"], ["ш", "ь</w>"], ["и", "мо"], ["ен", "ное</w>"], ["с", "ки"], ["на", "м</w>"], ["кла", "д"], ["опы", "т"], ["шел", ",</w>"], ["на", "за"], ["б", "ил"], ["ч", "ем"], ["ум", "а"], ["П", "ри"], ["сл", "уж"], ["в", "а</w>"], ["но", "го,</w>"], ["об", "рат"], ["од", "на"], ["подум", "ал</w>"], ["но", "!</w>"], ["говор", "ил"], ["А", "мал"], ["ж", ",</w>"], ["по", "шел</w>"], ["ит", "ел"], ["ат", "ел"], ["у", "г"], ["стару", "х"], ["ру", "ки</w>"], ["друго", "й</w>"], ["по", "й"], ["хозя", "й"], ["ем", "енно</w>"], ["ат", "ь.</w>"], ["вдру", "г,</w>"], ["г", "да,</w>"], ["д", "ива"], ["ит", "ес"], ["зна", "ю,</w>"], ["ф", "ор"], ["м", "ед"], ["у", "з"], ["ны", "е,</w>"], ["ни", "к</w>"], ["ра", "вств"], ["о", "го</w>"], ["од", "ного</w>"], ["ы", ".</w>"], ["ша", "я</w>"], ["а", "м</w>"], ["с", "ум"], ["ят", ",</w>"], ["ра", "д"], ["г", "уб"], ["а", "!</w>"], ["дав", "но</w>"], ["ит", "ся</w>"], ["во", "с"], ["пр", "ов"], ["сво", "его</w>"], ["р", "у</w>"], ["ю", "ш"], ["т", "ел"], ["ни", "когда</w>"], ["г", "нов"], ["каза", "ни"], ["челов", "еч"], ["здес", "ь</w>"], ["н", "ю"], ["ы", "е</w>"], ["ы", "м</w>"], ["Н", "ико"], ["в", "от"], ["кра", "й"], ["от", "вор"], ["луч", "ше</w>"], ["ся", "…</w>"], ["под", "л"], ["прибав", "ил</w>"], ["пожал", "уй,</w>"], ["м", "гнов"], ["ро", "ч"], ["ли", "?</w>"], ["Авдот", "ья</w>"], ["и", "и</w>"], ["ши", "м</w>"], ["и", "но"], ["на", "д</w>"], ["а", "д"], ["рас", "сказ"], ["оль", "ко</w>"], ["кар", "ма"], ["ь", ";</w>"], ["Раскольников", "а</w>"], ["де", "в"], ["ст", "и</w>"], ["ра", "я</w>"], ["на", "с"], ["и", "ми</w>"], ["за", "дум"], ["бы", ",</w>"], ["на", "вер"], ["бра", "т,</w>"], ["гла", "в"], ["ени", "ю</w>"], ["гл", "уб"], ["общ", "еств"], ["м", "уж"], ["Пет", "ербур"], ["человек", ",</w>"], ["на", "в"], ["серь", "ез"], ["под", "оз"], ["ил", "о</w>"], ["ь", "е</w>"], ["итель", "но,</w>"], ["яс", "ь,</w>"], ["тер", "ес"], ["ч", "рез"], ["за", "чем</w>"], ["Д", "а,</w>"], ["ь", ":</w>"], ["-с", "…</w>"], ["к", "то"], ["т", "ь.</w>"], ["ч", "ет</w>"], ["прот", "ив</w>"], ["н", "равств"], ["Раскольников", "а,</w>"], ["ты", "ся"], ["п", "еч"], ["ны", "ми</w>"], ["ать", "ся</w>"], ["уда", "р"], ["слов", "а</w>"], ["ем", ".</w>"], ["дел", "а"], ["и", "ю</w>"], ["Со", "ф"], ["себ", "я,</w>"], ["нельз", "я</w>"], ["-с", "!</w>"], ["?", "..</w>"], ["мог", "у</w>"], ["бр", "ед"], ["гля", "д"], ["кото", "ру"], [")", ".</w>"], ["ив", "ш"], ["мо", "й</w>"], ["ро", "м</w>"], ["аль", "но</w>"], ["е", "ва"], ["ка", "я"], ["жен", "щи"], ["непр", "еменно</w>"], ["ес", "я"], ["мал", "ень"], ["ил", "ся,</w>"], ["а", "…</w>"], ["У", "</w>"], ["но", "…</w>"], ["ром", "е</w>"], ["с", "праши"], ["по", "смотрел</w>"], ["м", "-то</w>"], ["ил", "и,</w>"], ["щ", "е</w>"], ["ду", "х"], ["пер", "вый</w>"], ["к", ".</w>"], ["ха", "рак"], ["ра", "бот"], ["Ли", "зав"], ["рас", "суд"], ["ва", "ж"], ["ход", "ил</w>"], ["п", "ит"], ["ин", "терес"], ["вал", "ся</w>"], ["сегод", "ня</w>"], ["ужас", "но</w>"], ["у", "вид"], ["с", "ол"], ["м", "ор"], ["эт", "их</w>"], ["гер", "о"], ["не", "му</w>"], ["сво", "е</w>"], ["гла", "за</w>"], ["са", "д"], ["с", "ви"], ["вы", "чай"], ["ся", "?</w>"], ["мот", "ал</w>"], ["д", "ень</w>"], ["к", "уда</w>"], ["та", "кие</w>"], ["лиц", "о</w>"], ["б", "о</w>"], ["пл", "ать"], ["ч", "его"], ["болез", "н"], ["вмест", "е</w>"], ["дв", "у"], ["ин", "ств"], ["прав", "ед"], ["нач", "ала</w>"], ["ж", "ив"], ["но", "й,</w>"], ["мат", "ер"], ["бо", "г"], ["котору", "ю</w>"], ["поч", "ему</w>"], ["ра", "щ"], ["Н", "е"], ["до", "ма"], ["ь", "ю,</w>"], ["а", "ми</w>"], ["чрез", "вычай"], ["м", "еся"], ["ш", "ед"], ["уж", "ели</w>"], ["кре", "п"], ["на", "пример"], ["ет", "!</w>"], ["ну", "в</w>"], ["Разумихин", ".</w>"], ["ен", "ной</w>"], ["В", "о"], ["ал", "ось</w>"], ["по", "казал"], ["б", "ел"], ["ч", "ест"], ["мен", "ь"], ["с", "ы"], ["ши", "х</w>"], ["прост", "о</w>"], ["ин", ",</w>"], ["ил", "а,</w>"], ["ал", "ась</w>"], ["Т", "ут</w>"], ["сто", "ял</w>"], ["ат", "юш"], ["ва", "м,</w>"], ["во", "ск"], ["вс", "кричал</w>"], ["все", "-таки</w>"], ["я", "за"], ["по", "мо"], ["и", "стор"], ["ко", "му</w>"], ["т", "вер"], ["харак", "тер"], ["сто", "ятель"], ["енны", "е</w>"], ["с", "част"], ["беспо", "кой"], ["ле", "г"], ["ст", "ен"], ["со", "глас"], ["ал", "ись</w>"], ["ф", "ак"], ["д", "ва"], ["Т", "е"], ["зн", "ал</w>"], ["вз", "ял</w>"], ["с", "ид"], ["пр", "ер"], ["отвеч", "ал</w>"], ["например", ",</w>"], ["ча", ",</w>"], ["ет", "е?</w>"], ["по", "йд"], ["ил", "ись</w>"], ["на", "стоя"], ["Достоевс", "кий</w>"], ["см", "ер"], ["ря", "д"], ["сво", "и</w>"], ["не", "го,</w>"], ["то", "й</w>"], ["ы", "сл"], ["не", "смотря</w>"], ["у", "гл"], ["и", "г"], ["Свидригайл", "ов</w>"], ["Иванов", "на,</w>"], ["с", "их</w>"], ["господ", "ин</w>"], ["разв", "е</w>"], ["у", "!</w>"], ["ис", "ь.</w>"], ["ся", ";</w>"], ["вчер", "аш"], ["Род", "я,</w>"], ["что", "-нибудь</w>"], ["А", "х,</w>"], ["од", "ной</w>"], ["с", "кой</w>"], ["вы", "со"], ["ну", "ть</w>"], ["гор", "я"], ["ра", "ч"], ["тыся", "ч"], ["клю", "ч"], ["н", "ел"], ["ощ", "ущ"], ["т", "ри"], ["ко", "м,</w>"], ["М", "и"], ["ю", "т,</w>"], ["ял", "ся</w>"], ["м", "еш"], ["дро", "ж"], ["люб", "опыт"], ["гла", "з"], ["л", "ет</w>"], ["та", ",</w>"], ["ю", "…</w>"], ["ма", "х"], ["г", "де"], ["ен", "ная</w>"], ["о", "й,</w>"], ["глуб", "о"], ["ств", "о</w>"], ["об", "раж"], ["т", "ра"], ["во", "ж"], ["прежд", "е</w>"], ["которо", "го</w>"], ["дум", "ал</w>"], ["Мар", "мел"], ["Лизав", "ет"], ["д", "аль"], ["ь", "б"], ["могл", "а</w>"], ["пу", "ска"], ["еч", "а</w>"], ["ич", ",</w>"], ["ст", "ат"], ["под", "о"], ["он", ".</w>"], ["ем", "у"], ["ва", "с,</w>"], ["Пр", "еступл"], ["я", "х</w>"], ["вы", "раж"], ["при", "н"], ["щ", "е"], ["в", "не"], ["мно", "го"], ["стра", "ш"], ["г", "и,</w>"], ["бла", "год"], ["нес", "част"], ["е", "к</w>"], ["ол", "од"], ["О", "т"], ["м", "…</w>"], ["р", "ет"], ["сю", "да</w>"], ["край", "ней</w>"], ["ест", "ь,</w>"], ["вз", "дор"], ["ил", ".</w>"], ["З", "на"], ["на", "роч"], ["й", "те</w>"], ["ви", "ни"], ["наконец", "</w>"], ["«", "Преступл"], ["на", "казани"], ["ени", "я.</w>"], ["ран", "ц"], ["ни", "ка"], ["само", "й</w>"], ["ить", "ся,</w>"], ["в", "ну"], ["ют", "ся</w>"], ["сво", "й</w>"], ["ши", "е</w>"], ["ни", "ми</w>"], ["от", "ча"], ["д", "ать</w>"], ["ал", "и.</w>"], ["не", "е.</w>"], ["веч", "ер"], ["с", "хват"], ["двер", "ь</w>"], ["иш", "ь,</w>"], ["ру", "б"], ["ку", "да"], ["к", "роме</w>"], ["не", "до"], ["разум", "е"], ["ваш", "ей</w>"], ["б", "ума"], ["при", "ст"], ["П", "од"], ["од", "на</w>"], ["на", "род"], ["м", "нени"], ["т", "ов"], ["каз", "ыва"], ["раз", "говор"], ["уб", "ежд"], ["м", "отр"], ["на", "з"], ["л", "ед"], ["ел", ",</w>"], ["ени", "и,</w>"], ["В", "прочем,</w>"], ["зн", "ал,</w>"], ["Те", "пер"], ["б", "атюш"], ["ас", "ь.</w>"], ["минут", "у,</w>"], ["дц", "ат"], ["шл", "о</w>"], ["господ", "и"], ["ше", "п"], ["е-х", "е!</w>"], ["В", "ид"], ["дес", "ять</w>"], ["ст", "ала</w>"], ["сказ", "ала</w>"], ["Марф", "а</w>"], ["по", "кой"], ["крик", "нула</w>"], ["од", "ним</w>"], ["ны", "м,</w>"], ["под", "нял"], ["человек", "а</w>"], ["та", "ким</w>"], ["их", ",</w>"], ["Петербур", "г"], ["по", "ро"], ["шл", "я"], ["сво", "ем</w>"], ["ков", "</w>"], ["ен", "но,</w>"], ["о", "ю</w>"], ["о", "конч"], ["в", "ни"], ["в", "ход"], ["за", "п"], ["л", "</w>"], ["ж", "ест"], ["наконец", ",</w>"], ["на", "мер"], ["п", "аль"], ["юс", "ь</w>"], ["й", "…</w>"], ["ет", "?</w>"], ["Я", ",</w>"], ["Г", "ос"], ["е", "е.</w>"], ["воз", "ь"], ["м", "не,</w>"], ["Замет", "ов"], ["ны", "ч"], ["О", "б"], ["в", "ет"], ["и", "во"], ["у", "ет</w>"], ["сущ", "еств"], ["й", "ти</w>"], ["м", "аль"], ["ожи", "дан"], ["след", "ов"], ["но", "ш"], ["тя", "жел"], ["чи", "во"], ["дол", "го</w>"], ["ка", "х</w>"], ["д", "ра"], ["е", "ц"], ["ст", "ал"], ["Т", "а"], ["ил", "ся.</w>"], ["м", "ель"], ["вал", "а</w>"], ["П", "о</w>"], ["шл", "и</w>"], ["стор", "ож"], ["Зосим", "ов"], ["Рома", "ныч"], ["А", "нд"], ["Анд", "ре"], ["Вс", "е</w>"], ["которы", "х</w>"], ["18", "6"], ["ли", "во</w>"], ["ед", "и"], ["л", "еч"], ["са", "м"], ["трет", "ь"], ["дав", "еча</w>"], ["с", "колько</w>"], ["у", "с"], ["день", "ги</w>"], ["ру", "бл"], ["хотел", "ось</w>"], ["г", "ром"], ["Н", "у"], ["За", "чем</w>"], ["Гос", "под"], ["Настас", "ь"], ["р", "ес"], ["замет", "ил</w>"], ["я", "щ"], ["и", "ра"], ["пер", "вы"], ["ско", "го</w>"], ["д", ",</w>"], ["не", "на"], ["с", "ход"], ["п", "е"], ["ор", "от"], ["д", "ал</w>"], ["стоял", "а</w>"], ["ш", "его</w>"], ["зна", "ко"], ["юс", "ь,</w>"], ["сл", "уч"], ["уд", "ов"], ["мо", "й,</w>"], ["та", "кое</w>"], ["и", "м,</w>"], ["говор", "ит,</w>"], ["-то", "?</w>"], ["ал", "а.</w>"], ["крич", "ала</w>"], ["Ду", "н"], ["торо", "п"], ["О", "</w>"], ["во", "лю"], ["б", "од"], ["с", "их"], ["сих", "ол"], ["уд", "ен"], ["чи", "нов"], ["лис", "ь</w>"], ["удив", "л"], ["ст", "ь,</w>"], ["об", "стоятель"], ["не", "ожидан"], ["о", "ши"], ["ста", ",</w>"], ["Раскольников", "а.</w>"], ["ин", "у</w>"], ["голов", "у</w>"], ["в", "ов"], ["см", "ысл"], ["проб", "ор"], ["ещ", "ани"], ["слов", "ом,</w>"], ["оконч", "атель"], ["какой", "-то</w>"], ["ф", "ранц"], ["сдел", "а"], ["которо", "е</w>"], ["сво", "им</w>"], ["п", "сихол"], ["й", "ся</w>"], ["ств", "а</w>"], ["не", "обыкнов"], ["под", "об"], ["ру", ",</w>"], ["подоз", "р"], ["о", "е</w>"], ["ш", "е,</w>"], ["сто", "ит</w>"], ["Ч", "ер"], ["о", "м.</w>"], ["вид", "ет"], ["ни", "ть</w>"], ["Катери", "ны</w>"], ["д", "но</w>"], ["ка", "н"], ["само", "го</w>"], ["Ми", "кол"], ["пов", "тор"], ["б", "ег"], ["останов", "ился</w>"], ["х", "ож"], ["по", "спеш"], ["М", "ож"], ["бы", "ст"], ["тол", "п"], ["х", "ло"], ["не", "с</w>"], ["доволь", "но</w>"], ["ка", "!</w>"], ["при", "шел</w>"], ["ма", "ма"], ["гов", "ари"], ["о", "!</w>"], ["пл", "ат"], ["ени", "й</w>"], ["вс", "ей</w>"], ["I", "I"], ["у", "ни"], ["и", "е</w>"], ["ос", "нов"], ["ей", ".</w>"], ["дву", "х</w>"], ["кон", "ц"], ["св", "ет"], ["вы", "з"], ["со", "ци"], ["ени", "е.</w>"], ["на", "б"], ["при", "чи"], ["при", "зна"], ["а", "дов"], ["спо", "кой"], ["которо", "й</w>"], ["ка", "ми</w>"], ["ен", "а</w>"], ["в", "нима"], ["эт", "им</w>"], ["к", "е.</w>"], ["слу", "ша"], ["вст", "реч"], ["л", "а</w>"], ["ф", "а"], ["по", "тер"], ["д", "у</w>"], ["ят", "ь,</w>"], ["ит", ".</w>"], ["прот", "я"], ["го", "-то</w>"], ["из", "вол"], ["у", "сил"], ["буд", "у</w>"], ["на", "де"], ["О", "ни</w>"], ["о", "то"], ["о", "сторож"], ["к", "ни"], ["у", "ющ"], ["на", "чи"], ["жел", "а"], ["жизн", "ь</w>"], ["ма", "н"], ["х", "уд"], ["с", "вер"], ["вы", "шел</w>"], ["па", "н"], ["н", "ал"], ["ств", "ов"], ["ю", "б"], ["…", "»</w>"], ["вс", "ем"], ["од", "ну</w>"], ["сви", "дани"], ["по", "ж"], ["ка", "кая"], ["Тепер", "ь</w>"], ["доро", "г"], ["к", "нул</w>"], ["говор", "ила</w>"], ["мо", "е</w>"], ["подл", "е</w>"], ["в", "низ"], ["обра", "ща"], ["д", "ос"], ["всё", ",</w>"], ["еш", "ь?</w>"], ["ь", "те</w>"], ["л", "ет"], ["про", "с</w>"], ["год", "а</w>"], ["ва", ",</w>"], ["дру", "ги"], ["та", "ко"], ["с", "кий</w>"], ["мысл", "ь</w>"], ["со", "стоя"], ["ст", "уден"], ["печ", "ат"], ["при", "ход"], ["ства", ",</w>"], ["ум", "ер"], ["образ", "ом</w>"], ["сво", "их</w>"], ["в", "е</w>"], ["Нико", "ла"], ["л", "ов"], ["а", "х,</w>"], ["Ко", "гда</w>"], ["кой", ".</w>"], ["вни", "мат"], ["ал", "ся.</w>"], ["з", "ал"], ["о", "…</w>"], ["З", "а</w>"], ["сер", "д"], ["й", "те"], ["сей", "час"], ["ка", "ть,</w>"], ["ю", "!</w>"], ["одна", "ко</w>"], ["л", "енно</w>"], ["и", ";</w>"], ["Пет", "ра</w>"], ["М", "не</w>"], ["ва", "ми</w>"], ["друг", "их</w>"], ["ча", "ни"], ["вел", "и"], ["кр", "ест"], ["з", "и"], ["ру", "с"], ["ли", "ш"], ["стра", "дани"], ["не", "го.</w>"], ["ис", "пол"], ["кото", "рая</w>"], ["су", "т"], ["об", "и"], ["в", "ла"], ["уби", "й"], ["об", "ход"], ["уб", "еж"], ["ст", "и"], ["ци", "он"], ["бла", "го"], ["зна", "ком"], ["ц", "ер"], ["ен", "о</w>"], ["пом", "еш"], ["вс", "лед"], ["и", "ц"], ["внимат", "ель"], ["ми", "ч"], ["ку", "п"], ["самы", "й</w>"], ["ва", "ть"], ["хоч", "у</w>"], ["пр", "ек"], ["ино", "гда</w>"], ["двор", "ни"], ["вес", "ел"], ["по", "да"], ["перво", "го</w>"], ["пр", "ил"], ["ру", "ч"], ["зна", "ете,</w>"], ["тр", "а</w>"], ["Амал", "ия</w>"], ["Т", "олько</w>"], ["шеп", "т"], ["испу", "г"], ["то", "бо"], ["разуме", "ется,</w>"], ["не", ".</w>"], ["нас", "чет</w>"], ["Александров", "на,</w>"], ["яв", "ля"], ["ест", "и</w>"], ["ст", "и,</w>"], ["под", "н"], ["Да", "же</w>"], ["гос", "удар"], ["Мармел", "адов"], ["дел", "е</w>"], ["себ", "е,</w>"], ["пол", "ез"], ["чи", "ст"], ["ц", "е"], ["ск", "ры"], ["де", "воч"], ["та", "кая</w>"], ["б", "ель"], ["с", "ор"], ["до", "м"], ["Е", "му</w>"], ["ы", "м,</w>"], ["т", "ем,</w>"], ["га", "д"], ["л", "ь</w>"], ["ить", "!</w>"], ["к", "ло"], ["у", "…</w>"], ["ко", "ли</w>"], ["ос", "ь.</w>"], ["гля", "дел</w>"], ["я", ";</w>"], ["Б", "ы"], ["я", "?</w>"], ["ет", "ес"], ["ю", "?</w>"], ["ать", "?</w>"], ["Катери", "не</w>"], ["ви", "дел</w>"], ["по", "смотр"], ["сум", "ас"], ["В", "друг</w>"], ["дел", "о,</w>"], ["прист", "ально</w>"], ["на", "х"], ["ов", "ани"], ["не", "в"], ["в", "торо"], ["тре", "вож"], ["Ду", "ня,</w>"], ["горя", "ч"], ["л", "ял"], ["г", "ро"], ["з", "в"], ["вал", ",</w>"], ["ту", ".</w>"], ["а", ";</w>"], ["пр", "ит"], ["сл", "ы"], ["ни", "м,</w>"], ["Е", "ще</w>"], ["по", "ми"], ["врем", "я,</w>"], ["послед", "нее</w>"], ["за", "ме"], ["м", "ов"], ["я", ":</w>"], ["чет", "вер"], ["хорош", "о</w>"], ["то", "гда,</w>"], ["ал", "ся,</w>"], ["нет", "?</w>"], ["не", "ужели</w>"], ["у", "?</w>"], ["ю", "-то</w>"], ["об", "е"], ["о", ";</w>"], ["себ", "я.</w>"], ["чувств", "у"], ["зна", "чит"], ["о", "к</w>"], ["ет", "…</w>"], ["беспо", "ко"], ["О", ",</w>"], ["быст", "ро</w>"], ["но", ":</w>"], ["счит", "а"], ["яс", "ь.</w>"], ["ответ", "ил</w>"], ["ичес", "кой</w>"], ["во", "прос</w>"], ["но", "-"], ["ла", ".</w>"], ["ла", "г"], ["ять", "ся</w>"], ["правед", "ливо"], ["и", "-"], ["з", "дор"], ["в", "пол"], ["люде", "й</w>"], ["из", "-"], ["врем", "ени</w>"], ["я", "ми</w>"], ["ер", "ж"], ["ма", ",</w>"], ["прав", "о</w>"], ["от", "кры"], ["ста", "р"], ["та", "кого</w>"], ["ед", "инств"], ["вот", ",</w>"], ["ре", "б"], ["ка", "пит"], ["г", "ря"], ["вш", "ись</w>"], ["К", "</w>"], ["е", "г</w>"], ["чрезвычай", "но</w>"], ["ен", "ь,</w>"], ["мо", "я</w>"], ["си", "дел</w>"], ["воль", "те</w>"], ["нароч", "но</w>"], ["ав", "ш"], ["со", "общ"], ["х", "!</w>"], ["мо", "ей</w>"], ["Г", "ов"], ["Гов", "ор"], ["ать", "!</w>"], ["дв", "е</w>"], ["Ду", "ня</w>"], ["говор", "ить</w>"], ["ва", "ть,</w>"], ["я", "»</w>"], ["прот", "иво"], ["т", ".</w>"], ["уж", "д"], ["сто", "й"], ["ос", "кор"], ["есту", "п"], ["ну", ".</w>"], ["б", "рат"], ["на", "ру"], ["по", "став"], ["нач", "ал"], ["дев", "уш"], ["отв", "ращ"], ["ней", "ш"], ["с", "б"], ["ен", ".</w>"], ["не", "й,</w>"], ["г", "ра"], ["ич", "</w>"], ["ост", "ро"], ["с", "нов"], ["общ", "е</w>"], ["пл", "о"], ["ен", "ном</w>"], ["ива", "я</w>"], ["об", "яза"], ["как", "-нибудь</w>"], ["пр", "ез"], ["ка", "я,</w>"], ["дел", "а</w>"], ["дро", "г"], ["нем", "ного</w>"], ["за", "клад"], ["хло", "по"], ["бы", "вал"], ["ру", "ку</w>"], ["еш", "ь"], ["вз", "ял"], ["х", "ит"], ["у", "гол"], ["та", "щ"], ["пожал", "уй"], ["с", "е</w>"], ["тес", "ь,</w>"], ["пере", "б"], ["мер", "е,</w>"], ["Александров", "на.</w>"], ["чи", "сл"], ["те", "х</w>"], ["каж", "до"], ["на", "ход"], ["е", "вид"], ["с", "кие</w>"], ["ство", "м</w>"], ["м", "рач"], ["ки", "ми</w>"], ["при", "вы"], ["каж", "д"], ["га", "я</w>"], ["в", "перед"], ["к", "ну"], ["ы", "в"], ["тре", "б"], ["ла", "в"], ["р", "от"], ["молод", "ой</w>"], ["р", "ы</w>"], ["п", "ар"], ["оп", "ас"], ["ру", "г"], ["ност", "ь,</w>"], ["стви", "е</w>"], ["которы", "м</w>"], ["П", "ер"], ["ка", "ми,</w>"], ["до", "м,</w>"], ["а", "ми,</w>"], ["пу", "н"], ["т", "и,</w>"], ["Свидригайл", "ов,</w>"], ["об", "е</w>"], ["с", "ел</w>"], ["ход", "ить</w>"], ["на", "против"], ["Раз", "ве</w>"], ["нул", "о</w>"], ["не", "сл"], ["к", "!</w>"], ["ер", "п"], ["пом", "ин"], ["мил", "ост"], ["и", "бо</w>"], ["Ну", "-с,</w>"], ["о", "ят"], ["ст", "али</w>"], ["наза", "д,</w>"], ["вид", "имо"], ["ъ", "яс"], ["гру", "д"], ["обрат", "ился</w>"], ["сл", "ез"], ["каки", "м-то</w>"], ["был", "о.</w>"], ["надо", ",</w>"], ["га", "н"], ["сме", "х"], ["ал", "?</w>"], ["м", "не"], ["во", "-"], ["П", "оч"], ["мат", "ри"], ["и", ":</w>"], ["спрос", "ила</w>"], ["пробор", "мотал</w>"], ["э", "так</w>"], ["Сон", "я.</w>"], ["г", "у</w>"], ["с", "оч"], ["ва", "ться</w>"], ["соб", "ой</w>"], ["ро", "ст"], ["д", "ви"], ["и", "й</w>"], ["у", "м</w>"], ["пон", "ят"], ["ен", "ную</w>"], ["благод", "ар"], ["ны", "х,</w>"], ["м", "ать</w>"], ["дал", "е"], ["под", "ле"], ["ше", "в"], ["част", "и</w>"], ["ни", "и</w>"], ["я", "х,</w>"], ["гря", "з"], ["сказа", "ть</w>"], ["раз", ",</w>"], ["сты", "д"], ["бы", "ть"], ["яс", "но</w>"], ["ст", "о</w>"], ["про", "ш"], ["ить", "?</w>"], ["ко", "гда"], ["пото", "му,</w>"], ["па", "м"], ["у", "т,</w>"], ["был", ",</w>"], ["хо", "хот"], ["з", "ем"], ["й", "?</w>"], ["З", "ат"], ["ет", "ся.</w>"], ["Петров", "и"], ["буд", "ет,</w>"], ["см", "от"], ["бо", "г</w>"], ["от", "ы"], ["во", "шел</w>"], ["Р", "ед"], ["Андре", "й</w>"], ["ма", "мень"], ["ит", "ер"], ["«", "Б"], ["сл", "ож"], ["но", "го"], ["оч", "евид"], ["ал", "ь</w>"], ["пол", "е"], ["настоя", "щ"], ["буд", "ущ"], ["да", "ет</w>"], ["жиз", "ни</w>"], ["см", "ат"], ["ни", "я</w>"], ["ну", "ж"], ["ж", "ени"], ["ен", "ы</w>"], ["ню", "ю</w>"], ["усп", "ел</w>"], ["ли", "вы"], ["род", "е</w>"], ["на", "ту"], ["ла", "д"], ["оши", "б"], ["от", "нош"], ["ф", "ан"], ["чет", "ы"], ["иш", "ь</w>"], ["0", "-"], ["то", "гда"], ["и", "р"], ["ш", "ест"], ["с", "видет"], ["об", "ед"], ["казал", "ось,</w>"], ["он", "о</w>"], ["ст", "еп"], ["само", "е</w>"], ["пун", "к"], ["вол", "ос"], ["В", "ы"], ["м", "ало</w>"], ["вст", "рет"], ["Н", "и"], ["зл", "об"], ["ал", "!</w>"], ["и", "нач"], ["го", "ст"], ["д", "ня</w>"], ["й", "те,</w>"], ["ал", "…</w>"], ["Ч", "то"], ["мину", "т</w>"], ["вер", "оят"], ["дес", "кать,</w>"], ["ч", "е</w>"], ["брос", "ился</w>"], ["л", "ю</w>"], ["сказ", "ал,</w>"], ["ка", "кая</w>"], ["спо", "ко"], ["ед", "ва</w>"], ["х", "л"], ["со", "образ"], ["вс", "крикнула</w>"], ["ну", "мер"], ["ал", "ист"], ["в", "е"], ["ре", "волю"], ["хоч", "ет</w>"], ["ни", "щ"], ["прот", "ест"], ["смат", "ри"], ["это", "му</w>"], ["по", "ступ"], ["по", "ряд"], ["ни", ".</w>"], ["и", "щ"], ["начи", "на"], ["х", "олод"], ["тор", "а</w>"], ["кру", "ж"], ["т", "рак"], ["ка", "кие</w>"], ["ри", "ц"], ["С", "ов"], ["кажд", "ый</w>"], ["при", "нима"], ["чи", "к</w>"], ["вне", "зап"], ["Пол", "еч"], ["«", "А</w>"], ["не", "ю</w>"], ["это", "?</w>"], ["не", "прият"], ["ма", "я</w>"], ["стран", "но</w>"], ["знако", "мы"], ["ви", "ц"], ["Ст", "ало</w>"], ["в", ",</w>"], ["шел", ".</w>"], ["вы", "раз"], ["сердц", "е</w>"], ["Н", "о,</w>"], ["-с", "?</w>"], ["обраща", "ясь</w>"], ["Н", "ич"], ["нет", "!</w>"], ["отча", "яни"], ["поч", "т"], ["час", "а</w>"], ["Т", "о"], ["ви", "з"], ["зав", "тра</w>"], ["ка", "т"], ["ш", "ь,</w>"], ["толь", "ко,</w>"], ["об", "ид"], ["рас", "счит"], ["р", "ю"], ["вов", "се</w>"], ["Ч", "его</w>"], ["вчер", "а,</w>"], ["у", "п"], ["поскоре", "й</w>"], ["сумас", "шед"], ["Александров", "на</w>"], ["про", "шепт"], ["«Преступл", "ения</w>"], ["па", "д"], ["ен", "ни"], ["в", "ста"], ["ня", "я</w>"], ["долж", "ен</w>"], ["те", "ор"], ["ста", "ра"], ["сво", "ими</w>"], ["про", "шл"], ["ющи", "й</w>"], ["не", "обход"], ["Раскольников", "у</w>"], ["но", "м,</w>"], ["в", "перед</w>"], ["во", "стор"], ["ты", ".</w>"], ["ей", "ств"], ["за", "кон"], ["при", "готов"], ["по", "ль"], ["по", "чувствов"], ["с", "ел"], ["чу", "вст"], ["ыва", "я</w>"], ["у", "ю,</w>"], ["е", "ю</w>"], ["уж", ",</w>"], ["но", "?</w>"], ["вол", "нени"], ["С", "та"], ["молч", "а</w>"], ["наза", "д</w>"], ["батюш", "ка,</w>"], ["пра", "во"], ["У", "ж</w>"], ["обра", "щ"], ["ил", "?</w>"], ["а", ":</w>"], ["раз", "а</w>"], ["ко", "ф"], ["у", "стро"], ["сту", "пл"], ["руб", "ле"], ["М", "ы</w>"], ["кон", "тор"], ["ся", ":</w>"], ["недо", "ум"], ["нет", "ерп"], ["сейчас", ",</w>"], ["пра", "во,</w>"], ["ст", "ер"], ["мо", "ему,</w>"], ["м", "ит"], ["к", "х"], ["г", "а</w>"], ["ст", "ать"], ["самы", "х</w>"], ["ши", "ро"], ["сво", "бод"], ["ност", "и.</w>"], ["л", "ение</w>"], ["дес", "ят"], ["ог", "ичес"], ["уби", "йств"], ["ог", "ром"], ["г", "ичес"], ["спо", "соб"], ["могл", "и</w>"], ["ва", "ет</w>"], ["щи", "й</w>"], ["т", "у,</w>"], ["вну", "тр"], ["раз", "до</w>"], ["дет", "ь</w>"], ["я", "р"], ["ны", ".</w>"], ["у", "в"], ["вст", "ре"], ["ход", "я</w>"], ["мо", ",</w>"], ["ни", "кто</w>"], ["ка", "х,</w>"], ["ло", "ша"], ["ф", "у"], ["нул", ",</w>"], ["п", "ь"], ["комна", "те,</w>"], ["нич", "его,</w>"], ["С", "л"], ["ил", "ась,</w>"], ["и", "вый</w>"], ["На", "конец"], ["т", "!</w>"], ["ин", ".</w>"], ["об", "а</w>"], ["до", "ст"], ["тер", "п"], ["значит", ",</w>"], [".", ")</w>"], ["господи", "на</w>"], ["пер", "ес"], ["ат", "ер"], ["под", "роб"], ["ды", "х"], ["мгнов", "ение</w>"], ["Настас", "ья</w>"], ["н", "ю</w>"], ["ду", ".</w>"], ["ал", "и?</w>"], ["долж", "но</w>"], ["К", "то</w>"], ["Ред", ".]</w>"], ["говор", "ю,</w>"], ["Романов", "на</w>"], ["Романыч", ",</w>"], ["л", "итер"], ["человеч", "ес"], ["общ", "ест"], ["во", "й"], ["ит", "и"], ["ш", "ки"], ["о", "фи"], ["х", "а</w>"], ["ли", ".</w>"], ["друго", "го</w>"], ["р", "ел"], ["пох", "ож"], ["йд", "я</w>"], ["га", "з"], ["за", "ко"], ["и", "ю,</w>"], ["мест", "о</w>"], ["за", "б"], ["случа", "й"], ["поз", "вол"], ["бр", "я"], ["при", "в"], ["объ", "яв"], ["з", "ов"], ["з", "ло"], ["говор", "ит"], ["всем", "и</w>"], ["вел", "ич"], ["которо", "м</w>"], ["от", "ц"], ["ь", "и</w>"], ["самы", "м</w>"], ["ел", "ь</w>"], ["ер", "т"], ["мо", "ст"], ["ку", "х"], ["пер", "ест"], ["ка", "кое</w>"], ["раз", "ом</w>"], ["мель", "к"], ["заме", "ча"], ["та", "ких</w>"], ["-нибуд", "ь,</w>"], ["ко", "ло"], ["помнил", "</w>"], ["гля", "ды"], ["дов", "ер"], ["про", "шел</w>"], ["ко", "с"], ["два", "дцать</w>"], ["при", "сут"], ["тих", "о</w>"], ["он", "ь"], ["какая", "-то</w>"], ["про", "сто"], ["м", "!</w>"], ["но", "га"], ["По", "том</w>"], ["Соф", "ья</w>"], ["ил", "ись,</w>"], ["ва", "ше</w>"], ["вс", "ему</w>"], ["ис", "ступл"], ["ба", "б"], ["ыва", "ть</w>"], ["первы", "х,</w>"], ["Петров", "на</w>"], ["теб", "е,</w>"], ["вы", "год"], ["но", ";</w>"], ["сем", "ь</w>"], ["у", ":</w>"], ["о", ":</w>"], ["сту", "л"], ["(", "франц"], ["ф", "уз"], ["Замет", "ов</w>"], ["итес", "ь,</w>"], ["Д", "мит"], ["Дмит", "ри"], ["I", "</w>"], ["ил", "ос"], ["На", "поле"], ["челове", "ка,</w>"], ["ч", "ь</w>"], ["соци", "аль"], ["во", "м</w>"], ["ис", "кр"], ["ы", "е,</w>"], ["вся", "кого</w>"], ["Иванов", "ны</w>"], ["матер", "и</w>"], ["в", "печат"], ["люд", "и</w>"], ["ва", "ясь</w>"], ["о", "прав"], ["пл", "от"], ["ко", "ст"], ["пл", "еч"], ["го", "раздо</w>"], ["воз", "в"], ["им", "о</w>"], ["св", "яз"], ["вы", "р"], ["фан", "та"], ["на", "ми</w>"], ["ш", "ей</w>"], ["револю", "цион"], ["ов", "ан"], ["во", "обще</w>"], ["вс", "лу"], ["м", ";</w>"], ["у", "ро"], ["вел", "ико"], ["о", "к,</w>"], ["гов", "</w>"], ["г", "ну"], ["ру", ".</w>"], ["при", "мет"], ["де", "ш"], ["на", "ст"], ["кру", "гом</w>"], ["ю", ";</w>"], ["да", "…</w>"], ["ско", "ро</w>"], ["мо", "м</w>"], ["през", "р"], ["извест", "но</w>"], ["ров", "но</w>"], ["подо", "шел</w>"], [".", "."], ["е", "ц</w>"], ["вз", "дрог"], ["пом", "ол"], ["дер", "ев"], ["лю", ",</w>"], ["ко", "пе"], ["цел", "ый</w>"], ["пр", "ы"], ["бес", "прер"], ["беспрер", "ыв"], ["рука", "ми</w>"], ["пор", ",</w>"], ["хват", "ил</w>"], ["По", "з"], ["Т", "о</w>"], ["за", "ра"], ["з", "ол"], ["ли", "ст"], ["до", "к"], ["пам", "ят"], ["т", "ал"], ["мол", "чани"], ["ш", "ар"], ["не", "дел"], ["-с", ";</w>"], ["г", "ре"], ["не", "под"], ["пла", "к"], ["брос", "илась</w>"], ["ру", "ки,</w>"], ["вз", "ять</w>"], ["пожалуй", "ста,</w>"], ["ви", "нов"], ["ы", "й,</w>"], ["говор", "ил,</w>"], ["ж", "ить</w>"], ["Романов", "на,</w>"], ["чер", "т</w>"], ["у", "споко"], ["та", "ком</w>"], ["о", "кол"], ["сам", "ую</w>"], ["с", "цен"], ["взгля", "д</w>"], ["в", "за"], ["щ", "ит"], ["пред", "ел"], ["о", "с</w>"], ["оста", "вал"], ["р", "е,</w>"], ["мы", "сли</w>"], ["психол", "огичес"], ["д", "виж"], ["са", "ми"], ["здор", "ов"], ["впол", "не</w>"], ["Из", "</w>"], ["в", "ли"], ["из-", "за</w>"], ["ч", "уж"], ["нав", "ли"], ["ы", "ми</w>"], ["внутр", "ен"], ["со", "х"], ["по", "лиц"], ["про", "ис"], ["С", "а"], ["нена", "ви"], ["с", "ких</w>"], ["в", "то"], ["ре", ".</w>"], ["ско", "м</w>"], ["е", "в</w>"], ["пер", "ен"], ["кварти", "ру</w>"], ["л", "ени"], ["степ", "ени</w>"], ["ка", "са"], ["ял", "ся,</w>"], ["ож", "ал"], ["бор", "мотал</w>"], ["без", "образ"], ["смотр", "еть</w>"], ["..", "»</w>"], ["н", "ю,</w>"], ["комна", "те</w>"], ["то", "ю</w>"], ["на", "дцать</w>"], ["все", "го,</w>"], ["вш", "ись,</w>"], ["л", "о</w>"], ["гром", "ко</w>"], ["х", "ле"], ["пред", "лож"], ["су", "да"], ["больш", "ой</w>"], ["вст", "ал</w>"], ["О", "н,</w>"], ["рубл", "ей</w>"], ["ть", "ся,</w>"], ["ать", "…</w>"], ["кто", "-то</w>"], ["Господ", "и!</w>"], ["на", ";</w>"], ["ил", "ось,</w>"], ["вы", "держ"], ["объяс", "ни"], ["мед", "ленно</w>"], ["за", "был"], ["господ", "и!</w>"], ["на", "смеш"], ["видел", ",</w>"], ["Од", "ним</w>"], ["гла", "ш"], ["ет", "е.</w>"], ["прав", "да,</w>"], ["ва", "с"], ["напротив", ",</w>"], ["тре", "бу"], ["ша", "га"], ["зна", "ет,</w>"], ["где", "-нибудь</w>"], ["нул", "ась</w>"], ["глу", "п"], ["за", "пер"], ["ос", "матри"], ["И", "ль"], ["К", "ол"], ["ваш", "его</w>"], ["Романов", "ич,</w>"], ["-", "ха"], ["Достоевс", "кого</w>"], ["е", "»</w>"], ["литер", "ат"], ["и", "мы"], ["ж", "у"], ["пол", "ов"], ["е", "ся</w>"], ["чинов", "ни"], ["п", "ен"], ["ков", ",</w>"], ["люде", "й,</w>"], ["рома", "на</w>"], ["год", "</w>"], ["до", "каза"], ["ож", "ид"], ["ши", "ми</w>"], ["муч", "итель"], ["кров", "ь</w>"], ["сов", "ет"], ["пол", "у"], ["оскор", "бл"], ["ко", "е,</w>"], ["при", "з"], ["подле", "ц"], ["ча", ".</w>"], ["трак", "ти"], ["о", "й.</w>"], ["сказ", "ал"], ["с", "ед"], ["сл", "ав"], ["то", "му,</w>"], ["за", "н"], ["ду", "р"], ["а", "я,</w>"], ["част", "о</w>"], ["гляд", "ыва"], ["то", "н"], ["гля", "деть</w>"], ["ж", "иль"], ["ить", "ся.</w>"], ["каки", "х</w>"], ["фу", "раж"], ["нач", "ин"], ["треть", "его</w>"], ["г", "и.</w>"], ["пи", "р"], ["за", "молч"], ["Про", "ща"], ["о", "?</w>"], ["вы", "п"], ["ка", "ку"], ["удов", "оль"], ["маль", "чи"], ["на", "дцат"], ["е", "б"], ["ел", "ь,</w>"], ["внима", "ни"], ["на", "доб"], ["пуст", "ь</w>"], ["Ф", "о"], ["ч", "ему</w>"], ["ю", ":</w>"], ["скаж", "у,</w>"], ["е-х", "е-хе!</w>"], ["произ", "нес</w>"], ["й", "-то</w>"], ["луч", "ше,</w>"], ["х", "ва"], ["ват", "ь.</w>"], ["б", "еш"], ["реб", "ен"], ["ит", "ся,</w>"], ["ть", "-"], ["под", "уш"], ["л", "ь,</w>"], ["по", "ка</w>"], ["ско", "ро"], ["кон", "то"], ["ос", "мотр"], ["оч", "ень,</w>"], ["п", "иш"], ["мама", "ш"], ["м", "ной</w>"], ["раз", "ъяс"], ["ваш", "</w>"], ["Ст", "ран"], ["по", "беж"], ["окол", "о</w>"], ["ду", "ра"], ["при", "д"], ["час", "ов</w>"], ["вс", "кричала</w>"], ["О", "пять</w>"], ["пото", "м,</w>"], ["ту", "т,</w>"], ["ка", "?</w>"], ["мов", "од"], ["Зосим", "ов</w>"], ["Про", "коф"], ["Прокоф", "ь"], ["в", "ек"], ["по", "каз"], ["о", "предел"], ["до", "сто"], ["пов", "ед"], ["эта", "ж"], ["бли", "з"], ["говор", "ит</w>"], ["ли", "чи"], ["вал", "и</w>"], ["вы", "с"], ["сю", "да,</w>"], ["рас", "с"], ["я", "м</w>"], ["сред", "и</w>"], ["казал", "ось</w>"], ["нул", "ся,</w>"], ["ющи", "м</w>"], ["ов", "ал</w>"], ["до", "й</w>"], ["не", "возмож"], ["ство", ",</w>"], ["ил", "и"], ["в", "ел</w>"], ["ко", "го,</w>"], ["за", "ключ"], ["от", "прав"], ["про", "цен"], ["я", "ми,</w>"], ["за", "бот"], ["по", "шл"], ["само", "му</w>"], ["п", "ес"], ["н", "ц"], ["ко", "ч"], ["ви", "н"], ["прек", "рас"], ["шля", "п"], ["де", "виц"], ["д", "во"], ["стару", "ш"], ["про", "говорила</w>"], ["глаз", "</w>"], ["с", "ит"], ["т", "ро"], ["ени", "и.</w>"], ["у", "велич"], ["чем", "-то</w>"], ["по", "раж"], ["удоволь", "стви"], ["м", "?</w>"], ["у", "важ"], ["Раскольников", "у,</w>"], [")", ".]</w>"], ["мо", "и</w>"], ["по", "ря"], ["ц", "елов"], ["у", "зн"], ["ем", "!</w>"], ["о", "пуст"], ["до", "м.</w>"], ["стра", "х"], ["усил", "и"], ["за", "кричал</w>"], ["чу", "ть-"], ["Настась", "я,</w>"], ["од", "ет"], ["навер", "но,</w>"], ["слыш", "ал</w>"], ["на", "пис"], ["Дунеч", "ка,</w>"], ["Ко", "неч"], ["Конеч", "но,</w>"], ["Дунеч", "ка</w>"], ["м", "я"], ["х", "-то</w>"], ["ат", "</w>"], ["и", "ной</w>"], ["у", "ва"], ["подум", "а"], ["пер", "еш"], ["чи", "во</w>"], ["про", "щ"], ["окончатель", "но</w>"], ["случа", "е</w>"], ["Дмитри", "й</w>"], ["o", "u"], ["e", "n"], ["бур", "жу"], ["други", "е</w>"], ["ь", "бы</w>"], ["вид", "у"], ["ал", "из"], ["ки", "й,</w>"], ["вся", "ком</w>"], ["геро", "я</w>"], ["не", "год"], ["ща", "я</w>"], ["мы", "шл"], ["послед", "стви"], ["ц", "ы</w>"], ["рас", "сматри"], ["знач", "итель"], ["ну", "жд"], ["са", "м,</w>"], ["ел", "о</w>"], ["оста", "навли"], ["с", "од"], ["серьез", "но</w>"], ["ов", ".</w>"], ["пл", "е"], ["ог", "ра"], ["с", "праведливо"], ["0-", "х</w>"], ["со", "мнени"], ["име", "ет</w>"], ["Н", "ес"], ["какой", "-нибудь</w>"], ["вмест", "о</w>"], ["ря", "дом</w>"], ["м", "атери"], ["с", "ку"], ["пов", "орот"], ["ми", "мо</w>"], ["г", "ива"], ["ки", "е,</w>"], ["ив", "ал</w>"], ["ща", "д"], ["Луж", "ин</w>"], ["Луж", "ин,</w>"], ["ны", "м.</w>"], ["ти", ".</w>"], ["меся", "ц</w>"], ["по", "минут"], ["гру", "ст"], ["за", "меч"], ["ло", "х"], ["ст", "олько</w>"], ["ша", "гов</w>"], ["кварти", "ре</w>"], ["коло", "коль"], ["гля", "дел"], ["на", "я.</w>"], ["бил", "ет"], ["слу", "ши"], ["Сл", "ыш"], ["ста", "ка"], ["вслед", "</w>"], ["м", "ещани"], ["ч", "ес"], ["о", "е,</w>"], ["воз", "дух"], ["в", "ший</w>"], ["Д", "ейств"], ["О", "ч"], ["по", "треб"], ["ден", "ег</w>"], ["зна", "ет</w>"], ["с", "коль"], ["ден", "ь,</w>"], ["Со", "неч"], ["ожи", "дани"], ["ды", "ха"], ["ит", "е!</w>"], ["сдел", "ать</w>"], ["креп", "ко</w>"], ["сторон", "ы</w>"], ["по", "ним"], ["ка", "ком"], ["беш", "ен"], ["к", "ля"], ["посл", "ыш"], ["при", "нял"], ["О", "т</w>"], ["Д", "ав"], ["об", "о</w>"], ["Г", "ол"], ["от", "кров"], ["по", "нял"], ["ит", "!</w>"], ["то", "же,</w>"], ["ру", "ку,</w>"], ["А", "х</w>"], ["Зат", "ем</w>"], ["ить", "…</w>"], ["из", "ум"], ["пу", "г"], ["в", "ше"], ["бума", "ж"], ["та", "м,</w>"], ["каки", "е-то</w>"], ["здес", "ь,</w>"], ["да", "!</w>"], ["об", "м"], ["мовод", "ител"], ["вс", "пы"], ["долж", "ны</w>"], ["Зосим", "ов,</w>"], ["нем", "ед"], ["Дун", "я.</w>"], ["ры", ",</w>"], ["буржу", "аз"], [",", "["], ["об", "ер"], ["спо", "собств"], ["за", "щит"], ["ля", "ет</w>"], ["на", "прав"], ["пр", "еступ"], ["по", "стоя"], ["б", "е"], ["ли", "н"], ["сво", "ему</w>"], ["Э", "тот</w>"], ["ять", "ся,</w>"], ["наб", "люд"], ["По", "сл"], ["ства", ".</w>"], ["ла", "га"], ["ющ", "их</w>"], ["та", "й"], ["ж", "еств"], ["на", "стро"], ["од", "ном</w>"], ["снов", "а</w>"], ["пи", "са"], ["яв", "ш"], ["«", "В"], ["ив", "ши"], ["за", "да"], ["г", "ен"], ["ре", "ши"], ["ро", "й</w>"], ["ска", "я</w>"], ["ко", "го"], ["оч", "ер"], ["енны", "й,</w>"], ["прежд", "е,</w>"], ["угл", "у</w>"], ["ко", "ш"], ["с", "пуска"], ["к", "ро"], ["одна", "ко,</w>"], ["о", "ни,</w>"], ["по", "ру"], ["наст", "еж"], ["у", "ли"], ["да", "же,</w>"], ["лох", "мот"], ["инач", "е</w>"], ["ты", "й</w>"], ["об", "од"], ["раз", "дум"], ["стоял", "и</w>"], ["вал", ".</w>"], ["ил", "ась.</w>"], ["вал", "ь"], ["угл", "у,</w>"], ["ени", ",</w>"], ["по", "п"], ["ы", "вал</w>"], ["не", "чего</w>"], ["о", "ш"], ["от", "части</w>"], ["жел", "ани"], ["г", "он"], ["По", "нима"], ["ч", "а</w>"], ["леж", "ал</w>"], ["зара", "нее</w>"], ["ч", "ем,</w>"], ["голов", "у.</w>"], ["ш", "е.</w>"], ["ест", "еств"], ["при", "ш"], ["х", "…</w>"], ["подн", "ял</w>"], ["за", "сме"], ["Не", "ужели</w>"], ["ж", "е"], ["ли", "хо"], ["двер", "ь,</w>"], ["ил", "и.</w>"], ["день", "ги"], ["при", "шл"], ["вид", "</w>"], ["им", "ел</w>"], ["у", "знал</w>"], ["с", "ь</w>"], ["ал", ";</w>"], ["объяс", "нени"], ["поднял", "ся</w>"], ["при", "ез"], ["род", "ств"], ["л", "ет,</w>"], ["случа", "е,</w>"], ["дум", "ал,</w>"], ["ня", "!</w>"], ["говор", "ят,</w>"], ["в", "ую</w>"], ["поч", "ему"], ["Разумихи", "на</w>"], ["трет", "ий</w>"], ["вниматель", "но</w>"], ["переб", "ил</w>"], ["рассказ", "ыва"], ["смотр", "ела</w>"], ["ше", "вел"], ["ть", "…</w>"], ["непод", "виж"], ["Фо", "мич"], ["(франц", ".)</w>"], ["из", "вини"], ["пох", "ор"], ["мамень", "ка,</w>"], ["Порфири", "й,</w>"], ["жиз", "ни,</w>"], ["нич", "ес"], ["ф", "из"], ["друг", "а</w>"], ["ичес", "кого</w>"], ["от", "вер"], ["взгля", "д"], ["нищ", "ет"], ["ка", "м</w>"], ["люб", "ов"], ["С", "ер"], ["&", "#"], ["част", "ь</w>"], ["на", "н"], ["до", "ма</w>"], ["ну", "ю,</w>"], ["горяч", "о</w>"], ["ку", "р"], ["газ", "ет"], ["до", "ста"], ["ов", "ать</w>"], ["друг", "им</w>"], ["я", "м,</w>"], ["ство", ".</w>"], ["до", "мой</w>"], ["ни", "как</w>"], ["д", "ель"], ["енны", "ми</w>"], ["случа", "й</w>"], ["про", "ход"], ["Иванов", "ны,</w>"], ["сов", "ест"], ["на", "пря"], ["подоз", "ре"], ["но", "е.</w>"], ["се", "кр"], ["ку", "с"], ["прит", "вор"], ["помо", "щ"], ["к", "ал"], ["како", "е-то</w>"], ["бо", "юс"], ["единств", "енно</w>"], ["бол", "та"], ["у", ";</w>"], ["рас", "пи"], ["задум", "чиво"], ["нил", "</w>"], ["ивш", "ись</w>"], ["!", "..»</w>"], ["да", ".</w>"], ["на", "?</w>"], ["ит", "а"], ["у", "ход"], ["сест", "риц"], ["воск", "ли"], ["над", "еж"], ["вид", "у</w>"], ["ши", "й,</w>"], ["паль", "ц"], ["са", "по"], ["ещ", "е,</w>"], ["но", "го.</w>"], ["государ", "ь,</w>"], ["мо", "ю</w>"], ["извол", "или</w>"], ["тако", "е?</w>"], ["к", "?</w>"], ["дет", ".</w>"], ["от", "да"], ["н", "ь"], ["ба", "ш"], ["дет", "ей</w>"], ["губ", "ер"], ["ил", "а.</w>"], ["сл", "е"], ["Амал", "ии</w>"], ["о", "ги"], ["гол", "ос</w>"], ["произ", "о"], ["Г", "де</w>"], ["мер", "е</w>"], ["ы", "!</w>"], ["на", "сла"], ["луч", "ше"], ["ше", "ю</w>"], ["чуть-", "чуть</w>"], ["голов", "ой</w>"], ["ко", "ю</w>"], ["глаза", ",</w>"], ["ноч", "ь</w>"], ["брос", "ил</w>"], ["при", "ех"], ["по", "с"], ["дел", "ов"], ["нару", "ж"], ["уг", "рю"], ["па", "ни"], ["за", "ви"], ["не", "вест"], ["ж", "е.</w>"], ["хорош", "ень"], ["ть", "?</w>"], ["день", "ги,</w>"], ["Т", "от</w>"], ["тих", "онь"], ["енно", "ю</w>"], ["ка", "мен"], ["соб", "ою</w>"], ["по", "се"], ["Иванов", "не</w>"], ["С", "лу"], ["про", "г"], ["с", "ем,</w>"], ["комна", "ты.</w>"], ["обм", "оро"], ["так", "!</w>"], ["си", "дел"], ["нем", "у,</w>"], ["обе", "их</w>"], ["1", "</w>"], ["ин", "ди"], ["инди", "виду"], ["и", "ров"], ["м", "ас"], ["ва", "н"], ["ени", "ем,</w>"], ["стра", "ст"], ["об", "станов"], ["ок", "ру"], ["я", "»,</w>"], ["од", "ному</w>"], ["д", "ем"], ["смер", "ти</w>"], ["пен", "си"], ["ка", "мор"], ["постоя", "н"], ["гол", "од"], ["енно", "му</w>"], ["П", "ред"], ["вс", "е,</w>"], ["ис", "пы"], ["необход", "имо"], ["ения", "х</w>"], ["уб", "ед"], ["с", "начала</w>"], ["за", "тем</w>"], ["то", "т,</w>"], ["ени", "й,</w>"], ["ст", "</w>"], ["рас", "чет"], ["рав", "но"], ["суд", "ьб"], ["ов", "а</w>"], ["пись", "мо</w>"], ["р", "ест"], ["офи", "цер"], ["я", "д"], ["(", "186"], ["пер", "еж"], ["ь", "ю.</w>"], ["т", "ен"], ["ст", "а</w>"], ["од", "но"], ["-", "а"], ["ста", "ры"], ["ре", "ж"], ["лиц", "е</w>"], ["ра", "чи"], ["по", "каза"], ["лиц", "а</w>"], ["г", "е</w>"], ["от", "ры"], ["й", ";</w>"], ["И", ",</w>"], ["ум", "ол"], ["Лужи", "на</w>"], ["ниц", "а</w>"], ["поми", "на"], ["меч", "та"], ["вал", "ась</w>"], ["раздраж", "итель"], ["нил", "ся</w>"], ["по", "раз"], ["рука", "х</w>"], ["Та", "к,</w>"], ["ко", "т"], ["тр", "я"], ["распи", "воч"], ["поминут", "но</w>"], ["привы", "ч"], ["тел", "ег"], ["и", "-то</w>"], ["с", "пуст"], ["старуш", "он"], ["человек", ".</w>"], ["раз", "у</w>"], ["ит", "…</w>"], ["говор", "ить,</w>"], ["на", "!</w>"], ["ел", "и,</w>"], ["тр", "от"], ["трот", "у"], ["кру", "го"], ["и", "ные</w>"], ["сол", "ид"], ["Наконец", "</w>"], ["Действ", "ительно,</w>"], ["мож", "ете</w>"], ["реш", "ительно</w>"], ["стол", "</w>"], ["су", "н"], ["сун", "ду"], ["п", "п"], ["н", ".</w>"], ["ну", "ла,</w>"], ["не", "б"], ["зна", "ет"], ["ит", "е?</w>"], ["дома", ",</w>"], ["но", "ж"], ["доб", "ры"], ["на", "…</w>"], ["ил", "!</w>"], ["насла", "жд"], ["слы", "х"], ["испу", "ган"], ["рас", "се"], ["вер", "но,</w>"], ["ь", "!..</w>"], ["тепер", "еш"], ["ни", "мал"], ["бог", "у,</w>"], ["скаж", "у</w>"], ["дом", "е</w>"], ["пер", "ем"], ["в", "еж"], ["показал", "ось</w>"], ["дос", "а"], ["мал", "ей"], ["мо", "ему</w>"], ["схват", "ил</w>"], ["т", "уда</w>"], ["ц", "ель"], ["ваш", "а</w>"], ["кор", "об"], ["поскоре", "е</w>"], ["ува", "жа"], ["ш", "ту"], ["у", "-то</w>"], ["я", "-то</w>"], ["га", "дал"], ["К", "уда</w>"], ["ет", "ся!</w>"], ["Э", "х,</w>"], ["это", "м,</w>"], ["П", "ра"], ["ест", "ь.</w>"], ["крич", "ит</w>"], ["С", "ей"], ["за", "й"], ["реш", "ил</w>"], ["Слу", "ша"], ["от", "рез"], ["при", "ходил"], ["пред", "полож"], ["при", "шел"], ["вещ", "и</w>"], ["пи", "ра"], ["от", "лич"], ["рез", "ко</w>"], ["замет", "ила</w>"], ["сегод", "ня"], ["виж", "у,</w>"], ["Семенов", "ич</w>"], ["обра", "дов"], ["человек", "!</w>"], ["м", "ур"], ["В", "ы,</w>"], ["хот", "ите</w>"], ["сегод", "ня,</w>"], ["Авдот", "ье</w>"], ["наказани", "я»</w>"], ["литерат", "ур"], ["дух", "ов"], ["от", "чет"], ["действ", "итель"], ["ст", "рем"], ["ут", "вер"], ["второ", "й</w>"], ["негод", "овани"], ["самы", "е</w>"], ["А", "лен"], ["вли", "яни"], ["мат", "ь,</w>"], ["в", "дов"], ["пом", "ещ"], ["да", "я</w>"], ["глубо", "ко</w>"], ["ги", "е</w>"], ["мы", ",</w>"], ["а", "ет</w>"], ["которо", "му</w>"], ["ж", "ива"], ["каки", "м</w>"], ["ненави", "ст"], ["с", "ос"], ["вы", "ш"], ["ич", "а</w>"], ["х", "ся</w>"], ["9", "</w>"], ["при", "нес"], ["ж", "ур"], ["ств", "е</w>"], ["ени", "ем.</w>"], ["з", "р"], ["ко", "но"], ["ш", "ин"], ["к", "рат"], ["б", "ож"], ["могл", "о</w>"], ["атель", "но</w>"], ["по", "знаком"], ["га", ".</w>"], ["состоя", "ни"], ["ей", "-"], ["тру", "д"], ["ра", ".</w>"], ["об", "орот"], ["отча", "ян"], ["кл", "он"], ["итель", "ный</w>"], ["жиль", "ц"], ["лестниц", "е</w>"], ["Сов", "сем</w>"], ["те", "ш"], ["рас", "стро"], ["сла", "б"], ["за", "вед"], ["лоша", "д"], ["друго", "е</w>"], ["пло", "щад"], ["ил", "…</w>"], ["Н", "и</w>"], ["комна", "ту</w>"], ["рас", "серд"], ["ваш", "и</w>"], ["па", "пир"], ["папир", "ос"], ["и", "вал"], ["воск", "лиц"], ["с", "ки</w>"], ["мысл", "ь,</w>"], ["чувствов", "ал,</w>"], ["нем", "ного,</w>"], ["куда", "-то</w>"], ["голов", "у,</w>"], ["твер", "до</w>"], ["ком", ".</w>"], ["фа", "мил"], ["по", "ка"], ["Лебезятников", ",</w>"], ["ал", "ось,</w>"], ["Д", "ля</w>"], ["под", "хватил</w>"], ["воль", "те,</w>"], ["вы", "…</w>"], ["досто", "ин"], ["про", "чи"], ["хот", "ела</w>"], ["во", "ображ"], ["бы", "ва"], ["те", "!</w>"], ["дав", "е"], ["ал", "ис"], ["ш", "есть</w>"], ["По", "тому</w>"], ["та", "я</w>"], ["говор", "я</w>"], ["жен", "щ"], ["полож", "ил</w>"], ["ко", ".</w>"], ["ж", "е!</w>"], ["ни", "к,</w>"], ["к", "стат"], ["по", "блед"], ["тобо", "й</w>"], ["зна", "ешь,</w>"], ["уни", "вер"], ["универ", "сит"], ["а", "х"], ["долж", "на</w>"], ["во-", "первых,</w>"], ["по", "ня"], ["е", "на,</w>"], ["чи", "в</w>"], ["ивш", "ись,</w>"], ["пом", "я"], ["те", ".</w>"], ["Петрович", "а</w>"], ["мест", "</w>"], ["ж", "у</w>"], ["возь", "м"], ["Б", "о"], ["смот", "ри"], ["тяжел", "о</w>"], ["сп", "ас"], ["ть", "!</w>"], ["дале", "ко</w>"], ["помеш", "ан"], ["чего", "-то</w>"], ["ал", "ись,</w>"], ["В", "и"], ["нул", "ся.</w>"], ["прибав", "ила</w>"], ["помнил", ",</w>"], ["по-", "моему,</w>"], ["повер", "нулся</w>"], ["вниз", "</w>"], ["ва", "я,</w>"], ["мину", "ту.</w>"], ["мо", "й!</w>"], ["раз", "дав"], ["кр", "ю"], ["яс", "но,</w>"], ["сов", "сем,</w>"], ["про", "пуст"], ["Б", "уд"], ["удивл", "ением</w>"], ["Порфири", "я</w>"], ["вспы", "х"], ["про", "ща"], ["дума", "ю,</w>"], ["си", "рот"], ["e", "</w>"], ["х", "е-хе!</w>"], ["прошепт", "ала</w>"], ["ци", "и</w>"], ["человеч", "ест"], ["ва", ".</w>"], ["что", "ж"], ["и", "»</w>"], ["ател", "я</w>"], ["3", "</w>"], ["1", "7"], ["и", "не</w>"], ["мест", "е</w>"], ["по", "лаг"], ["со", "став"], ["щи", "е</w>"], ["мен", "ее</w>"], ["преступл", "ения</w>"], ["дем", "ок"], ["сем", "ей"], ["да", "м</w>"], ["а", "ми.</w>"], ["р", "ол"], ["на", "сил"], ["ь", "ся</w>"], ["за", "став"], ["с", "чет"], ["сох", "ра"], ["Посл", "е</w>"], ["по", "па"], ["раз", "лич"], ["по", "казыва"], ["фанта", "ст"], ["чист", "от"], ["5", "</w>"], ["А", ".</w>"], ["четы", "ре</w>"], ["п", "ал"], ["об", "ор"], ["ть", "ся.</w>"], ["«", "С"], ["св", "ящ"], ["ан", "г"], ["послед", "ние</w>"], ["ц", "ени"], ["поль", "з"], ["Л", "ю"], ["очер", "ед"], ["тру", "дно</w>"], ["ощущ", "ение</w>"], ["па", "ч"], ["ц", "еп"], ["ско", "н"], ["во", "сп"], ["лен", "ного</w>"], ["ск", "воз"], ["отвращ", "ением</w>"], ["разв", "рат"], ["ни", "м.</w>"], ["наш", "его</w>"], ["ней", "шим</w>"], ["к", "ред"], ["улиц", "у.</w>"], ["пуст", "я"], ["ша", "г"], ["П", "ожал"], ["квар", "т"], ["кост", "ю"], ["тов", "ари"], ["см", "ущ"], ["ни", "тель"], ["ни", "х,</w>"], ["н", "рав"], ["нел", "е"], ["меся", "ц"], ["по", "кло"], ["щи", "м</w>"], ["взгля", "дом</w>"], ["у", "год"], ["нул", ".</w>"], ["ваш", "у</w>"], ["со", "ображ"], ["от", "пер"], ["бор", "од"], ["ек", ",</w>"], ["от", "дал"], ["мальчи", "ш"], ["ет", "ь,</w>"], ["п", "ять"], ["пья", "н"], ["прил", "ич"], ["милост", "ивый</w>"], ["С", "ам</w>"], ["чи", "к,</w>"], ["вид", "е</w>"], ["плать", "е</w>"], ["по-", "видимо"], ["мен", "я!</w>"], ["ку", "ла"], ["извест", "но,</w>"], ["(", "он</w>"], ["ви", "дом</w>"], ["«", "Что</w>"], ["силь", "но</w>"], ["Да", "…</w>"], ["гол", "уб"], ["од", "е"], ["об", "ес"], ["за", "бы"], ["По", "йд"], ["Чер", "ез</w>"], ["с", "держ"], ["сторон", "ы,</w>"], ["о", "на.</w>"], ["ру", "кой</w>"], ["Сон", "я!</w>"], ["ки", "!</w>"], ["рубле", "й,</w>"], ["Мож", "ет</w>"], ["на", "г"], ["зна", "ешь</w>"], ["лис", "ь,</w>"], ["м", "е</w>"], ["при", "глаш"], ["вед", "ом"], ["ны", "й.</w>"], ["каж", "ется</w>"], ["теб", "я,</w>"], ["при", "да"], ["очевид", "но,</w>"], ["до", "чер"], ["Д", "о</w>"], ["по", "прос"], ["ж", "е?</w>"], ["л", "е</w>"], ["м", "ей"], ["о", "-"], ["сторон", "у,</w>"], ["повтор", "ил</w>"], ["глаза", ".</w>"], ["кол", "ь</w>"], ["посе", "щ"], ["пере", "вод"], ["то", "по"], ["ж", "ид"], ["ал", "и!</w>"], ["вс", "коч"], ["ле", "во"], ["М", "ить"], ["пу", "бли"], ["како", "го"], ["-то", "!</w>"], ["реш", "ился</w>"], ["ген", "ер"], ["А", ",</w>"], ["ит", "ре"], ["до", "кто"], ["остро", "ум"], ["говор", "ите,</w>"], ["«", "П"], ["произ", "вед"], ["X", "</w>"], ["разв", "ит"], ["франц", "уз"], ["п", "ей"], ["противо", "полож"], ["уг", "нет"], [".", "["], ["6", "</w>"], ["ющ", "его</w>"], ["по", "сред"], ["окру", "жа"], ["при", "ч"], ["глаза", "х</w>"], ["демок", "рат"], ["Е", "го</w>"], ["по", "мог"], ["ско", "р"], ["поз", "д"], ["сод", "ерж"], ["тра", "гичес"], ["де", "й"], ["Сон", "и</w>"], ["вы", "м</w>"], ["начал", "е</w>"], ["не", "от"], ["по", "ко"], ["кни", "ж"], ["сест", "ра</w>"], ["истор", "и"], ["ств", "у"], ["и", "са"], ["рас", "кры"], ["за", "м"], ["ют", "ся,</w>"], ["ша", "я"], ["у", "част"], ["ран", "ь"], ["от", "дел"], ["тогда", "ш"], ["от", "нос"], ["яв", "л"], ["э", "коно"], ["с", "ен"], ["ени", ".</w>"], ["пу", "сто"], ["см", "ут"], ["не", "которым</w>"], ["гос", "я</w>"], ["ис", "у"], ["х", "ар"], ["ни", "ш"], ["не", "что</w>"], ["лиц", "ом</w>"], ["ю", "ри"], ["мер", "з"], ["к", "ал</w>"], ["ж", "ар"], ["улиц", "у</w>"], ["чувствов", "ал</w>"], ["ст", "ес"], ["глу", "пост"], ["ка", "нав"], ["в", "-"], ["не", "воль"], ["ец", ",</w>"], ["не", "которое</w>"], ["не", "довер"], ["вс", "помни"], ["комна", "ту,</w>"], ["стро", "го</w>"], ["вс", "крикнул</w>"], ["йте", "!</w>"], ["разв", "яз"], ["енны", "й.</w>"], ["како", "го-то</w>"], ["за", "д"], ["л", "ас"], ["ц", "о</w>"], ["ос", "мел"], ["узна", "ть,</w>"], ["пря", "мо,</w>"], ["вероят", "но,</w>"], ["ют", ".</w>"], ["итес", "ь</w>"], ["понима", "ю,</w>"], ["та", "н"], ["хле", "б"], ["был", "а,</w>"], ["извол", "ите</w>"], ["р", "ь,</w>"], ["непр", "ил"], ["неприл", "ич"], ["пла", "чу"], ["кол", "ен"], ["яз", "ы"], ["прав", "ду</w>"], ["од", "ин"], ["с", "оро"], ["Раскольников", "у.</w>"], ["его", ";</w>"], ["д", "ыш"], ["то", "…</w>"], ["зна", "ю</w>"], ["б", "ь"], ["к", "ле"], ["дива", "н,</w>"], ["св", "еч"], ["сквоз", "ь</w>"], ["у", "смех"], ["чем",
[...]
