{
  "vocab": {
    "\n": 0,
    " ": 1,
    "!": 2,
    "\"": 3,
    "'": 4,
    "(": 5,
    ")": 6,
    "*": 7,
    ",": 8,
    "-": 9,
    ".": 10,
    "0": 11,
    "1": 12,
    "2": 13,
    "3": 14,
    "4": 15,
    "5": 16,
    "6": 17,
    "7": 18,
    "8": 19,
    "9": 20,
    ":": 21,
    ";": 22,
    "<": 23,
    ">": 24,
    "?": 25,
    "A": 26,
    "B": 27,
    "C": 28,
    "D": 29,
    "H": 30,
    "I": 31,
    "J": 32,
    "K": 33,
    "L": 34,
    "M": 35,
    "N": 36,
    "O": 37,
    "P": 38,
    "S": 39,
    "U": 40,
    "V": 41,
    "X": 42,
    "\\": 43,
    "^": 44,
    "a": 45,
    "b": 46,
    "c": 47,
    "d": 48,
    "e": 49,
    "f": 50,
    "g": 51,
    "h": 52,
    "i": 53,
    "l": 54,
    "m": 55,
    "n": 56,
    "o": 57,
    "p": 58,
    "r": 59,
    "s": 60,
    "t": 61,
    "u": 62,
    "v": 63,
    "x": 64,
    "y": 65,
    "А": 66,
    "Б": 67,
    "В": 68,
    "Г": 69,
    "Д": 70,
    "Е": 71,
    "Ж": 72,
    "З": 73,
    "И": 74,
    "Й": 75,
    "К": 76,
    "Л": 77,
    "М": 78,
    "Н": 79,
    "О": 80,
    "П": 81,
    "Р": 82,
    "С": 83,
    "Т": 84,
    "У": 85,
    "Ф": 86,
    "Х": 87,
    "Ц": 88,
    "Ч": 89,
    "Ш": 90,
    "Щ": 91,
    "Ь": 92,
    "Э": 93,
    "Ю": 94,
    "Я": 95,
    "а": 96,
    "б": 97,
    "в": 98,
    "г": 99,
    "д": 100,
    "е": 101,
    "ж": 102,
    "з": 103,
    "и": 104,
    "й": 105,
    "к": 106,
    "л": 107,
    "м": 108,
    "н": 109,
    "о": 110,
    "п": 111,
    "р": 112,
    "с": 113,
    "т": 114,
    "у": 115,
    "ф": 116,
    "х": 117,
    "ц": 118,
    "ч": 119,
    "ш": 120,
    "щ": 121,
    "ъ": 122,
    "ы": 123,
    "ь": 124,
    "э": 125,
    "ю": 126,
    "я": 127,
    "ё": 128,
    " с": 129,
    "то": 130,
    " в": 131,
    " н": 132,
    " п": 133,
    " о": 134,
    " и": 135,
    " к": 136,
    "го": 137,
    "ал": 138,
    "ра": 139,
    "ст": 140,
    "ен": 141,
    "но": 142,
    " б": 143,
    " по": 144,
    " д": 145,
    " не": 146,
    "ер": 147,
    "ел": 148,
    "ро": 149,
    "--": 150,
    " --": 151,
    "ко": 152,
    "во": 153,
    " ч": 154,
    " м": 155,
    "ри": 156,
    " на": 157,
    "на": 158,
    "ть": 159,
    "ло": 160,
    "ла": 161,
    "ка": 162,
    "ре": 163,
    "ли": 164,
    " е": 165,
    " з": 166,
    " т": 167,
    " у": 168,
    "ни": 169,
    ".\n": 170,
    " бы": 171,
    "ва": 172,
    "ак": 173,
    " что": 174,
    "ся": 175,
    "ет": 176,
    "сь": 177,
    " ко": 178,
    "ны": 179,
    "да": 180,
    "ем": 181,
    "ня": 182,
    "ру": 183,
    " то": 184,
    "ди": 185,
    " он": 186,
    "ми": 187,
    " э": 188,
    " го": 189,
    "ени": 190,
    " за": 191,
    "хо": 192,
    "ол": 193,
    "е,": 194,
    " Н": 195,
    "та": 196,
    " г": 197,
    "ви": 198,
    " от": 199,
    "ки": 200,
    " вс": 201,
    "ну": 202,
    " ж": 203,
    " при": 204,
    "му": 205,
    " ра": 206,
    "ти": 207,
    "каз": 208,
    " А": 209,
    "ши": 210,
    " вы": 211,
    " это": 212,
    " П": 213,
    " как": 214,
    "ей": 215,
    "до": 216,
    "ала": 217,
    "ль": 218,
    "ля": 219,
    " про": 220,
    "ле": 221,
    " во": 222,
    " мо": 223,
    "ры": 224,
    "мо": 225,
    " его": 226,
    "ов": 227,
    " О": 228,
    " В": 229,
    " все": 230,
    " кото": 231,
    "ма": 232,
    " сво": 233,
    " об": 234,
    "ере": 235,
    "сто": 236,
    "не": 237,
    " до": 238,
    "али": 239,
    " ни": 240,
    "й,": 241,
    " кня": 242,
    " но": 243,
    "м,": 244,
    "чи": 245,
    "по": 246,
    " Б": 247,
    "сти": 248,
    " К": 249,
    "ча": 250,
    " сказ": 251,
    "ша": 252,
    "я,": 253,
    "ста": 254,
    " а": 255,
    "лу": 256,
    "тел": 257,
    " со": 258,
    " я": 259,
    "у,": 260,
    "сть": 261,
    "лю": 262,
    "ше": 263,
    " Ан": 264,
    "вори": 265,
    "енно": 266,
    "ве": 267,
    " из": 268,
    "си": 269,
    "ско": 270,
    "ду": 271,
    "че": 272,
    "лы": 273,
    " так": 274,
    " было": 275,
    " ка": 276,
    " княз": 277,
    "ря": 278,
    "ме": 279,
    " М": 280,
    "ще": 281,
    " ви": 282,
    "..": 283,
    " Д": 284,
    " ст": 285,
    " хо": 286,
    "вал": 287,
    " пре": 288,
    "ела": 289,
    "за": 290,
    "жи": 291,
    "гда": 292,
    "ень": 293,
    " На": 294,
    " раз": 295,
    "же": 296,
    " она": 297,
    "де": 298,
    "лся": 299,
    "дре": 300,
    "ели": 301,
    "ски": 302,
    " С": 303,
    " говори": 304,
    " под": 305,
    "еб": 306,
    " Андре": 307,
    " ли": 308,
    "ку": 309,
    "тель": 310,
    "ты": 311,
    "ство": 312,
    " был": 313,
    "уд": 314,
    "лько": 315,
    "со": 316,
    "га": 317,
    " сказал": 318,
    " пос": 319,
    "ги": 320,
    " дру": 321,
    "вы": 322,
    " И": 323,
    " са": 324,
    "щи": 325,
    "дно": 326,
    "вши": 327,
    " Он": 328,
    " ру": 329,
    " ду": 330,
    " которы": 331,
    "ту": 332,
    " лю": 333,
    "са": 334,
    "би": 335,
    "сь,": 336,
    " ему": 337,
    "ю,": 338,
    "бы": 339,
    " Р": 340,
    " сто": 341,
    " пере": 342,
    "ез": 343,
    "ть,": 344,
    " Т": 345,
    " зна": 346,
    " же": 347,
    "жени": 348,
    "те": 349,
    " Пь": 350,
    "жа": 351,
    "х,": 352,
    "ву": 353,
    "бо": 354,
    "кой": 355,
    "ес": 356,
    " ми": 357,
    " себ": 358,
    " ее": 359,
    "го,": 360,
    "ар": 361,
    " бол": 362,
    " ф": 363,
    "вер": 364,
    "ться": 365,
    " ва": 366,
    " князь": 367,
    " Пьер": 368,
    "енны": 369,
    " ста": 370,
    "вая": 371,
    "ца": 372,
    "ало": 373,
    " сп": 374,
    " рас": 375,
    " да": 376,
    "ха": 377,
    "ран": 378,
    "ды": 379,
    " гла": 380,
    "жно": 381,
    " буд": 382,
    " только": 383,
    " которо": 384,
    "т,": 385,
    " \"": 386,
    "мот": 387,
    " Ро": 388,
    "су": 389,
    "ело": 390,
    "рем": 391,
    " вз": 392,
    "шел": 393,
    " те": 394,
    " та": 395,
    "фи": 396,
    "ба": 397,
    "пе": 398,
    "чал": 399,
    "дел": 400,
    "пи": 401,
    "елов": 402,
    " гра": 403,
    " Ната": 404,
    " им": 405,
    "в,": 406,
    " Бо": 407,
    " для": 408,
    " Я": 409,
    " голо": 410,
    "ходи": 411,
    " си": 412,
    "ной": 413,
    "гля": 414,
    "-то": 415,
    " Росто": 416,
    " мог": 417,
    " Ни": 418,
    " свои": 419,
    "ерь": 420,
    " чу": 421,
    " улы": 422,
    "ми,": 423,
    " жи": 424,
    " еще": 425,
    "па": 426,
    " ме": 427,
    "ным": 428,
    " ре": 429,
    "ска": 430,
    "е.": 431,
    "ный": 432,
    " Андрей": 433,
    "елове": 434,
    "тельно": 435,
    "ет,": 436,
    " и,": 437,
    " была": 438,
    "вно": 439,
    " челове": 440,
    " Г": 441,
    "ств": 442,
    " ш": 443,
    " ты": 444,
    " врем": 445,
    " Э": 446,
    " Нико": 447,
    "ения": 448,
    " ма": 449,
    " боль": 450,
    " ве": 451,
    " пред": 452,
    "бе": 453,
    "цу": 454,
    "ему": 455,
    "дя": 456,
    "аль": 457,
    " Кня": 458,
    "зь": 459,
    "ал,": 460,
    " оп": 461,
    " пер": 462,
    " слу": 463,
    " Но": 464,
    "ался": 465,
    " когда": 466,
    " По": 467,
    " Никола": 468,
    " были": 469,
    " ло": 470,
    "к,": 471,
    "...": 472,
    " говорил": 473,
    " \n": 474,
    "ь,": 475,
    "цо": 476,
    "це": 477,
    "ком": 478,
    " эти": 479,
    " чув": 480,
    "на,": 481,
    "ка,": 482,
    "нно": 483,
    " Ч": 484,
    " ис": 485,
    " него": 486,
    "лась": 487,
    "перь": 488,
    "ять": 489,
    "зи": 490,
    "вля": 491,
    " мен": 492,
    " оста": 493,
    " чтобы": 494,
    "лов": 495,
    " после": 496,
    " мы": 497,
    "его": 498,
    "сту": 499,
    "ех": 500,
    " му": 501,
    "вл": 502,
    " уже": 503,
    " пол": 504,
    "роси": 505,
    "он": 506,
    " Е": 507,
    "чего": 508,
    "и,": 509,
    "вать": 510,
    "жал": 511,
    "ур": 512,
    " одно": 513,
    "вали": 514,
    " пото": 515,
    "ные": 516,
    "ем,": 517,
    " оч": 518,
    " ро": 519,
    " Наташа": 520,
    "пол": 521,
    " глаза": 522,
    " себя": 523,
    "шо": 524,
    "ного": 525,
    "ель": 526,
    " Да": 527,
    "зна": 528,
    " улыб": 529,
    " вер": 530,
    " мне": 531,
    "се": 532,
    " ча": 533,
    "ясь": 534,
    " они": 535,
    "нул": 536,
    "суда": 537,
    " теперь": 538,
    " обра": 539,
    " пи": 540,
    "жет": 541,
    " бо": 542,
    "пу": 543,
    "ния": 544,
    "дин": 545,
    " он,": 546,
    "нима": 547,
    "ранцу": 548,
    "стви": 549,
    "но,": 550,
    " дол": 551,
    "ят": 552,
    "м.": 553,
    "зы": 554,
    "вет": 555,
    "гу": 556,
    "об": 557,
    "ение": 558,
    " сов": 559,
    "рел": 560,
    "лись": 561,
    "рас": 562,
    "казы": 563,
    " этого": 564,
    " Она": 565,
    " хоро": 566,
    " ус": 567,
    " друго": 568,
    "ства": 569,
    " ле": 570,
    "ражени": 571,
    " Князь": 572,
    "мы": 573,
    "нов": 574,
    " жен": 575,
    " или": 576,
    " будто": 577,
    "ща": 578,
    "ют": 579,
    " сло": 580,
    "дела": 581,
    " граф": 582,
    " время": 583,
    "ная": 584,
    "ман": 585,
    "ных": 586,
    "ский": 587,
    "вор": 588,
    "ск": 589,
    "ющи": 590,
    " сказала": 591,
    " ц": 592,
    " очень": 593,
    "пра": 594,
    "оло": 595,
    " стра": 596,
    " пра": 597,
    " воз": 598,
    " чувство": 599,
    "вала": 600,
    " моло": 601,
    " жиз": 602,
    "ей,": 603,
    " ту": 604,
    "кон": 605,
    " госуда": 606,
    "те,": 607,
    " который": 608,
    " Бори": 609,
    "олда": 610,
    " дела": 611,
    " смот": 612,
    " су": 613,
    "ную": 614,
    " меня": 615,
    "нулся": 616,
    " расс": 617,
    "чно": 618,
    " ба": 619,
    "ние": 620,
    "гра": 621,
    " х": 622,
    " де": 623,
    "ки,": 624,
    "му,": 625,
    " Ва": 626,
    " перед": 627,
    " само": 628,
    "соб": 629,
    " францу": 630,
    " вой": 631,
    " их": 632,
    " без": 633,
    "арь": 634,
    " Это": 635,
    "шь": 636,
    "жели": 637,
    " нес": 638,
    "руг": 639,
    " тем": 640,
    " од": 641,
    " князя": 642,
    " офи": 643,
    " Ку": 644,
    " которые": 645,
    " (": 646,
    "мал": 647,
    " чем": 648,
    " всех": 649,
    " княж": 650,
    "стоя": 651,
    " Марь": 652,
    "тя": 653,
    "лен": 654,
    " вес": 655,
    " взгля": 656,
    "ци": 657,
    " быть": 658,
    "ее": 659,
    "вой": 660,
    " ничего": 661,
    " люб": 662,
    "дь": 663,
    "ра,": 664,
    " ей": 665,
    " своей": 666,
    " мину": 667,
    " пу": 668,
    " то,": 669,
    "ке": 670,
    "ется": 671,
    "жд": 672,
    " стоя": 673,
    " Что": 674,
    "при": 675,
    " сча": 676,
    "ехал": 677,
    " ар": 678,
    " лицо": 679,
    "?\n": 680,
    "ром": 681,
    "пы": 682,
    " бу": 683,
    " чи": 684,
    " ком": 685,
    " Не": 686,
    "ского": 687,
    " сме": 688,
    "вший": 689,
    " опять": 690,
    " поло": 691,
    " гу": 692,
    "шего": 693,
    "сили": 694,
    "дол": 695,
    "пере": 696,
    "ались": 697,
    " обе": 698,
    " особ": 699,
    " ку": 700,
    " будет": 701,
    "нт": 702,
    " зн": 703,
    " этот": 704,
    " Ми": 705,
    " поч": 706,
    "ров": 707,
    "ть.": 708,
    " Л": 709,
    "нови": 710,
    "воль": 711,
    " сле": 712,
    "ю.": 713,
    "цер": 714,
    "лыш": 715,
    " разго": 716,
    " солда": 717,
    "про": 718,
    " тре": 719,
    "н,": 720,
    "рато": 721,
    " теб": 722,
    "зов": 723,
    "ку,": 724,
    "зо": 725,
    "л,": 726,
    " пла": 727,
    " отве": 728,
    " лоша": 729,
    "рая": 730,
    "ена": 731,
    "говори": 732,
    " Как": 733,
    " комна": 734,
    "нь": 735,
    "сов": 736,
    "ственно": 737,
    "ва,": 738,
    "шу": 739,
    " З": 740,
    " себе": 741,
    " Николай": 742,
    " Доло": 743,
    "ы,": 744,
    "тер": 745,
    "енер": 746,
    "стро": 747,
    "чь": 748,
    " день": 749,
    " того,": 750,
    " Ростов": 751,
    "каза": 752,
    " свою": 753,
    " спроси": 754,
    " Долохо": 755,
    " У": 756,
    " кри": 757,
    " зам": 758,
    "ено": 759,
    "кры": 760,
    "с,": 761,
    " Во": 762,
    " люби": 763,
    " па": 764,
    "спо": 765,
    " Мо": 766,
    " бес": 767,
    "им": 768,
    "кого": 769,
    " вид": 770,
    " всегда": 771,
    "ное": 772,
    "перато": 773,
    "дер": 774,
    " ожи": 775,
    " Со": 776,
    "мер": 777,
    "ли,": 778,
    " Па": 779,
    " сам": 780,
    " может": 781,
    " продол": 782,
    "ской": 783,
    " особенно": 784,
    "ков": 785,
    " кра": 786,
    "сте": 787,
    " спо": 788,
    " вели": 789,
    " впере": 790,
    " сы": 791,
    " ну": 792,
    "сти,": 793,
    " Ко": 794,
    "...\n": 795,
    " дело": 796,
    "\",": 797,
    "том": 798,
    "кая": 799,
    "ны,": 800,
    " вст": 801,
    " хотел": 802,
    " други": 803,
    " своего": 804,
    "шей": 805,
    "нее": 806,
    "кое": 807,
    "дет": 808,
    "сколько": 809,
    " один": 810,
    " более": 811,
    "ся,": 812,
    " том,": 813,
    " се": 814,
    " непри": 815,
    " дел": 816,
    " генер": 817,
    "шла": 818,
    "луч": 819,
    " Ну,": 820,
    " сдела": 821,
    " государ": 822,
    " императо": 823,
    "чер": 824,
    " всем": 825,
    " ско": 826,
    " Куту": 827,
    "й.": 828,
    "жен": 829,
    "дом": 830,
    " начал": 831,
    "аз": 832,
    "стно": 833,
    " ла": 834,
    " подо": 835,
    " огля": 836,
    "друг": 837,
    "вя": 838,
    " мал": 839,
    " ум": 840,
    "стью": 841,
    "поле": 842,
    " жизни": 843,
    "д,": 844,
    " дума": 845,
    " Васили": 846,
    "ливо": 847,
    "ней": 848,
    " каз": 849,
    "ставля": 850,
    " зак": 851,
    "ерез": 852,
    " сторо": 853,
    "лаго": 854,
    " види": 855,
    "буд": 856,
    " своим": 857,
    "я.": 858,
    " прои": 859,
    " где": 860,
    " мыс": 861,
    "лось": 862,
    " гру": 863,
    " Наполе": 864,
    " ша": 865,
    " поду": 866,
    "дал": 867,
    "ала,": 868,
    " его,": 869,
    "да,": 870,
    " мол": 871,
    " надо": 872,
    "алась": 873,
    "кто": 874,
    " нас": 875,
    " графи": 876,
    " офицер": 877,
    " Вы": 878,
    "шая": 879,
    " над": 880,
    " есть": 881,
    "крас": 882,
    "сты": 883,
    " бе": 884,
    " сер": 885,
    " доб": 886,
    " нико": 887,
    "ети": 888,
    " дви": 889,
    " сказа": 890,
    "енный": 891,
    "алось": 892,
    " этом": 893,
    " Анна": 894,
    " преж": 895,
    " вас": 896,
    " пись": 897,
    "р,": 898,
    " Ж": 899,
    " два": 900,
    " Дени": 901,
    " что-то": 902,
    " потому": 903,
    "дъ": 904,
    "кий": 905,
    "ству": 906,
    "мотря": 907,
    " кон": 908,
    "юта": 909,
    "мо,": 910,
    " молодо": 911,
    " арми": 912,
    " вдруг": 913,
    "х.": 914,
    " этой": 915,
    " радо": 916,
    "дъюта": 917,
    "стави": 918,
    " Андрей,": 919,
    " рус": 920,
    " Пав": 921,
    " кро": 922,
    "дей": 923,
    " ним": 924,
    " Бол": 925,
    "жду": 926,
    " жела": 927,
    "вый": 928,
    " коман": 929,
    "чу": 930,
    "ен,": 931,
    " сдел": 932,
    "-ни": 933,
    " хорошо": 934,
    "-нибуд": 935,
    "тра": 936,
    "ним": 937,
    " поня": 938,
    " вол": 939,
    " ше": 940,
    "ми.": 941,
    " свое": 942,
    " доро": 943,
    " Нет,": 944,
    " послед": 945,
    " нее": 946,
    "нато": 947,
    "пре": 948,
    " Все": 949,
    " выражени": 950,
    " ежели": 951,
    " чер": 952,
    " которой": 953,
    " улыба": 954,
    " свет": 955,
    " ней": 956,
    " вся": 957,
    " тол": 958,
    "али,": 959,
    " спра": 960,
    " совер": 961,
    "стя": 962,
    "ла,": 963,
    "не,": 964,
    " было,": 965,
    " эту": 966,
    "ными": 967,
    " вме": 968,
    " ди": 969,
    " уви": 970,
    "сть,": 971,
    " пе": 972,
    "елы": 973,
    "она": 974,
    " соб": 975,
    " лица": 976,
    " Анато": 977,
    " Пет": 978,
    "юще": 979,
    "ться,": 980,
    " другой": 981,
    " бле": 982,
    " которое": 983,
    " Го": 984,
    " слыш": 985,
    " которая": 986,
    "вар": 987,
    " Ба": 988,
    "ты,": 989,
    " даже": 990,
    " счаст": 991,
    " тот": 992,
    " мой": 993,
    " изве": 994,
    "ские": 995,
    " слова": 996,
    " несколько": 997,
    "ном": 998,
    " бра": 999,
    "гла": 1000,
    " шу": 1001,
    "хи": 1002,
    " друг": 1003,
    " Да,": 1004,
    " Миха": 1005,
    " останови": 1006,
    " Павлов": 1007,
    "вст": 1008,
    " глу": 1009,
    " взя": 1010,
    " ос": 1011,
    " дер": 1012,
    " ска": 1013,
    "ете": 1014,
    "ди,": 1015,
    "та,": 1016,
    " муж": 1017,
    " луч": 1018,
    "нова": 1019,
    " стал": 1020,
    " обрати": 1021,
    " спросил": 1022,
    "мни": 1023,
    " вам": 1024,
    "бур": 1025,
    " бли": 1026,
    "рый": 1027,
    " женщи": 1028,
    "юш": 1029,
    " нем": 1030,
    "ении": 1031,
    "кую": 1032,
    " находи": 1033,
    "шь,": 1034,
    " отвечал": 1035,
    "сы": 1036,
    " Ф": 1037,
    " нео": 1038,
    " тя": 1039,
    "ня,": 1040,
    " гля": 1041,
    " проти": 1042,
    "лся,": 1043,
    " двер": 1044,
    "ением": 1045,
    "ваясь": 1046,
    " которого": 1047,
    " француз": 1048,
    "бу": 1049,
    " кре": 1050,
    " главно": 1051,
    " Борис": 1052,
    " малень": 1053,
    " Болкон": 1054,
    " между": 1055,
    " кто": 1056,
    "тся": 1057,
    " полу": 1058,
    " больше": 1059,
    "але": 1060,
    "шно": 1061,
    "нула": 1062,
    "вал,": 1063,
    " она,": 1064,
    "вшись": 1065,
    " руку": 1066,
    "енным": 1067,
    " своих": 1068,
    " благо": 1069,
    "вого": 1070,
    " вот": 1071,
    "чая": 1072,
    " каж": 1073,
    "вшие": 1074,
    " Так": 1075,
    "пар": 1076,
    " никогда": 1077,
    " адъюта": 1078,
    "ин": 1079,
    "ц,": 1080,
    " сла": 1081,
    "лет": 1082,
    " сви": 1083,
    " име": 1084,
    "ник": 1085,
    "рую": 1086,
    " высо": 1087,
    "ясь,": 1088,
    " Моск": 1089,
    " несмотря": 1090,
    " 1": 1091,
    "ены": 1092,
    "дро": 1093,
    "ко,": 1094,
    "жала": 1095,
    " его.": 1096,
    " гости": 1097,
    "вался": 1098,
    "ских": 1099,
    " видел": 1100,
    " реши": 1101,
    " За": 1102,
    " через": 1103,
    "ербур": 1104,
    "зя": 1105,
    "воря": 1106,
    " говорить": 1107,
    " рука": 1108,
    " могу": 1109,
    "ступ": 1110,
    " одна": 1111,
    " положени": 1112,
    "-нибудь": 1113,
    " княги": 1114,
    "вшего": 1115,
    " Кутузов": 1116,
    " Михай": 1117,
    ":\n": 1118,
    "жна": 1119,
    " Ка": 1120,
    " весь": 1121,
    "ев": 1122,
    "жу": 1123,
    "раз": 1124,
    "дил": 1125,
    "оль": 1126,
    " всего": 1127,
    "ходя": 1128,
    "ступи": 1129,
    "дать": 1130,
    " же,": 1131,
    " пря": 1132,
    "дно,": 1133,
    " зву": 1134,
    " стари": 1135,
    " понима": 1136,
    " весело": 1137,
    " ог": 1138,
    " того": 1139,
    " дей": 1140,
    "чала": 1141,
    " дере": 1142,
    "вед": 1143,
    " видимо,": 1144,
    " Марья": 1145,
    "вари": 1146,
    " что,": 1147,
    "хот": 1148,
    "дца": 1149,
    " соверш": 1150,
    " ок": 1151,
    "рав": 1152,
    " поз": 1153,
    "ван": 1154,
    "йти": 1155,
    "кой,": 1156,
    " Ма": 1157,
    " нужно": 1158,
    " Денисов": 1159,
    "\".": 1160,
    " пов": 1161,
    " объ": 1162,
    " Пьер,": 1163,
    "нд": 1164,
    " по-": 1165,
    "ну,": 1166,
    "грати": 1167,
    " команди": 1168,
    " Баграти": 1169,
    " выс": 1170,
    "лек": 1171,
    " дома": 1172,
    "час": 1173,
    "ту,": 1174,
    " человек": 1175,
    "таль": 1176,
    " спокой": 1177,
    "ство,": 1178,
    " княжна": 1179,
    "),": 1180,
    "ери": 1181,
    "сем": 1182,
    "сле": 1183,
    "ения,": 1184,
    "вало": 1185,
    " которых": 1186,
    " замети": 1187,
    "вым": 1188,
    "вших": 1189,
    " котором": 1190,
    " думал": 1191,
    " буду": 1192,
    " Вот": 1193,
    "ербург": 1194,
    "дить": 1195,
    " князю": 1196,
    "еха": 1197,
    "встри": 1198,
    " которую": 1199,
    " Михайлов": 1200,
    "и.": 1201,
    " Ш": 1202,
    " тру": 1203,
    " обо": 1204,
    " наза": 1205,
    "той": 1206,
    "тре": 1207,
    " вспо": 1208,
    " говорила": 1209,
    " дум": 1210,
    " собо": 1211,
    " крас": 1212,
    " самы": 1213,
    "ниц": 1214,
    "енного": 1215,
    " виде": 1216,
    "алось,": 1217,
    " графа": 1218,
    "стра": 1219,
    " ти": 1220,
    " уди": 1221,
    " все,": 1222,
    " кар": 1223,
    " обще": 1224,
    " тоже": 1225,
    "урь": 1226,
    " много": 1227,
    "кнов": 1228,
    " состоя": 1229,
    " генерал": 1230,
    " дерев": 1231,
    "сно": 1232,
    "ный,": 1233,
    " тебе": 1234,
    "вое": 1235,
    "ке,": 1236,
    " приня": 1237,
    " Ста": 1238,
    " Нес": 1239,
    "енные": 1240,
    " хотя": 1241,
    " движени": 1242,
    "ом": 1243,
    "рого": 1244,
    " гор": 1245,
    "тил": 1246,
    " пле": 1247,
    " Ты": 1248,
    " Ту": 1249,
    "енных": 1250,
    " побе": 1251,
    " этих": 1252,
    "рази": 1253,
    "доволь": 1254,
    " спраши": 1255,
    "шли": 1256,
    "ний": 1257,
    " так,": 1258,
    " посмот": 1259,
    "шую": 1260,
    " нет": 1261,
    "лан": 1262,
    " изм": 1263,
    " стар": 1264,
    "шему": 1265,
    "!\n": 1266,
    " Про": 1267,
    " Ви": 1268,
    " свой": 1269,
    " Наташа,": 1270,
    " гуса": 1271,
    " прекрас": 1272,
    "мя": 1273,
    "\".\n": 1274,
    " забы": 1275,
    " быть,": 1276,
    " дву": 1277,
    "ская": 1278,
    " счастли": 1279,
    "ка.": 1280,
    " нему": 1281,
    " дур": 1282,
    " фи": 1283,
    " чего": 1284,
    " большо": 1285,
    " инт": 1286,
    " объя": 1287,
    "бл": 1288,
    " Х": 1289,
    "нет": 1290,
    " похо": 1291,
    "вил": 1292,
    " ши": 1293,
    "ших": 1294,
    "шее": 1295,
    "ца,": 1296,
    " почти": 1297,
    "говорил": 1298,
    " Долохов": 1299,
    "ю.\n": 1300,
    " кру": 1301,
    " Они": 1302,
    "можно": 1303,
    " тыся": 1304,
    " войска": 1305,
    " минуту": 1306,
    " встре": 1307,
    " началь": 1308,
    " глядя": 1309,
    "на.": 1310,
    "кла": 1311,
    " сли": 1312,
    " отно": 1313,
    "ким": 1314,
    "сом": 1315,
    " ужа": 1316,
    " Гра": 1317,
    " вечер": 1318,
    "ера": 1319,
    " чтоб": 1320,
    " показ": 1321,
    " улыбкой": 1322,
    " тут": 1323,
    " смотрел": 1324,
    " рассказы": 1325,
    "ит": 1326,
    "во,": 1327,
    "хва": 1328,
    "так": 1329,
    " помо": 1330,
    " нов": 1331,
    " из-": 1332,
    "сси": 1333,
    " ны": 1334,
    " заня": 1335,
    " От": 1336,
    "ском": 1337,
    " вышел": 1338,
    " шта": 1339,
    " счасть": 1340,
    " прежде": 1341,
    " Алек": 1342,
    "ую": 1343,
    "стер": 1344,
    " че": 1345,
    " тро": 1346,
    " тон": 1347,
    " жени": 1348,
    " них": 1349,
    " Бер": 1350,
    "енной": 1351,
    " све": 1352,
    "га,": 1353,
    " него,": 1354,
    " тех": 1355,
    " продолжал": 1356,
    " огляды": 1357,
    " вместе": 1358,
    "встрий": 1359,
    "раж": 1360,
    "виц": 1361,
    " тогда": 1362,
    "дему": 1363,
    "нулась": 1364,
    " разговор": 1365,
    " вопро": 1366,
    " прямо": 1367,
    " Бурь": 1368,
    "демуаз": 1369,
    "кал": 1370,
    "бно": 1371,
    "чет": 1372,
    " дет": 1373,
    " своем": 1374,
    "ятель": 1375,
    " вперед": 1376,
    " должен": 1377,
    " произ": 1378,
    " молча": 1379,
    " адъютан": 1380,
    "демуазель": 1381,
    "ор": 1382,
    " ут": 1383,
    "нии": 1384,
    "ть.\n": 1385,
    " таки": 1386,
    " подня": 1387,
    " знаю,": 1388,
    " этим": 1389,
    " потом": 1390,
    "кнул": 1391,
    "что": 1392,
    "емы": 1393,
    "ками": 1394,
    " зас": 1395,
    " проси": 1396,
    " Андрея": 1397,
    "ствие": 1398,
    " краси": 1399,
    " подумал": 1400,
    " тяж": 1401,
    "три": 1402,
    "кло": 1403,
    "чем": 1404,
    "мина": 1405,
    " гото": 1406,
    " подъ": 1407,
    " ему,": 1408,
    " стран": 1409,
    " напра": 1410,
    " смотр": 1411,
    " Элен": 1412,
    " Когда": 1413,
    " свя": 1414,
    " Анатоль": 1415,
    " совершенно": 1416,
    "ан": 1417,
    "тал": 1418,
    "вает": 1419,
    " счи": 1420,
    "под": 1421,
    "вство": 1422,
    " знает": 1423,
    " голос": 1424,
    " Ростов,": 1425,
    " равно": 1426,
    " человек,": 1427,
    "ства,": 1428,
    " сражени": 1429,
    " кроме": 1430,
    "напар": 1431,
    " повто": 1432,
    "ющ": 1433,
    "вра": 1434,
    " пор": 1435,
    "ком,": 1436,
    "ваться": 1437,
    " приба": 1438,
    " внима": 1439,
    " прият": 1440,
    " несча": 1441,
    " разгово": 1442,
    " Наполеон": 1443,
    " Петербург": 1444,
    " австрий": 1445,
    "рак": 1446,
    " чет": 1447,
    "чил": 1448,
    " милы": 1449,
    " таким": 1450,
    " добро": 1451,
    "рен": 1452,
    "воз": 1453,
    " эта": 1454,
    " недо": 1455,
    " зде": 1456,
    " руки": 1457,
    " которым": 1458,
    " ответ": 1459,
    "рь": 1460,
    "г,": 1461,
    "ред": 1462,
    "ение,": 1463,
    "рави": 1464,
    "нес": 1465,
    "поло": 1466,
    " заме": 1467,
    " опу": 1468,
    "ющий": 1469,
    "дей,": 1470,
    " интере": 1471,
    " Алекса": 1472,
    " коро": 1473,
    "ше,": 1474,
    " Спе": 1475,
    " одного": 1476,
    " откры": 1477,
    " закри": 1478,
    " совсем": 1479,
    " Сперан": 1480,
    " вел": 1481,
    " уж": 1482,
    "чат": 1483,
    "чай": 1484,
    " холо": 1485,
    " наде": 1486,
    " уби": 1487,
    "вшись,": 1488,
    " Пьерa": 1489,
    " перем": 1490,
    " обраща": 1491,
    "коман": 1492,
    " тебя": 1493,
    " представля": 1494,
    " людей": 1495,
    " Бонапар": 1496,
    "ню": 1497,
    "яд": 1498,
    " он.": 1499,
    " оте": 1500,
    " всю": 1501,
    " можно": 1502,
    " Ежели": 1503,
    " испы": 1504,
    " жизнь": 1505,
    " подошел": 1506,
    " Василий": 1507,
    "ющего": 1508,
    " против": 1509,
    " казалось,": 1510,
    "команду": 1511,
    "бли": 1512,
    "м.\n": 1513,
    "жда": 1514,
    "нием": 1515,
    " ее,": 1516,
    " жел": 1517,
    " вос": 1518,
    "чали": 1519,
    "дели": 1520,
    " приез": 1521,
    "йте": 1522,
    "ков,": 1523,
    " одной": 1524,
    " узна": 1525,
    " испу": 1526,
    " прав": 1527,
    " ожида": 1528,
    " мужчи": 1529,
    " Хо": 1530,
    " Александ": 1531,
    " поц": 1532,
    "еро": 1533,
    "род": 1534,
    "нув": 1535,
    " просто": 1536,
    "ния,": 1537,
    " Ах,": 1538,
    " голову": 1539,
    "шком": 1540,
    " приехал": 1541,
    " Соня": 1542,
    " действи": 1543,
    "ни,": 1544,
    "е.\n": 1545,
    " ору": 1546,
    "шед": 1547,
    "скому": 1548,
    " каби": 1549,
    " силь": 1550,
    " государя": 1551,
    " Ли": 1552,
    " солдат": 1553,
    " назад": 1554,
    " двух": 1555,
    "увство": 1556,
    " три": 1557,
    " кого": 1558,
    " нель": 1559,
    "жали": 1560,
    " ря": 1561,
    "ским": 1562,
    " полко": 1563,
    " любов": 1564,
    "держи": 1565,
    " письмо": 1566,
    " сделал": 1567,
    " обратился": 1568,
    " говоря": 1569,
    " новы": 1570,
    " главнокоманду": 1571,
    "рил": 1572,
    " уч": 1573,
    "нем": 1574,
    "него": 1575,
    " ваше": 1576,
    " такой": 1577,
    " там": 1578,
    " Ростовы": 1579,
    "ступа": 1580,
    " быстро": 1581,
    "вшей": 1582,
    "скую": 1583,
    " обы": 1584,
    " начи": 1585,
    "слу": 1586,
    "вать,": 1587,
    " значи": 1588,
    "жая": 1589,
    " лег": 1590,
    " огром": 1591,
    " мадемуазель": 1592,
    "ян": 1593,
    "сл": 1594,
    "I\n": 1595,
    "хал": 1596,
    "нал": 1597,
    "или": 1598,
    " времени": 1599,
    "реле": 1600,
    "вольно": 1601,
    " лошадь": 1602,
    "скадро": 1603,
    "ядюш": 1604,
    " л": 1605,
    "воро": 1606,
    " пока": 1607,
    " ез": 1608,
    " зло": 1609,
    " сем": 1610,
    "ным,": 1611,
    "чера": 1612,
    " привы": 1613,
    " себя,": 1614,
    " могла": 1615,
    " место": 1616,
    " человека,": 1617,
    " потому,": 1618,
    " сказать": 1619,
    " лучше": 1620,
    "чо": 1621,
    " мно": 1622,
    " той": 1623,
    "лови": 1624,
    " сере": 1625,
    " но,": 1626,
    " рабо": 1627,
    "сходи": 1628,
    " лице": 1629,
    " броси": 1630,
    "держа": 1631,
    " первый": 1632,
    " блестя": 1633,
    " извести": 1634,
    " старый": 1635,
    " почувство": 1636,
    "ках": 1637,
    " коло": 1638,
    " том": 1639,
    "ухо": 1640,
    "нуть": 1641,
    " тому": 1642,
    " При": 1643,
    " през": 1644,
    " Из": 1645,
    " глаз": 1646,
    "пита": 1647,
    " давно": 1648,
    "ются": 1649,
    " знал,": 1650,
    " скоро": 1651,
    " Раз": 1652,
    "ешь,": 1653,
    " отнош": 1654,
    " людей,": 1655,
    "а,": 1656,
    " ки": 1657,
    "шал": 1658,
    " пло": 1659,
    "шло": 1660,
    " вла": 1661,
    "ва.": 1662,
    " это,": 1663,
    " ника": 1664,
    "лага": 1665,
    " Ти": 1666,
    " князь,": 1667,
    " сидел": 1668,
    " предло": 1669,
    " назы": 1670,
    " сооб": 1671,
    " матер": 1672,
    " госпо": 1673,
    " молодой": 1674,
    " удоволь": 1675,
    "ил": 1676,
    " ды": 1677,
    " уго": 1678,
    " ран": 1679,
    " воло": 1680,
    " исто": 1681,
    "гу,": 1682,
    " слы": 1683,
    " друга": 1684,
    " убе": 1685,
    "вались": 1686,
    " стоял": 1687,
    " плать": 1688,
    " баталь": 1689,
    " Туши": 1690,
    " Несвиц": 1691,
    " слишком": 1692,
    "т.": 1693,
    "того": 1694,
    "ву,": 1695,
    "стью,": 1696,
    " пошел": 1697,
    " серь": 1698,
    " должно": 1699,
    " никто": 1700,
    " штаб": 1701,
    " серьез": 1702,
    "?\"": 1703,
    " ост": 1704,
    "ма,": 1705,
    "жида": 1706,
    "рже": 1707,
    " говорили": 1708,
    " своими": 1709,
    " Николай,": 1710,
    " говорил,": 1711,
    " иск": 1712,
    " офице": 1713,
    "вшийся": 1714,
    " такое": 1715,
    " неприят": 1716,
    " серди": 1717,
    " кажды": 1718,
    " улыбаясь,": 1719,
    " Княжна": 1720,
    "кновенно": 1721,
    " оруди": 1722,
    "мен": 1723,
    "шка": 1724,
    "низ": 1725,
    " кор": 1726,
    " он.\n": 1727,
    " Бала": 1728,
    "чеви": 1729,
    " сту": 1730,
    " Без": 1731,
    "сут": 1732,
    " вошел": 1733,
    " имел": 1734,
    "проси": 1735,
    " указы": 1736,
    " знал": 1737,
    " винова": 1738,
    " нельзя": 1739,
    " преле": 1740,
    "стр": 1741,
    "рой": 1742,
    "них": 1743,
    "хом": 1744,
    "ких": 1745,
    " ры": 1746,
    "зади": 1747,
    "ялся": 1748,
    " спа": 1749,
    "ды,": 1750,
    " поспе": 1751,
    " пять": 1752,
    " меня,": 1753,
    " улыбнулся": 1754,
    " жизни,": 1755,
    " графиня": 1756,
    " эскадро": 1757,
    " ото": 1758,
    "коло": 1759,
    " уст": 1760,
    "шем": 1761,
    "ры,": 1762,
    "стой": 1763,
    " восто": 1764,
    "ятел": 1765,
    "вез": 1766,
    " повер": 1767,
    " \"Н": 1768,
    " вздо": 1769,
    "писа": 1770,
    " Наташи": 1771,
    " испол": 1772,
    "пусти": 1773,
    " вооб": 1774,
    "правля": 1775,
    " поехал": 1776,
    " Павловна": 1777,
    " глупо": 1778,
    " Росси": 1779,
    "из": 1780,
    "ья": 1781,
    "ника": 1782,
    " уда": 1783,
    "ру,": 1784,
    "ние,": 1785,
    " приго": 1786,
    " моя": 1787,
    " Ве": 1788,
    "ном,": 1789,
    " кавал": 1790,
    " разу": 1791,
    " переби": 1792,
    " нет,": 1793,
    "ставл": 1794,
    " долго": 1795,
    " успе": 1796,
    "доров": 1797,
    " приказа": 1798,
    " скры": 1799,
    " беспо": 1800,
    " смер": 1801,
    "вшая": 1802,
    "ейчас": 1803,
    " Безухо": 1804,
    "ге": 1805,
    "тно": 1806,
    "кою": 1807,
    " мер": 1808,
    " нам": 1809,
    "ре,": 1810,
    "лиц": 1811,
    "шие": 1812,
    " кры": 1813,
    "коне": 1814,
    "поли": 1815,
    "блю": 1816,
    "скор": 1817,
    "нче": 1818,
    "ряд": 1819,
    "люби": 1820,
    " То": 1821,
    " отвер": 1822,
    " призна": 1823,
    " страш": 1824,
    " послыш": 1825,
    " оживл": 1826,
    " улыбаясь": 1827,
    " Толь": 1828,
    " Багратион": 1829,
    " Бурьен": 1830,
    " очеви": 1831,
    "ч,": 1832,
    " неб": 1833,
    " дро": 1834,
    "пло": 1835,
    "ению": 1836,
    "вить": 1837,
    "кие": 1838,
    "шки": 1839,
    " уча": 1840,
    "енное": 1841,
    "тиче": 1842,
    "са,": 1843,
    "енными": 1844,
    " служ": 1845,
    " часто": 1846,
    " молоды": 1847,
    " рассказ": 1848,
    " сделать": 1849,
    " императора": 1850,
    " Кутузо": 1851,
    " 18": 1852,
    " проговорил": 1853,
    " здесь": 1854,
    "ху": 1855,
    " иг": 1856,
    "рал": 1857,
    "дра": 1858,
    " пой": 1859,
    "ны.": 1860,
    "ми.\n": 1861,
    " упо": 1862,
    "ку.": 1863,
    " какой": 1864,
    " мини": 1865,
    " мимо": 1866,
    " спу": 1867,
    " время,": 1868,
    " Ему": 1869,
    " кажет": 1870,
    "вания": 1871,
    " гвар": 1872,
    " объяс": 1873,
    " испуга": 1874,
    " невольно": 1875,
    " р": 1876,
    "ед": 1877,
    "тов": 1878,
    "реть": 1879,
    "мет": 1880,
    "емо": 1881,
    " дня": 1882,
    " всей": 1883,
    "лед": 1884,
    " причи": 1885,
    " ан": 1886,
    " две": 1887,
    "вшим": 1888,
    "лись,": 1889,
    " своему": 1890,
    " даль": 1891,
    " тем,": 1892,
    "гнов": 1893,
    " говор": 1894,
    " представи": 1895,
    " близ": 1896,
    " После": 1897,
    " видеть": 1898,
    "вшее": 1899,
    " закричал": 1900,
    " дядюш": 1901,
    " истори": 1902,
    " востор": 1903,
    "у.": 1904,
    "ене": 1905,
    "пер": 1906,
    "кри": 1907,
    "де,": 1908,
    "дви": 1909,
    "ста,": 1910,
    "жил": 1911,
    "ский,": 1912,
    " Те": 1913,
    " еха": 1914,
    "ходил": 1915,
    "ения.": 1916,
    " бога": 1917,
    " необ": 1918,
    " квар": 1919,
    " измени": 1920,
    " оскор": 1921,
    " Только": 1922,
    " мгнов": 1923,
    "гом": 1924,
    "пла": 1925,
    " коли": 1926,
    " Ну": 1927,
    " выго": 1928,
    "кий,": 1929,
    "вая,": 1930,
    " ще": 1931,
    " люди": 1932,
    " ее.": 1933,
    " твер": 1934,
    " викон": 1935,
    " ху": 1936,
    " деву": 1937,
    "ешь": 1938,
    " люблю": 1939,
    " любви": 1940,
    "фицер": 1941,
    " мысль": 1942,
    " чувству": 1943,
    " удивл": 1944,
    " ужас": 1945,
    " крикнул": 1946,
    " тяжело": 1947,
    " поцелов": 1948,
    "сал": 1949,
    "сла": 1950,
    " уз": 1951,
    "я.\n": 1952,
    " года": 1953,
    " Ау": 1954,
    " поль": 1955,
    "ством": 1956,
    " сказал,": 1957,
    " Ип": 1958,
    "рщи": 1959,
    "жение": 1960,
    " увер": 1961,
    " стара": 1962,
    " отца": 1963,
    " глав": 1964,
    "ют,": 1965,
    " показы": 1966,
    " хорош": 1967,
    " точно": 1968,
    " какое": 1969,
    "гласи": 1970,
    " взял": 1971,
    "таки": 1972,
    " Ипполи": 1973,
    "точ": 1974,
    " неу": 1975,
    " мра": 1976,
    " уг": 1977,
    "няя": 1978,
    " жал": 1979,
    "ная,": 1980,
    " стол": 1981,
    "дите": 1982,
    " мило": 1983,
    " могли": 1984,
    "тельно,": 1985,
    " человека": 1986,
    "нце": 1987,
    " знаком": 1988,
    " назна": 1989,
    " успо": 1990,
    " французов": 1991,
    "вшую": 1992,
    " из-за": 1993,
    "печат": 1994,
    " испыты": 1995,
    " кабинет": 1996,
    " сю": 1997,
    "ема": 1998,
    "еди": 1999,
    "нди": 2000,
    "тия": 2001,
    " Бу": 2002,
    "ду,": 2003,
    " подле": 2004,
    "лась,": 2005,
    " свобо": 2006,
    " пар": 2007,
    "ехали": 2008,
    " глазами": 2009,
    "ющие": 2010,
    " чувствовал": 2011,
    " докто": 2012,
    "втра": 2013,
    " лет": 2014,
    " собой": 2015,
    " возможно": 2016,
    "спомина": 2017,
    " четы": 2018,
    "к.": 2019,
    "-о": 2020,
    "рю": 2021,
    "сли": 2022,
    "рус": 2023,
    "тая": 2024,
    " вну": 2025,
    "ший": 2026,
    " коле": 2027,
    "дали": 2028,
    "вой,": 2029,
    "жу,": 2030,
    "тый": 2031,
    "вые": 2032,
    " Иль": 2033,
    "жения": 2034,
    "жать": 2035,
    " стало": 2036,
    "ник,": 2037,
    "валась": 2038,
    "йте,": 2039,
    " комнату": 2040,
    " государь": 2041,
    " дале": 2042,
    " отчая": 2043,
    " княгиня": 2044,
    " тотчас": 2045,
    " тихо": 2046,
    " отец": 2047,
    " торже": 2048,
    " сейчас": 2049,
    " нынче": 2050,
    "гал": 2051,
    "рно": 2052,
    " мн": 2053,
    "ные,": 2054,
    " сму": 2055,
    " этому": 2056,
    "торы": 2057,
    "сти.": 2058,
    " Андрея,": 2059,
    " ску": 2060,
    "ты.": 2061,
    "раги": 2062,
    " мила": 2063,
    " себе,": 2064,
    " \"В": 2065,
    " шел": 2066,
    " глаза,": 2067,
    " комнате": 2068,
    " Борис,": 2069,
    " сест": 2070,
    " Жер": 2071,
    " получи": 2072,
    " ничто": 2073,
    " необходи": 2074,
    " впечат": 2075,
    "их": 2076,
    " ого": 2077,
    "ить": 2078,
    "сло": 2079,
    "кре": 2080,
    "гли": 2081,
    " пода": 2082,
    "еви": 2083,
    " зави": 2084,
    "дала": 2085,
    " мост": 2086,
    "ов,": 2087,
    " Мне": 2088,
    "ногда": 2089,
    " говорит": 2090,
    "ску": 2091,
    " столь": 2092,
    " мало": 2093,
    "тельным": 2094,
    " це": 2095,
    " пожал": 2096,
    "ется,": 2097,
    " обеда": 2098,
    "казать": 2099,
    " Наполео": 2100,
    "вшему": 2101,
    " прибавил": 2102,
    " обращаясь": 2103,
    " колон": 2104,
    " впечатл": 2105,
    " ю": 2106,
    " бал": 2107,
    " пом": 2108,
    "еля": 2109,
    "вом": 2110,
    "чка": 2111,
    " зако": 2112,
    "ки.": 2113,
    " Пол": 2114,
    "стей": 2115,
    "дов": 2116,
    "не.": 2117,
    " влю": 2118,
    "стве": 2119,
    "ское": 2120,
    " стала": 2121,
    "вели": 2122,
    "гами": 2123,
    " друж": 2124,
    " сама": 2125,
    " душе": 2126,
    "ъез": 2127,
    "вую": 2128
  },
  "merges": [
    [
      " ",
      "с"
    ],
    [
      "т",
      "о"
    ],
    [
      " ",
      "в"
    ],
    [
      " ",
      "н"
    ],
    [
      " ",
      "п"
    ],
    [
      " ",
      "о"
    ],
    [
      " ",
      "и"
    ],
    [
      " ",
      "к"
    ],
    [
      "г",
      "о"
    ],
    [
      "а",
      "л"
    ],
    [
      "р",
      "а"
    ],
    [
      "с",
      "т"
    ],
    [
      "е",
      "н"
    ],
    [
      "н",
      "о"
    ],
    [
      " ",
      "б"
    ],
    [
      " п",
      "о"
    ],
    [
      " ",
      "д"
    ],
    [
      " н",
      "е"
    ],
    [
      "е",
      "р"
    ],
    [
      "е",
      "л"
    ],
    [
      "р",
      "о"
    ],
    [
      "-",
      "-"
    ],
    [
      " ",
      "--"
    ],
    [
      "к",
      "о"
    ],
    [
      "в",
      "о"
    ],
    [
      " ",
      "ч"
    ],
    [
      " ",
      "м"
    ],
    [
      "р",
      "и"
    ],
    [
      " н",
      "а"
    ],
    [
      "н",
      "а"
    ],
    [
      "т",
      "ь"
    ],
    [
      "л",
      "о"
    ],
    [
      "л",
      "а"
    ],
    [
      "к",
      "а"
    ],
    [
      "р",
      "е"
    ],
    [
      "л",
      "и"
    ],
    [
      " ",
      "е"
    ],
    [
      " ",
      "з"
    ],
    [
      " ",
      "т"
    ],
    [
      " ",
      "у"
    ],
    [
      "н",
      "и"
    ],
    [
      ".",
      "\n"
    ],
    [
      " б",
      "ы"
    ],
    [
      "в",
      "а"
    ],
    [
      "а",
      "к"
    ],
    [
      " ч",
      "то"
    ],
    [
      "с",
      "я"
    ],
    [
      "е",
      "т"
    ],
    [
      "с",
      "ь"
    ],
    [
      " к",
      "о"
    ],
    [
      "н",
      "ы"
    ],
    [
      "д",
      "а"
    ],
    [
      "е",
      "м"
    ],
    [
      "н",
      "я"
    ],
    [
      "р",
      "у"
    ],
    [
      " ",
      "то"
    ],
    [
      "д",
      "и"
    ],
    [
      " о",
      "н"
    ],
    [
      "м",
      "и"
    ],
    [
      " ",
      "э"
    ],
    [
      " ",
      "го"
    ],
    [
      "ен",
      "и"
    ],
    [
      " з",
      "а"
    ],
    [
      "х",
      "о"
    ],
    [
      "о",
      "л"
    ],
    [
      "е",
      ","
    ],
    [
      " ",
      "Н"
    ],
    [
      "т",
      "а"
    ],
    [
      " ",
      "г"
    ],
    [
      "в",
      "и"
    ],
    [
      " о",
      "т"
    ],
    [
      "к",
      "и"
    ],
    [
      " в",
      "с"
    ],
    [
      "н",
      "у"
    ],
    [
      " ",
      "ж"
    ],
    [
      " п",
      "ри"
    ],
    [
      "м",
      "у"
    ],
    [
      " ",
      "ра"
    ],
    [
      "т",
      "и"
    ],
    [
      "ка",
      "з"
    ],
    [
      " ",
      "А"
    ],
    [
      "ш",
      "и"
    ],
    [
      " в",
      "ы"
    ],
    [
      " э",
      "то"
    ],
    [
      " ",
      "П"
    ],
    [
      " к",
      "ак"
    ],
    [
      "е",
      "й"
    ],
    [
      "д",
      "о"
    ],
    [
      "ал",
      "а"
    ],
    [
      "л",
      "ь"
    ],
    [
      "л",
      "я"
    ],
    [
      " п",
      "ро"
    ],
    [
      "л",
      "е"
    ],
    [
      " в",
      "о"
    ],
    [
      " м",
      "о"
    ],
    [
      "р",
      "ы"
    ],
    [
      "м",
      "о"
    ],
    [
      " е",
      "го"
    ],
    [
      "о",
      "в"
    ],
    [
      " ",
      "О"
    ],
    [
      " ",
      "В"
    ],
    [
      " вс",
      "е"
    ],
    [
      " ко",
      "то"
    ],
    [
      "м",
      "а"
    ],
    [
      " с",
      "во"
    ],
    [
      " о",
      "б"
    ],
    [
      "ер",
      "е"
    ],
    [
      "с",
      "то"
    ],
    [
      "н",
      "е"
    ],
    [
      " д",
      "о"
    ],
    [
      "ал",
      "и"
    ],
    [
      " н",
      "и"
    ],
    [
      "й",
      ","
    ],
    [
      " к",
      "ня"
    ],
    [
      " н",
      "о"
    ],
    [
      "м",
      ","
    ],
    [
      "ч",
      "и"
    ],
    [
      "п",
      "о"
    ],
    [
      " ",
      "Б"
    ],
    [
      "ст",
      "и"
    ],
    [
      " ",
      "К"
    ],
    [
      "ч",
      "а"
    ],
    [
      " с",
      "каз"
    ],
    [
      "ш",
      "а"
    ],
    [
      "я",
      ","
    ],
    [
      "ст",
      "а"
    ],
    [
      " ",
      "а"
    ],
    [
      "л",
      "у"
    ],
    [
      "т",
      "ел"
    ],
    [
      " с",
      "о"
    ],
    [
      " ",
      "я"
    ],
    [
      "у",
      ","
    ],
    [
      "ст",
      "ь"
    ],
    [
      "л",
      "ю"
    ],
    [
      "ш",
      "е"
    ],
    [
      " А",
      "н"
    ],
    [
      "во",
      "ри"
    ],
    [
      "ен",
      "но"
    ],
    [
      "в",
      "е"
    ],
    [
      " и",
      "з"
    ],
    [
      "с",
      "и"
    ],
    [
      "с",
      "ко"
    ],
    [
      "д",
      "у"
    ],
    [
      "ч",
      "е"
    ],
    [
      "л",
      "ы"
    ],
    [
      " т",
      "ак"
    ],
    [
      " бы",
      "ло"
    ],
    [
      " к",
      "а"
    ],
    [
      " кня",
      "з"
    ],
    [
      "р",
      "я"
    ],
    [
      "м",
      "е"
    ],
    [
      " ",
      "М"
    ],
    [
      "щ",
      "е"
    ],
    [
      " в",
      "и"
    ],
    [
      ".",
      "."
    ],
    [
      " ",
      "Д"
    ],
    [
      " с",
      "т"
    ],
    [
      " ",
      "хо"
    ],
    [
      "в",
      "ал"
    ],
    [
      " п",
      "ре"
    ],
    [
      "ел",
      "а"
    ],
    [
      "з",
      "а"
    ],
    [
      "ж",
      "и"
    ],
    [
      "г",
      "да"
    ],
    [
      "ен",
      "ь"
    ],
    [
      " Н",
      "а"
    ],
    [
      " ра",
      "з"
    ],
    [
      "ж",
      "е"
    ],
    [
      " о",
      "на"
    ],
    [
      "д",
      "е"
    ],
    [
      "л",
      "ся"
    ],
    [
      "д",
      "ре"
    ],
    [
      "ел",
      "и"
    ],
    [
      "с",
      "ки"
    ],
    [
      " ",
      "С"
    ],
    [
      " го",
      "вори"
    ],
    [
      " по",
      "д"
    ],
    [
      "е",
      "б"
    ],
    [
      " Ан",
      "дре"
    ],
    [
      " ",
      "ли"
    ],
    [
      "к",
      "у"
    ],
    [
      "тел",
      "ь"
    ],
    [
      "т",
      "ы"
    ],
    [
      "ст",
      "во"
    ],
    [
      " бы",
      "л"
    ],
    [
      "у",
      "д"
    ],
    [
      "ль",
      "ко"
    ],
    [
      "с",
      "о"
    ],
    [
      "г",
      "а"
    ],
    [
      " сказ",
      "ал"
    ],
    [
      " по",
      "с"
    ],
    [
      "г",
      "и"
    ],
    [
      " д",
      "ру"
    ],
    [
      "в",
      "ы"
    ],
    [
      " ",
      "И"
    ],
    [
      " с",
      "а"
    ],
    [
      "щ",
      "и"
    ],
    [
      "д",
      "но"
    ],
    [
      "в",
      "ши"
    ],
    [
      " О",
      "н"
    ],
    [
      " ",
      "ру"
    ],
    [
      " д",
      "у"
    ],
    [
      " кото",
      "ры"
    ],
    [
      "т",
      "у"
    ],
    [
      " ",
      "лю"
    ],
    [
      "с",
      "а"
    ],
    [
      "б",
      "и"
    ],
    [
      "сь",
      ","
    ],
    [
      " е",
      "му"
    ],
    [
      "ю",
      ","
    ],
    [
      "б",
      "ы"
    ],
    [
      " ",
      "Р"
    ],
    [
      " с",
      "то"
    ],
    [
      " п",
      "ере"
    ],
    [
      "е",
      "з"
    ],
    [
      "ть",
      ","
    ],
    [
      " ",
      "Т"
    ],
    [
      " з",
      "на"
    ],
    [
      " ж",
      "е"
    ],
    [
      "ж",
      "ени"
    ],
    [
      "т",
      "е"
    ],
    [
      " П",
      "ь"
    ],
    [
      "ж",
      "а"
    ],
    [
      "х",
      ","
    ],
    [
      "в",
      "у"
    ],
    [
      "б",
      "о"
    ],
    [
      "ко",
      "й"
    ],
    [
      "е",
      "с"
    ],
    [
      " м",
      "и"
    ],
    [
      " с",
      "еб"
    ],
    [
      " е",
      "е"
    ],
    [
      "го",
      ","
    ],
    [
      "а",
      "р"
    ],
    [
      " б",
      "ол"
    ],
    [
      " ",
      "ф"
    ],
    [
      "в",
      "ер"
    ],
    [
      "ть",
      "ся"
    ],
    [
      " в",
      "а"
    ],
    [
      " княз",
      "ь"
    ],
    [
      " Пь",
      "ер"
    ],
    [
      "ен",
      "ны"
    ],
    [
      " с",
      "та"
    ],
    [
      "ва",
      "я"
    ],
    [
      "ц",
      "а"
    ],
    [
      "ал",
      "о"
    ],
    [
      " с",
      "п"
    ],
    [
      " ра",
      "с"
    ],
    [
      " д",
      "а"
    ],
    [
      "х",
      "а"
    ],
    [
      "ра",
      "н"
    ],
    [
      "д",
      "ы"
    ],
    [
      " г",
      "ла"
    ],
    [
      "ж",
      "но"
    ],
    [
      " б",
      "уд"
    ],
    [
      " то",
      "лько"
    ],
    [
      " кото",
      "ро"
    ],
    [
      "т",
      ","
    ],
    [
      " ",
      "\""
    ],
    [
      "мо",
      "т"
    ],
    [
      " Р",
      "о"
    ],
    [
      "с",
      "у"
    ],
    [
      "ел",
      "о"
    ],
    [
      "ре",
      "м"
    ],
    [
      " в",
      "з"
    ],
    [
      "ш",
      "ел"
    ],
    [
      " т",
      "е"
    ],
    [
      " т",
      "а"
    ],
    [
      "ф",
      "и"
    ],
    [
      "б",
      "а"
    ],
    [
      "п",
      "е"
    ],
    [
      "ч",
      "ал"
    ],
    [
      "д",
      "ел"
    ],
    [
      "п",
      "и"
    ],
    [
      "ел",
      "ов"
    ],
    [
      " г",
      "ра"
    ],
    [
      " На",
      "та"
    ],
    [
      " и",
      "м"
    ],
    [
      "в",
      ","
    ],
    [
      " Б",
      "о"
    ],
    [
      " д",
      "ля"
    ],
    [
      " ",
      "Я"
    ],
    [
      " го",
      "ло"
    ],
    [
      "хо",
      "ди"
    ],
    [
      " с",
      "и"
    ],
    [
      "но",
      "й"
    ],
    [
      "г",
      "ля"
    ],
    [
      "-",
      "то"
    ],
    [
      " Ро",
      "сто"
    ],
    [
      " мо",
      "г"
    ],
    [
      " Н",
      "и"
    ],
    [
      " сво",
      "и"
    ],
    [
      "ер",
      "ь"
    ],
    [
      " ч",
      "у"
    ],
    [
      " у",
      "лы"
    ],
    [
      "ми",
      ","
    ],
    [
      " ж",
      "и"
    ],
    [
      " е",
      "ще"
    ],
    [
      "п",
      "а"
    ],
    [
      " м",
      "е"
    ],
    [
      "ны",
      "м"
    ],
    [
      " ",
      "ре"
    ],
    [
      "с",
      "ка"
    ],
    [
      "е",
      "."
    ],
    [
      "ны",
      "й"
    ],
    [
      " Андре",
      "й"
    ],
    [
      "елов",
      "е"
    ],
    [
      "тель",
      "но"
    ],
    [
      "ет",
      ","
    ],
    [
      " и",
      ","
    ],
    [
      " бы",
      "ла"
    ],
    [
      "в",
      "но"
    ],
    [
      " ч",
      "елове"
    ],
    [
      " ",
      "Г"
    ],
    [
      "ст",
      "в"
    ],
    [
      " ",
      "ш"
    ],
    [
      " т",
      "ы"
    ],
    [
      " в",
      "рем"
    ],
    [
      " ",
      "Э"
    ],
    [
      " Ни",
      "ко"
    ],
    [
      "ени",
      "я"
    ],
    [
      " м",
      "а"
    ],
    [
      " бол",
      "ь"
    ],
    [
      " в",
      "е"
    ],
    [
      " пре",
      "д"
    ],
    [
      "б",
      "е"
    ],
    [
      "ц",
      "у"
    ],
    [
      "ем",
      "у"
    ],
    [
      "д",
      "я"
    ],
    [
      "ал",
      "ь"
    ],
    [
      " К",
      "ня"
    ],
    [
      "з",
      "ь"
    ],
    [
      "ал",
      ","
    ],
    [
      " о",
      "п"
    ],
    [
      " п",
      "ер"
    ],
    [
      " с",
      "лу"
    ],
    [
      " Н",
      "о"
    ],
    [
      "ал",
      "ся"
    ],
    [
      " ко",
      "гда"
    ],
    [
      " П",
      "о"
    ],
    [
      " Нико",
      "ла"
    ],
    [
      " бы",
      "ли"
    ],
    [
      " ",
      "ло"
    ],
    [
      "к",
      ","
    ],
    [
      "..",
      "."
    ],
    [
      " говори",
      "л"
    ],
    [
      " ",
      "\n"
    ],
    [
      "ь",
      ","
    ],
    [
      "ц",
      "о"
    ],
    [
      "ц",
      "е"
    ],
    [
      "ко",
      "м"
    ],
    [
      " э",
      "ти"
    ],
    [
      " чу",
      "в"
    ],
    [
      "на",
      ","
    ],
    [
      "ка",
      ","
    ],
    [
      "н",
      "но"
    ],
    [
      " ",
      "Ч"
    ],
    [
      " и",
      "с"
    ],
    [
      " не",
      "го"
    ],
    [
      "ла",
      "сь"
    ],
    [
      "п",
      "ерь"
    ],
    [
      "я",
      "ть"
    ],
    [
      "з",
      "и"
    ],
    [
      "в",
      "ля"
    ],
    [
      " м",
      "ен"
    ],
    [
      " о",
      "ста"
    ],
    [
      " что",
      "бы"
    ],
    [
      "ло",
      "в"
    ],
    [
      " пос",
      "ле"
    ],
    [
      " м",
      "ы"
    ],
    [
      "е",
      "го"
    ],
    [
      "ст",
      "у"
    ],
    [
      "е",
      "х"
    ],
    [
      " м",
      "у"
    ],
    [
      "в",
      "л"
    ],
    [
      " у",
      "же"
    ],
    [
      " по",
      "л"
    ],
    [
      "ро",
      "си"
    ],
    [
      "о",
      "н"
    ],
    [
      " ",
      "Е"
    ],
    [
      "че",
      "го"
    ],
    [
      "и",
      ","
    ],
    [
      "ва",
      "ть"
    ],
    [
      "ж",
      "ал"
    ],
    [
      "у",
      "р"
    ],
    [
      " о",
      "дно"
    ],
    [
      "в",
      "али"
    ],
    [
      " по",
      "то"
    ],
    [
      "ны",
      "е"
    ],
    [
      "ем",
      ","
    ],
    [
      " о",
      "ч"
    ],
    [
      " ",
      "ро"
    ],
    [
      " Ната",
      "ша"
    ],
    [
      "п",
      "ол"
    ],
    [
      " гла",
      "за"
    ],
    [
      " себ",
      "я"
    ],
    [
      "ш",
      "о"
    ],
    [
      "но",
      "го"
    ],
    [
      "ел",
      "ь"
    ],
    [
      " Д",
      "а"
    ],
    [
      "з",
      "на"
    ],
    [
      " улы",
      "б"
    ],
    [
      " в",
      "ер"
    ],
    [
      " м",
      "не"
    ],
    [
      "с",
      "е"
    ],
    [
      " ч",
      "а"
    ],
    [
      "я",
      "сь"
    ],
    [
      " о",
      "ни"
    ],
    [
      "ну",
      "л"
    ],
    [
      "су",
      "да"
    ],
    [
      " те",
      "перь"
    ],
    [
      " об",
      "ра"
    ],
    [
      " п",
      "и"
    ],
    [
      "ж",
      "ет"
    ],
    [
      " б",
      "о"
    ],
    [
      "п",
      "у"
    ],
    [
      "ни",
      "я"
    ],
    [
      "ди",
      "н"
    ],
    [
      " он",
      ","
    ],
    [
      "ни",
      "ма"
    ],
    [
      "ран",
      "цу"
    ],
    [
      "ст",
      "ви"
    ],
    [
      "но",
      ","
    ],
    [
      " д",
      "ол"
    ],
    [
      "я",
      "т"
    ],
    [
      "м",
      "."
    ],
    [
      "з",
      "ы"
    ],
    [
      "в",
      "ет"
    ],
    [
      "г",
      "у"
    ],
    [
      "о",
      "б"
    ],
    [
      "ени",
      "е"
    ],
    [
      " с",
      "ов"
    ],
    [
      "р",
      "ел"
    ],
    [
      "ли",
      "сь"
    ],
    [
      "ра",
      "с"
    ],
    [
      "каз",
      "ы"
    ],
    [
      " это",
      "го"
    ],
    [
      " О",
      "на"
    ],
    [
      " хо",
      "ро"
    ],
    [
      " у",
      "с"
    ],
    [
      " дру",
      "го"
    ],
    [
      "ст",
      "ва"
    ],
    [
      " ",
      "ле"
    ],
    [
      "ра",
      "жени"
    ],
    [
      " Кня",
      "зь"
    ],
    [
      "м",
      "ы"
    ],
    [
      "но",
      "в"
    ],
    [
      " ж",
      "ен"
    ],
    [
      " и",
      "ли"
    ],
    [
      " буд",
      "то"
    ],
    [
      "щ",
      "а"
    ],
    [
      "ю",
      "т"
    ],
    [
      " с",
      "ло"
    ],
    [
      "д",
      "ела"
    ],
    [
      " гра",
      "ф"
    ],
    [
      " врем",
      "я"
    ],
    [
      "на",
      "я"
    ],
    [
      "ма",
      "н"
    ],
    [
      "ны",
      "х"
    ],
    [
      "ски",
      "й"
    ],
    [
      "во",
      "р"
    ],
    [
      "с",
      "к"
    ],
    [
      "ю",
      "щи"
    ],
    [
      " сказ",
      "ала"
    ],
    [
      " ",
      "ц"
    ],
    [
      " оч",
      "ень"
    ],
    [
      "п",
      "ра"
    ],
    [
      "о",
      "ло"
    ],
    [
      " ст",
      "ра"
    ],
    [
      " п",
      "ра"
    ],
    [
      " во",
      "з"
    ],
    [
      " чув",
      "ство"
    ],
    [
      "в",
      "ала"
    ],
    [
      " мо",
      "ло"
    ],
    [
      " жи",
      "з"
    ],
    [
      "ей",
      ","
    ],
    [
      " т",
      "у"
    ],
    [
      "ко",
      "н"
    ],
    [
      " го",
      "суда"
    ],
    [
      "т",
      "е,"
    ],
    [
      " которы",
      "й"
    ],
    [
      " Бо",
      "ри"
    ],
    [
      "ол",
      "да"
    ],
    [
      " д",
      "ела"
    ],
    [
      " с",
      "мот"
    ],
    [
      " с",
      "у"
    ],
    [
      "ну",
      "ю"
    ],
    [
      " мен",
      "я"
    ],
    [
      "ну",
      "лся"
    ],
    [
      " рас",
      "с"
    ],
    [
      "ч",
      "но"
    ],
    [
      " б",
      "а"
    ],
    [
      "ни",
      "е"
    ],
    [
      "г",
      "ра"
    ],
    [
      " ",
      "х"
    ],
    [
      " д",
      "е"
    ],
    [
      "ки",
      ","
    ],
    [
      "му",
      ","
    ],
    [
      " В",
      "а"
    ],
    [
      " пере",
      "д"
    ],
    [
      " са",
      "мо"
    ],
    [
      "со",
      "б"
    ],
    [
      " ф",
      "ранцу"
    ],
    [
      " во",
      "й"
    ],
    [
      " и",
      "х"
    ],
    [
      " б",
      "ез"
    ],
    [
      "ар",
      "ь"
    ],
    [
      " Э",
      "то"
    ],
    [
      "ш",
      "ь"
    ],
    [
      "ж",
      "ели"
    ],
    [
      " не",
      "с"
    ],
    [
      "ру",
      "г"
    ],
    [
      " т",
      "ем"
    ],
    [
      " о",
      "д"
    ],
    [
      " княз",
      "я"
    ],
    [
      " о",
      "фи"
    ],
    [
      " К",
      "у"
    ],
    [
      " которы",
      "е"
    ],
    [
      " ",
      "("
    ],
    [
      "м",
      "ал"
    ],
    [
      " ч",
      "ем"
    ],
    [
      " все",
      "х"
    ],
    [
      " кня",
      "ж"
    ],
    [
      "сто",
      "я"
    ],
    [
      " М",
      "арь"
    ],
    [
      "т",
      "я"
    ],
    [
      "л",
      "ен"
    ],
    [
      " в",
      "ес"
    ],
    [
      " вз",
      "гля"
    ],
    [
      "ц",
      "и"
    ],
    [
      " бы",
      "ть"
    ],
    [
      "е",
      "е"
    ],
    [
      "во",
      "й"
    ],
    [
      " ни",
      "чего"
    ],
    [
      " лю",
      "б"
    ],
    [
      "д",
      "ь"
    ],
    [
      "ра",
      ","
    ],
    [
      " е",
      "й"
    ],
    [
      " сво",
      "ей"
    ],
    [
      " ми",
      "ну"
    ],
    [
      " п",
      "у"
    ],
    [
      " то",
      ","
    ],
    [
      "к",
      "е"
    ],
    [
      "ет",
      "ся"
    ],
    [
      "ж",
      "д"
    ],
    [
      " сто",
      "я"
    ],
    [
      " Ч",
      "то"
    ],
    [
      "п",
      "ри"
    ],
    [
      " с",
      "ча"
    ],
    [
      "ех",
      "ал"
    ],
    [
      " а",
      "р"
    ],
    [
      " ли",
      "цо"
    ],
    [
      "?",
      "\n"
    ],
    [
      "ро",
      "м"
    ],
    [
      "п",
      "ы"
    ],
    [
      " б",
      "у"
    ],
    [
      " ч",
      "и"
    ],
    [
      " ко",
      "м"
    ],
    [
      " Н",
      "е"
    ],
    [
      "ско",
      "го"
    ],
    [
      " с",
      "ме"
    ],
    [
      "вши",
      "й"
    ],
    [
      " оп",
      "ять"
    ],
    [
      " по",
      "ло"
    ],
    [
      " г",
      "у"
    ],
    [
      "ше",
      "го"
    ],
    [
      "си",
      "ли"
    ],
    [
      "д",
      "ол"
    ],
    [
      "п",
      "ере"
    ],
    [
      "али",
      "сь"
    ],
    [
      " об",
      "е"
    ],
    [
      " о",
      "соб"
    ],
    [
      " к",
      "у"
    ],
    [
      " буд",
      "ет"
    ],
    [
      "н",
      "т"
    ],
    [
      " з",
      "н"
    ],
    [
      " это",
      "т"
    ],
    [
      " М",
      "и"
    ],
    [
      " по",
      "ч"
    ],
    [
      "ро",
      "в"
    ],
    [
      "ть",
      "."
    ],
    [
      " ",
      "Л"
    ],
    [
      "но",
      "ви"
    ],
    [
      "во",
      "ль"
    ],
    [
      " с",
      "ле"
    ],
    [
      "ю",
      "."
    ],
    [
      "ц",
      "ер"
    ],
    [
      "лы",
      "ш"
    ],
    [
      " раз",
      "го"
    ],
    [
      " с",
      "олда"
    ],
    [
      "п",
      "ро"
    ],
    [
      " т",
      "ре"
    ],
    [
      "н",
      ","
    ],
    [
      "ра",
      "то"
    ],
    [
      " т",
      "еб"
    ],
    [
      "з",
      "ов"
    ],
    [
      "к",
      "у,"
    ],
    [
      "з",
      "о"
    ],
    [
      "л",
      ","
    ],
    [
      " п",
      "ла"
    ],
    [
      " от",
      "ве"
    ],
    [
      " ло",
      "ша"
    ],
    [
      "ра",
      "я"
    ],
    [
      "ен",
      "а"
    ],
    [
      "го",
      "вори"
    ],
    [
      " К",
      "ак"
    ],
    [
      " ком",
      "на"
    ],
    [
      "н",
      "ь"
    ],
    [
      "с",
      "ов"
    ],
    [
      "ств",
      "енно"
    ],
    [
      "ва",
      ","
    ],
    [
      "ш",
      "у"
    ],
    [
      " ",
      "З"
    ],
    [
      " себ",
      "е"
    ],
    [
      " Никола",
      "й"
    ],
    [
      " Д",
      "оло"
    ],
    [
      "ы",
      ","
    ],
    [
      "т",
      "ер"
    ],
    [
      "ен",
      "ер"
    ],
    [
      "ст",
      "ро"
    ],
    [
      "ч",
      "ь"
    ],
    [
      " д",
      "ень"
    ],
    [
      " то",
      "го,"
    ],
    [
      " Росто",
      "в"
    ],
    [
      "каз",
      "а"
    ],
    [
      " сво",
      "ю"
    ],
    [
      " сп",
      "роси"
    ],
    [
      " Доло",
      "хо"
    ],
    [
      " ",
      "У"
    ],
    [
      " к",
      "ри"
    ],
    [
      " за",
      "м"
    ],
    [
      "ен",
      "о"
    ],
    [
      "к",
      "ры"
    ],
    [
      "с",
      ","
    ],
    [
      " В",
      "о"
    ],
    [
      " лю",
      "би"
    ],
    [
      " п",
      "а"
    ],
    [
      "с",
      "по"
    ],
    [
      " М",
      "о"
    ],
    [
      " б",
      "ес"
    ],
    [
      "и",
      "м"
    ],
    [
      "ко",
      "го"
    ],
    [
      " ви",
      "д"
    ],
    [
      " все",
      "гда"
    ],
    [
      "но",
      "е"
    ],
    [
      "пе",
      "рато"
    ],
    [
      "д",
      "ер"
    ],
    [
      " о",
      "жи"
    ],
    [
      " С",
      "о"
    ],
    [
      "м",
      "ер"
    ],
    [
      "ли",
      ","
    ],
    [
      " П",
      "а"
    ],
    [
      " са",
      "м"
    ],
    [
      " мо",
      "жет"
    ],
    [
      " про",
      "дол"
    ],
    [
      "ско",
      "й"
    ],
    [
      " особ",
      "енно"
    ],
    [
      "ко",
      "в"
    ],
    [
      " к",
      "ра"
    ],
    [
      "ст",
      "е"
    ],
    [
      " с",
      "по"
    ],
    [
      " в",
      "ели"
    ],
    [
      " в",
      "пере"
    ],
    [
      " с",
      "ы"
    ],
    [
      " н",
      "у"
    ],
    [
      "сти",
      ","
    ],
    [
      " К",
      "о"
    ],
    [
      "..",
      ".\n"
    ],
    [
      " д",
      "ело"
    ],
    [
      "\"",
      ","
    ],
    [
      "то",
      "м"
    ],
    [
      "ка",
      "я"
    ],
    [
      "ны",
      ","
    ],
    [
      " в",
      "ст"
    ],
    [
      " хо",
      "тел"
    ],
    [
      " дру",
      "ги"
    ],
    [
      " сво",
      "его"
    ],
    [
      "ш",
      "ей"
    ],
    [
      "не",
      "е"
    ],
    [
      "ко",
      "е"
    ],
    [
      "д",
      "ет"
    ],
    [
      "ско",
      "лько"
    ],
    [
      " о",
      "дин"
    ],
    [
      " бол",
      "ее"
    ],
    [
      "ся",
      ","
    ],
    [
      " то",
      "м,"
    ],
    [
      " с",
      "е"
    ],
    [
      " не",
      "при"
    ],
    [
      " д",
      "ел"
    ],
    [
      " г",
      "енер"
    ],
    [
      "ш",
      "ла"
    ],
    [
      "лу",
      "ч"
    ],
    [
      " Н",
      "у,"
    ],
    [
      " с",
      "дела"
    ],
    [
      " госуда",
      "р"
    ],
    [
      " им",
      "перато"
    ],
    [
      "ч",
      "ер"
    ],
    [
      " вс",
      "ем"
    ],
    [
      " с",
      "ко"
    ],
    [
      " Ку",
      "ту"
    ],
    [
      "й",
      "."
    ],
    [
      "ж",
      "ен"
    ],
    [
      "до",
      "м"
    ],
    [
      " на",
      "чал"
    ],
    [
      "а",
      "з"
    ],
    [
      "ст",
      "но"
    ],
    [
      " ",
      "ла"
    ],
    [
      " по",
      "до"
    ],
    [
      " о",
      "гля"
    ],
    [
      "д",
      "руг"
    ],
    [
      "в",
      "я"
    ],
    [
      " м",
      "ал"
    ],
    [
      " у",
      "м"
    ],
    [
      "сть",
      "ю"
    ],
    [
      "пол",
      "е"
    ],
    [
      " жиз",
      "ни"
    ],
    [
      "д",
      ","
    ],
    [
      " ду",
      "ма"
    ],
    [
      " Ва",
      "сили"
    ],
    [
      "ли",
      "во"
    ],
    [
      "н",
      "ей"
    ],
    [
      " ка",
      "з"
    ],
    [
      "ста",
      "вля"
    ],
    [
      " з",
      "ак"
    ],
    [
      "ере",
      "з"
    ],
    [
      " сто",
      "ро"
    ],
    [
      "ла",
      "го"
    ],
    [
      " ви",
      "ди"
    ],
    [
      "б",
      "уд"
    ],
    [
      " свои",
      "м"
    ],
    [
      "я",
      "."
    ],
    [
      " про",
      "и"
    ],
    [
      " г",
      "де"
    ],
    [
      " мы",
      "с"
    ],
    [
      "ло",
      "сь"
    ],
    [
      " г",
      "ру"
    ],
    [
      " На",
      "поле"
    ],
    [
      " ",
      "ша"
    ],
    [
      " по",
      "ду"
    ],
    [
      "д",
      "ал"
    ],
    [
      "ала",
      ","
    ],
    [
      " его",
      ","
    ],
    [
      "да",
      ","
    ],
    [
      " м",
      "ол"
    ],
    [
      " на",
      "до"
    ],
    [
      "ала",
      "сь"
    ],
    [
      "к",
      "то"
    ],
    [
      " на",
      "с"
    ],
    [
      " гра",
      "фи"
    ],
    [
      " офи",
      "цер"
    ],
    [
      " В",
      "ы"
    ],
    [
      "ша",
      "я"
    ],
    [
      " на",
      "д"
    ],
    [
      " е",
      "сть"
    ],
    [
      "к",
      "рас"
    ],
    [
      "ст",
      "ы"
    ],
    [
      " б",
      "е"
    ],
    [
      " с",
      "ер"
    ],
    [
      " до",
      "б"
    ],
    [
      " ни",
      "ко"
    ],
    [
      "ет",
      "и"
    ],
    [
      " д",
      "ви"
    ],
    [
      " сказ",
      "а"
    ],
    [
      "енны",
      "й"
    ],
    [
      "ало",
      "сь"
    ],
    [
      " это",
      "м"
    ],
    [
      " Ан",
      "на"
    ],
    [
      " пре",
      "ж"
    ],
    [
      " ва",
      "с"
    ],
    [
      " пи",
      "сь"
    ],
    [
      "р",
      ","
    ],
    [
      " ",
      "Ж"
    ],
    [
      " д",
      "ва"
    ],
    [
      " Д",
      "ени"
    ],
    [
      " что",
      "-то"
    ],
    [
      " пото",
      "му"
    ],
    [
      "д",
      "ъ"
    ],
    [
      "ки",
      "й"
    ],
    [
      "ст",
      "ву"
    ],
    [
      "мот",
      "ря"
    ],
    [
      " ко",
      "н"
    ],
    [
      "ю",
      "та"
    ],
    [
      "мо",
      ","
    ],
    [
      " моло",
      "до"
    ],
    [
      " ар",
      "ми"
    ],
    [
      " в",
      "друг"
    ],
    [
      "х",
      "."
    ],
    [
      " это",
      "й"
    ],
    [
      " ра",
      "до"
    ],
    [
      "дъ",
      "юта"
    ],
    [
      "ста",
      "ви"
    ],
    [
      " Андре",
      "й,"
    ],
    [
      " ру",
      "с"
    ],
    [
      " Па",
      "в"
    ],
    [
      " к",
      "ро"
    ],
    [
      "д",
      "ей"
    ],
    [
      " ни",
      "м"
    ],
    [
      " Б",
      "ол"
    ],
    [
      "ж",
      "ду"
    ],
    [
      " ж",
      "ела"
    ],
    [
      "вы",
      "й"
    ],
    [
      " ко",
      "ман"
    ],
    [
      "ч",
      "у"
    ],
    [
      "ен",
      ","
    ],
    [
      " с",
      "дел"
    ],
    [
      "-",
      "ни"
    ],
    [
      " хоро",
      "шо"
    ],
    [
      "-ни",
      "буд"
    ],
    [
      "т",
      "ра"
    ],
    [
      "ни",
      "м"
    ],
    [
      " по",
      "ня"
    ],
    [
      " в",
      "ол"
    ],
    [
      " ",
      "ше"
    ],
    [
      "ми",
      "."
    ],
    [
      " сво",
      "е"
    ],
    [
      " до",
      "ро"
    ],
    [
      " Н",
      "ет,"
    ],
    [
      " после",
      "д"
    ],
    [
      " не",
      "е"
    ],
    [
      "на",
      "то"
    ],
    [
      "п",
      "ре"
    ],
    [
      " В",
      "се"
    ],
    [
      " вы",
      "ражени"
    ],
    [
      " е",
      "жели"
    ],
    [
      " ч",
      "ер"
    ],
    [
      " которо",
      "й"
    ],
    [
      " улы",
      "ба"
    ],
    [
      " с",
      "вет"
    ],
    [
      " не",
      "й"
    ],
    [
      " в",
      "ся"
    ],
    [
      " то",
      "л"
    ],
    [
      "али",
      ","
    ],
    [
      " сп",
      "ра"
    ],
    [
      " сов",
      "ер"
    ],
    [
      "ст",
      "я"
    ],
    [
      "ла",
      ","
    ],
    [
      "н",
      "е,"
    ],
    [
      " было",
      ","
    ],
    [
      " э",
      "ту"
    ],
    [
      "ны",
      "ми"
    ],
    [
      " в",
      "ме"
    ],
    [
      " д",
      "и"
    ],
    [
      " у",
      "ви"
    ],
    [
      "сть",
      ","
    ],
    [
      " п",
      "е"
    ],
    [
      "ел",
      "ы"
    ],
    [
      "о",
      "на"
    ],
    [
      " со",
      "б"
    ],
    [
      " ли",
      "ца"
    ],
    [
      " А",
      "нато"
    ],
    [
      " П",
      "ет"
    ],
    [
      "ю",
      "ще"
    ],
    [
      "ться",
      ","
    ],
    [
      " друго",
      "й"
    ],
    [
      " б",
      "ле"
    ],
    [
      " которо",
      "е"
    ],
    [
      " Г",
      "о"
    ],
    [
      " с",
      "лыш"
    ],
    [
      " кото",
      "рая"
    ],
    [
      "ва",
      "р"
    ],
    [
      " Б",
      "а"
    ],
    [
      "ты",
      ","
    ],
    [
      " да",
      "же"
    ],
    [
      " сча",
      "ст"
    ],
    [
      " то",
      "т"
    ],
    [
      " мо",
      "й"
    ],
    [
      " из",
      "ве"
    ],
    [
      "ски",
      "е"
    ],
    [
      " сло",
      "ва"
    ],
    [
      " не",
      "сколько"
    ],
    [
      "но",
      "м"
    ],
    [
      " б",
      "ра"
    ],
    [
      "г",
      "ла"
    ],
    [
      " ш",
      "у"
    ],
    [
      "х",
      "и"
    ],
    [
      " дру",
      "г"
    ],
    [
      " Да",
      ","
    ],
    [
      " Ми",
      "ха"
    ],
    [
      " оста",
      "нови"
    ],
    [
      " Пав",
      "лов"
    ],
    [
      "в",
      "ст"
    ],
    [
      " г",
      "лу"
    ],
    [
      " вз",
      "я"
    ],
    [
      " о",
      "с"
    ],
    [
      " д",
      "ер"
    ],
    [
      " с",
      "ка"
    ],
    [
      "ет",
      "е"
    ],
    [
      "ди",
      ","
    ],
    [
      "та",
      ","
    ],
    [
      " му",
      "ж"
    ],
    [
      " ",
      "луч"
    ],
    [
      "но",
      "ва"
    ],
    [
      " ст",
      "ал"
    ],
    [
      " обра",
      "ти"
    ],
    [
      " спроси",
      "л"
    ],
    [
      "м",
      "ни"
    ],
    [
      " ва",
      "м"
    ],
    [
      "б",
      "ур"
    ],
    [
      " б",
      "ли"
    ],
    [
      "ры",
      "й"
    ],
    [
      " жен",
      "щи"
    ],
    [
      "ю",
      "ш"
    ],
    [
      " не",
      "м"
    ],
    [
      "ени",
      "и"
    ],
    [
      "ку",
      "ю"
    ],
    [
      " на",
      "ходи"
    ],
    [
      "ш",
      "ь,"
    ],
    [
      " отве",
      "чал"
    ],
    [
      "с",
      "ы"
    ],
    [
      " ",
      "Ф"
    ],
    [
      " не",
      "о"
    ],
    [
      " т",
      "я"
    ],
    [
      "ня",
      ","
    ],
    [
      " г",
      "ля"
    ],
    [
      " про",
      "ти"
    ],
    [
      "лся",
      ","
    ],
    [
      " д",
      "вер"
    ],
    [
      "ени",
      "ем"
    ],
    [
      "вая",
      "сь"
    ],
    [
      " которо",
      "го"
    ],
    [
      " францу",
      "з"
    ],
    [
      "б",
      "у"
    ],
    [
      " к",
      "ре"
    ],
    [
      " гла",
      "вно"
    ],
    [
      " Бори",
      "с"
    ],
    [
      " мал",
      "ень"
    ],
    [
      " Бол",
      "кон"
    ],
    [
      " ме",
      "жду"
    ],
    [
      " к",
      "то"
    ],
    [
      "т",
      "ся"
    ],
    [
      " по",
      "лу"
    ],
    [
      " боль",
      "ше"
    ],
    [
      "ал",
      "е"
    ],
    [
      "ш",
      "но"
    ],
    [
      "ну",
      "ла"
    ],
    [
      "вал",
      ","
    ],
    [
      " она",
      ","
    ],
    [
      "вши",
      "сь"
    ],
    [
      " ру",
      "ку"
    ],
    [
      "енны",
      "м"
    ],
    [
      " свои",
      "х"
    ],
    [
      " б",
      "лаго"
    ],
    [
      "во",
      "го"
    ],
    [
      " во",
      "т"
    ],
    [
      "ча",
      "я"
    ],
    [
      " ка",
      "ж"
    ],
    [
      "вши",
      "е"
    ],
    [
      " Т",
      "ак"
    ],
    [
      "п",
      "ар"
    ],
    [
      " нико",
      "гда"
    ],
    [
      " а",
      "дъюта"
    ],
    [
      "и",
      "н"
    ],
    [
      "ц",
      ","
    ],
    [
      " с",
      "ла"
    ],
    [
      "л",
      "ет"
    ],
    [
      " с",
      "ви"
    ],
    [
      " и",
      "ме"
    ],
    [
      "ни",
      "к"
    ],
    [
      "ру",
      "ю"
    ],
    [
      " вы",
      "со"
    ],
    [
      "я",
      "сь,"
    ],
    [
      " Мо",
      "ск"
    ],
    [
      " нес",
      "мотря"
    ],
    [
      " ",
      "1"
    ],
    [
      "ен",
      "ы"
    ],
    [
      "д",
      "ро"
    ],
    [
      "ко",
      ","
    ],
    [
      "ж",
      "ала"
    ],
    [
      " его",
      "."
    ],
    [
      " го",
      "сти"
    ],
    [
      "вал",
      "ся"
    ],
    [
      "ски",
      "х"
    ],
    [
      " ви",
      "дел"
    ],
    [
      " ре",
      "ши"
    ],
    [
      " З",
      "а"
    ],
    [
      " ч",
      "ерез"
    ],
    [
      "ер",
      "бур"
    ],
    [
      "з",
      "я"
    ],
    [
      "во",
      "ря"
    ],
    [
      " говори",
      "ть"
    ],
    [
      " ру",
      "ка"
    ],
    [
      " мог",
      "у"
    ],
    [
      "сту",
      "п"
    ],
    [
      " од",
      "на"
    ],
    [
      " поло",
      "жени"
    ],
    [
      "-нибуд",
      "ь"
    ],
    [
      " кня",
      "ги"
    ],
    [
      "в",
      "шего"
    ],
    [
      " Куту",
      "зов"
    ],
    [
      " Миха",
      "й"
    ],
    [
      ":",
      "\n"
    ],
    [
      "ж",
      "на"
    ],
    [
      " К",
      "а"
    ],
    [
      " ве",
      "сь"
    ],
    [
      "е",
      "в"
    ],
    [
      "ж",
      "у"
    ],
    [
      "ра",
      "з"
    ],
    [
      "ди",
      "л"
    ],
    [
      "ол",
      "ь"
    ],
    [
      " все",
      "го"
    ],
    [
      "хо",
      "дя"
    ],
    [
      "сту",
      "пи"
    ],
    [
      "да",
      "ть"
    ],
    [
      " ж",
      "е,"
    ],
    [
      " п",
      "ря"
    ],
    [
      "дно",
      ","
    ],
    [
      " з",
      "ву"
    ],
    [
      " ста",
      "ри"
    ],
    [
      " по",
      "нима"
    ],
    [
      " вес",
      "ело"
    ],
    [
      " о",
      "г"
    ],
    [
      " то",
      "го"
    ],
    [
      " д",
      "ей"
    ],
    [
      "ч",
      "ала"
    ],
    [
      " д",
      "ере"
    ],
    [
      "ве",
      "д"
    ],
    [
      " види",
      "мо,"
    ],
    [
      " Марь",
      "я"
    ],
    [
      "ва",
      "ри"
    ],
    [
      " что",
      ","
    ],
    [
      "хо",
      "т"
    ],
    [
      "д",
      "ца"
    ],
    [
      " совер",
      "ш"
    ],
    [
      " о",
      "к"
    ],
    [
      "ра",
      "в"
    ],
    [
      " по",
      "з"
    ],
    [
      "ва",
      "н"
    ],
    [
      "й",
      "ти"
    ],
    [
      "ко",
      "й,"
    ],
    [
      " М",
      "а"
    ],
    [
      " ну",
      "жно"
    ],
    [
      " Дени",
      "сов"
    ],
    [
      "\"",
      "."
    ],
    [
      " по",
      "в"
    ],
    [
      " об",
      "ъ"
    ],
    [
      " Пьер",
      ","
    ],
    [
      "н",
      "д"
    ],
    [
      " по",
      "-"
    ],
    [
      "ну",
      ","
    ],
    [
      "гра",
      "ти"
    ],
    [
      " коман",
      "ди"
    ],
    [
      " Ба",
      "грати"
    ],
    [
      " вы",
      "с"
    ],
    [
      "ле",
      "к"
    ],
    [
      " до",
      "ма"
    ],
    [
      "ча",
      "с"
    ],
    [
      "т",
      "у,"
    ],
    [
      " челове",
      "к"
    ],
    [
      "т",
      "аль"
    ],
    [
      " спо",
      "кой"
    ],
    [
      "ство",
      ","
    ],
    [
      " княж",
      "на"
    ],
    [
      ")",
      ","
    ],
    [
      "ер",
      "и"
    ],
    [
      "с",
      "ем"
    ],
    [
      "с",
      "ле"
    ],
    [
      "ени",
      "я,"
    ],
    [
      "вал",
      "о"
    ],
    [
      " которы",
      "х"
    ],
    [
      " зам",
      "ети"
    ],
    [
      "вы",
      "м"
    ],
    [
      "вши",
      "х"
    ],
    [
      " которо",
      "м"
    ],
    [
      " ду",
      "мал"
    ],
    [
      " бу",
      "ду"
    ],
    [
      " Во",
      "т"
    ],
    [
      "ербур",
      "г"
    ],
    [
      "ди",
      "ть"
    ],
    [
      " княз",
      "ю"
    ],
    [
      "е",
      "ха"
    ],
    [
      "вст",
      "ри"
    ],
    [
      " кото",
      "рую"
    ],
    [
      " Михай",
      "лов"
    ],
    [
      "и",
      "."
    ],
    [
      " ",
      "Ш"
    ],
    [
      " т",
      "ру"
    ],
    [
      " об",
      "о"
    ],
    [
      " на",
      "за"
    ],
    [
      "то",
      "й"
    ],
    [
      "т",
      "ре"
    ],
    [
      " вс",
      "по"
    ],
    [
      " говори",
      "ла"
    ],
    [
      " ду",
      "м"
    ],
    [
      " со",
      "бо"
    ],
    [
      " к",
      "рас"
    ],
    [
      " са",
      "мы"
    ],
    [
      "ни",
      "ц"
    ],
    [
      "енно",
      "го"
    ],
    [
      " ви",
      "де"
    ],
    [
      "ало",
      "сь,"
    ],
    [
      " граф",
      "а"
    ],
    [
      "ст",
      "ра"
    ],
    [
      " т",
      "и"
    ],
    [
      " у",
      "ди"
    ],
    [
      " вс",
      "е,"
    ],
    [
      " ка",
      "р"
    ],
    [
      " об",
      "ще"
    ],
    [
      " то",
      "же"
    ],
    [
      "ур",
      "ь"
    ],
    [
      " м",
      "ного"
    ],
    [
      "к",
      "нов"
    ],
    [
      " со",
      "стоя"
    ],
    [
      " генер",
      "ал"
    ],
    [
      " дере",
      "в"
    ],
    [
      "с",
      "но"
    ],
    [
      "ны",
      "й,"
    ],
    [
      " теб",
      "е"
    ],
    [
      "во",
      "е"
    ],
    [
      "к",
      "е,"
    ],
    [
      " при",
      "ня"
    ],
    [
      " С",
      "та"
    ],
    [
      " Н",
      "ес"
    ],
    [
      "енны",
      "е"
    ],
    [
      " хо",
      "тя"
    ],
    [
      " дви",
      "жени"
    ],
    [
      "о",
      "м"
    ],
    [
      "ро",
      "го"
    ],
    [
      " го",
      "р"
    ],
    [
      "ти",
      "л"
    ],
    [
      " п",
      "ле"
    ],
    [
      " Т",
      "ы"
    ],
    [
      " Т",
      "у"
    ],
    [
      "енны",
      "х"
    ],
    [
      " по",
      "бе"
    ],
    [
      " эти",
      "х"
    ],
    [
      "ра",
      "зи"
    ],
    [
      "до",
      "воль"
    ],
    [
      " спра",
      "ши"
    ],
    [
      "ш",
      "ли"
    ],
    [
      "ни",
      "й"
    ],
    [
      " так",
      ","
    ],
    [
      " пос",
      "мот"
    ],
    [
      "шу",
      "ю"
    ],
    [
      " не",
      "т"
    ],
    [
      "ла",
      "н"
    ],
    [
      " из",
      "м"
    ],
    [
      " ста",
      "р"
    ],
    [
      "ш",
      "ему"
    ],
    [
      "!",
      "\n"
    ],
    [
      " П",
      "ро"
    ],
    [
      " В",
      "и"
    ],
    [
      " сво",
      "й"
    ],
    [
      " Наташа",
      ","
    ],
    [
      " гу",
      "са"
    ],
    [
      " пре",
      "крас"
    ],
    [
      "м",
      "я"
    ],
    [
      "\"",
      ".\n"
    ],
    [
      " за",
      "бы"
    ],
    [
      " бы",
      "ть,"
    ],
    [
      " д",
      "ву"
    ],
    [
      "ска",
      "я"
    ],
    [
      " счаст",
      "ли"
    ],
    [
      "ка",
      "."
    ],
    [
      " не",
      "му"
    ],
    [
      " ду",
      "р"
    ],
    [
      " ф",
      "и"
    ],
    [
      " ч",
      "его"
    ],
    [
      " боль",
      "шо"
    ],
    [
      " и",
      "нт"
    ],
    [
      " объ",
      "я"
    ],
    [
      "б",
      "л"
    ],
    [
      " ",
      "Х"
    ],
    [
      "н",
      "ет"
    ],
    [
      " по",
      "хо"
    ],
    [
      "ви",
      "л"
    ],
    [
      " ",
      "ши"
    ],
    [
      "ши",
      "х"
    ],
    [
      "ше",
      "е"
    ],
    [
      "ца",
      ","
    ],
    [
      " поч",
      "ти"
    ],
    [
      "говори",
      "л"
    ],
    [
      " Долохо",
      "в"
    ],
    [
      "ю",
      ".\n"
    ],
    [
      " к",
      "ру"
    ],
    [
      " О",
      "ни"
    ],
    [
      "мо",
      "жно"
    ],
    [
      " ты",
      "ся"
    ],
    [
      " вой",
      "ска"
    ],
    [
      " мину",
      "ту"
    ],
    [
      " вст",
      "ре"
    ],
    [
      " начал",
      "ь"
    ],
    [
      " гля",
      "дя"
    ],
    [
      "на",
      "."
    ],
    [
      "к",
      "ла"
    ],
    [
      " с",
      "ли"
    ],
    [
      " от",
      "но"
    ],
    [
      "ки",
      "м"
    ],
    [
      "со",
      "м"
    ],
    [
      " у",
      "жа"
    ],
    [
      " Г",
      "ра"
    ],
    [
      " ве",
      "чер"
    ],
    [
      "е",
      "ра"
    ],
    [
      " что",
      "б"
    ],
    [
      " по",
      "каз"
    ],
    [
      " улыб",
      "кой"
    ],
    [
      " ту",
      "т"
    ],
    [
      " смот",
      "рел"
    ],
    [
      " расс",
      "казы"
    ],
    [
      "и",
      "т"
    ],
    [
      "во",
      ","
    ],
    [
      "х",
      "ва"
    ],
    [
      "т",
      "ак"
    ],
    [
      " по",
      "мо"
    ],
    [
      " н",
      "ов"
    ],
    [
      " из",
      "-"
    ],
    [
      "с",
      "си"
    ],
    [
      " н",
      "ы"
    ],
    [
      " за",
      "ня"
    ],
    [
      " О",
      "т"
    ],
    [
      "ско",
      "м"
    ],
    [
      " вы",
      "шел"
    ],
    [
      " ш",
      "та"
    ],
    [
      " сча",
      "сть"
    ],
    [
      " преж",
      "де"
    ],
    [
      " А",
      "лек"
    ],
    [
      "у",
      "ю"
    ],
    [
      "ст",
      "ер"
    ],
    [
      " ч",
      "е"
    ],
    [
      " т",
      "ро"
    ],
    [
      " то",
      "н"
    ],
    [
      " ж",
      "ени"
    ],
    [
      " ни",
      "х"
    ],
    [
      " Б",
      "ер"
    ],
    [
      "енно",
      "й"
    ],
    [
      " с",
      "ве"
    ],
    [
      "га",
      ","
    ],
    [
      " не",
      "го,"
    ],
    [
      " те",
      "х"
    ],
    [
      " продол",
      "жал"
    ],
    [
      " огля",
      "ды"
    ],
    [
      " вме",
      "сте"
    ],
    [
      "встри",
      "й"
    ],
    [
      "ра",
      "ж"
    ],
    [
      "ви",
      "ц"
    ],
    [
      " то",
      "гда"
    ],
    [
      "д",
      "ему"
    ],
    [
      "ну",
      "лась"
    ],
    [
      " разго",
      "вор"
    ],
    [
      " во",
      "про"
    ],
    [
      " пря",
      "мо"
    ],
    [
      " Б",
      "урь"
    ],
    [
      "дему",
      "аз"
    ],
    [
      "к",
      "ал"
    ],
    [
      "б",
      "но"
    ],
    [
      "ч",
      "ет"
    ],
    [
      " д",
      "ет"
    ],
    [
      " сво",
      "ем"
    ],
    [
      "я",
      "тель"
    ],
    [
      " впере",
      "д"
    ],
    [
      " дол",
      "жен"
    ],
    [
      " прои",
      "з"
    ],
    [
      " мол",
      "ча"
    ],
    [
      " адъюта",
      "н"
    ],
    [
      "демуаз",
      "ель"
    ],
    [
      "о",
      "р"
    ],
    [
      " у",
      "т"
    ],
    [
      "ни",
      "и"
    ],
    [
      "ть",
      ".\n"
    ],
    [
      " так",
      "и"
    ],
    [
      " под",
      "ня"
    ],
    [
      " зна",
      "ю,"
    ],
    [
      " эти",
      "м"
    ],
    [
      " пото",
      "м"
    ],
    [
      "к",
      "нул"
    ],
    [
      "ч",
      "то"
    ],
    [
      "ем",
      "ы"
    ],
    [
      "ка",
      "ми"
    ],
    [
      " за",
      "с"
    ],
    [
      " про",
      "си"
    ],
    [
      " Андре",
      "я"
    ],
    [
      "стви",
      "е"
    ],
    [
      " кра",
      "си"
    ],
    [
      " поду",
      "мал"
    ],
    [
      " тя",
      "ж"
    ],
    [
      "т",
      "ри"
    ],
    [
      "к",
      "ло"
    ],
    [
      "ч",
      "ем"
    ],
    [
      "ми",
      "на"
    ],
    [
      " го",
      "то"
    ],
    [
      " под",
      "ъ"
    ],
    [
      " ему",
      ","
    ],
    [
      " ст",
      "ран"
    ],
    [
      " на",
      "пра"
    ],
    [
      " смот",
      "р"
    ],
    [
      " Э",
      "лен"
    ],
    [
      " Ко",
      "гда"
    ],
    [
      " с",
      "вя"
    ],
    [
      " Анато",
      "ль"
    ],
    [
      " соверш",
      "енно"
    ],
    [
      "а",
      "н"
    ],
    [
      "т",
      "ал"
    ],
    [
      "ва",
      "ет"
    ],
    [
      " с",
      "чи"
    ],
    [
      "по",
      "д"
    ],
    [
      "в",
      "ство"
    ],
    [
      " зна",
      "ет"
    ],
    [
      " голо",
      "с"
    ],
    [
      " Росто",
      "в,"
    ],
    [
      " ра",
      "вно"
    ],
    [
      " челове",
      "к,"
    ],
    [
      "ства",
      ","
    ],
    [
      " с",
      "ражени"
    ],
    [
      " кро",
      "ме"
    ],
    [
      "на",
      "пар"
    ],
    [
      " пов",
      "то"
    ],
    [
      "ю",
      "щ"
    ],
    [
      "в",
      "ра"
    ],
    [
      " по",
      "р"
    ],
    [
      "ко",
      "м,"
    ],
    [
      "ва",
      "ться"
    ],
    [
      " при",
      "ба"
    ],
    [
      " в",
      "нима"
    ],
    [
      " при",
      "ят"
    ],
    [
      " нес",
      "ча"
    ],
    [
      " разго",
      "во"
    ],
    [
      " Наполе",
      "он"
    ],
    [
      " Пет",
      "ербург"
    ],
    [
      " а",
      "встрий"
    ],
    [
      "ра",
      "к"
    ],
    [
      " ч",
      "ет"
    ],
    [
      "чи",
      "л"
    ],
    [
      " ми",
      "лы"
    ],
    [
      " так",
      "им"
    ],
    [
      " доб",
      "ро"
    ],
    [
      "р",
      "ен"
    ],
    [
      "во",
      "з"
    ],
    [
      " э",
      "та"
    ],
    [
      " не",
      "до"
    ],
    [
      " з",
      "де"
    ],
    [
      " ру",
      "ки"
    ],
    [
      " которы",
      "м"
    ],
    [
      " от",
      "вет"
    ],
    [
      "р",
      "ь"
    ],
    [
      "г",
      ","
    ],
    [
      "ре",
      "д"
    ],
    [
      "ени",
      "е,"
    ],
    [
      "ра",
      "ви"
    ],
    [
      "не",
      "с"
    ],
    [
      "по",
      "ло"
    ],
    [
      " за",
      "ме"
    ],
    [
      " оп",
      "у"
    ],
    [
      "ющи",
      "й"
    ],
    [
      "д",
      "ей,"
    ],
    [
      " инт",
      "ере"
    ],
    [
      " Алек",
      "са"
    ],
    [
      " ко",
      "ро"
    ],
    [
      "ш",
      "е,"
    ],
    [
      " С",
      "пе"
    ],
    [
      " одно",
      "го"
    ],
    [
      " от",
      "кры"
    ],
    [
      " зак",
      "ри"
    ],
    [
      " сов",
      "сем"
    ],
    [
      " Спе",
      "ран"
    ],
    [
      " в",
      "ел"
    ],
    [
      " у",
      "ж"
    ],
    [
      "ча",
      "т"
    ],
    [
      "ча",
      "й"
    ],
    [
      " хо",
      "ло"
    ],
    [
      " на",
      "де"
    ],
    [
      " у",
      "би"
    ],
    [
      "вши",
      "сь,"
    ],
    [
      " Пьер",
      "a"
    ],
    [
      " пер",
      "ем"
    ],
    [
      " обра",
      "ща"
    ],
    [
      "ко",
      "ман"
    ],
    [
      " теб",
      "я"
    ],
    [
      " пред",
      "ставля"
    ],
    [
      " лю",
      "дей"
    ],
    [
      " Бо",
      "напар"
    ],
    [
      "н",
      "ю"
    ],
    [
      "я",
      "д"
    ],
    [
      " он",
      "."
    ],
    [
      " от",
      "е"
    ],
    [
      " вс",
      "ю"
    ],
    [
      " мо",
      "жно"
    ],
    [
      " Е",
      "жели"
    ],
    [
      " ис",
      "пы"
    ],
    [
      " жиз",
      "нь"
    ],
    [
      " подо",
      "шел"
    ],
    [
      " Васили",
      "й"
    ],
    [
      "юще",
      "го"
    ],
    [
      " проти",
      "в"
    ],
    [
      " каз",
      "алось,"
    ],
    [
      "коман",
      "ду"
    ],
    [
      "б",
      "ли"
    ],
    [
      "м",
      ".\n"
    ],
    [
      "ж",
      "да"
    ],
    [
      "ни",
      "ем"
    ],
    [
      " е",
      "е,"
    ],
    [
      " ж",
      "ел"
    ],
    [
      " во",
      "с"
    ],
    [
      "ч",
      "али"
    ],
    [
      "д",
      "ели"
    ],
    [
      " при",
      "ез"
    ],
    [
      "й",
      "те"
    ],
    [
      "ко",
      "в,"
    ],
    [
      " одно",
      "й"
    ],
    [
      " у",
      "зна"
    ],
    [
      " ис",
      "пу"
    ],
    [
      " пра",
      "в"
    ],
    [
      " ожи",
      "да"
    ],
    [
      " муж",
      "чи"
    ],
    [
      " Х",
      "о"
    ],
    [
      " Алекса",
      "нд"
    ],
    [
      " по",
      "ц"
    ],
    [
      "ер",
      "о"
    ],
    [
      "ро",
      "д"
    ],
    [
      "ну",
      "в"
    ],
    [
      " про",
      "сто"
    ],
    [
      "ни",
      "я,"
    ],
    [
      " А",
      "х,"
    ],
    [
      " голо",
      "ву"
    ],
    [
      "ш",
      "ком"
    ],
    [
      " при",
      "ехал"
    ],
    [
      " Со",
      "ня"
    ],
    [
      " дей",
      "стви"
    ],
    [
      "ни",
      ","
    ],
    [
      "е",
      ".\n"
    ],
    [
      " о",
      "ру"
    ],
    [
      "ше",
      "д"
    ],
    [
      "ско",
      "му"
    ],
    [
      " ка",
      "би"
    ],
    [
      " си",
      "ль"
    ],
    [
      " госуда",
      "ря"
    ],
    [
      " Л",
      "и"
    ],
    [
      " солда",
      "т"
    ],
    [
      " наза",
      "д"
    ],
    [
      " дву",
      "х"
    ],
    [
      "у",
      "вство"
    ],
    [
      " т",
      "ри"
    ],
    [
      " ко",
      "го"
    ],
    [
      " не",
      "ль"
    ],
    [
      "ж",
      "али"
    ],
    [
      " ",
      "ря"
    ],
    [
      "ски",
      "м"
    ],
    [
      " пол",
      "ко"
    ],
    [
      " люб",
      "ов"
    ],
    [
      "дер",
      "жи"
    ],
    [
      " пись",
      "мо"
    ],
    [
      " сдел",
      "ал"
    ],
    [
      " обрати",
      "лся"
    ],
    [
      " го",
      "воря"
    ],
    [
      " нов",
      "ы"
    ],
    [
      " главно",
      "команду"
    ],
    [
      "ри",
      "л"
    ],
    [
      " у",
      "ч"
    ],
    [
      "н",
      "ем"
    ],
    [
      "не",
      "го"
    ],
    [
      " ва",
      "ше"
    ],
    [
      " та",
      "кой"
    ],
    [
      " та",
      "м"
    ],
    [
      " Росто",
      "вы"
    ],
    [
      "сту",
      "па"
    ],
    [
      " бы",
      "стро"
    ],
    [
      "в",
      "шей"
    ],
    [
      "с",
      "кую"
    ],
    [
      " об",
      "ы"
    ],
    [
      " на",
      "чи"
    ],
    [
      "с",
      "лу"
    ],
    [
      "ва",
      "ть,"
    ],
    [
      " зна",
      "чи"
    ],
    [
      "жа",
      "я"
    ],
    [
      " ле",
      "г"
    ],
    [
      " ог",
      "ром"
    ],
    [
      " ма",
      "демуазель"
    ],
    [
      "я",
      "н"
    ],
    [
      "с",
      "л"
    ],
    [
      "I",
      "\n"
    ],
    [
      "х",
      "ал"
    ],
    [
      "н",
      "ал"
    ],
    [
      "и",
      "ли"
    ],
    [
      " врем",
      "ени"
    ],
    [
      "рел",
      "е"
    ],
    [
      "воль",
      "но"
    ],
    [
      " лоша",
      "дь"
    ],
    [
      "ска",
      "дро"
    ],
    [
      "яд",
      "юш"
    ],
    [
      " ",
      "л"
    ],
    [
      "во",
      "ро"
    ],
    [
      " по",
      "ка"
    ],
    [
      " е",
      "з"
    ],
    [
      " з",
      "ло"
    ],
    [
      " с",
      "ем"
    ],
    [
      "ны",
      "м,"
    ],
    [
      "че",
      "ра"
    ],
    [
      " при",
      "вы"
    ],
    [
      " себ",
      "я,"
    ],
    [
      " мог",
      "ла"
    ],
    [
      " ме",
      "сто"
    ],
    [
      " челове",
      "ка,"
    ],
    [
      " пото",
      "му,"
    ],
    [
      " сказа",
      "ть"
    ],
    [
      " луч",
      "ше"
    ],
    [
      "ч",
      "о"
    ],
    [
      " м",
      "но"
    ],
    [
      " то",
      "й"
    ],
    [
      "ло",
      "ви"
    ],
    [
      " с",
      "ере"
    ],
    [
      " но",
      ","
    ],
    [
      " ра",
      "бо"
    ],
    [
      "с",
      "ходи"
    ],
    [
      " ли",
      "це"
    ],
    [
      " б",
      "роси"
    ],
    [
      "дер",
      "жа"
    ],
    [
      " пер",
      "вый"
    ],
    [
      " бле",
      "стя"
    ],
    [
      " изве",
      "сти"
    ],
    [
      " ста",
      "рый"
    ],
    [
      " поч",
      "увство"
    ],
    [
      "ка",
      "х"
    ],
    [
      " ко",
      "ло"
    ],
    [
      " то",
      "м"
    ],
    [
      "у",
      "хо"
    ],
    [
      "ну",
      "ть"
    ],
    [
      " то",
      "му"
    ],
    [
      " П",
      "ри"
    ],
    [
      " пре",
      "з"
    ],
    [
      " И",
      "з"
    ],
    [
      " гла",
      "з"
    ],
    [
      "пи",
      "та"
    ],
    [
      " да",
      "вно"
    ],
    [
      "ют",
      "ся"
    ],
    [
      " зн",
      "ал,"
    ],
    [
      " ско",
      "ро"
    ],
    [
      " Р",
      "аз"
    ],
    [
      "е",
      "шь,"
    ],
    [
      " отно",
      "ш"
    ],
    [
      " лю",
      "дей,"
    ],
    [
      "а",
      ","
    ],
    [
      " к",
      "и"
    ],
    [
      "ш",
      "ал"
    ],
    [
      " п",
      "ло"
    ],
    [
      "ш",
      "ло"
    ],
    [
      " в",
      "ла"
    ],
    [
      "ва",
      "."
    ],
    [
      " это",
      ","
    ],
    [
      " ни",
      "ка"
    ],
    [
      "ла",
      "га"
    ],
    [
      " Т",
      "и"
    ],
    [
      " князь",
      ","
    ],
    [
      " си",
      "дел"
    ],
    [
      " пред",
      "ло"
    ],
    [
      " на",
      "зы"
    ],
    [
      " со",
      "об"
    ],
    [
      " ма",
      "тер"
    ],
    [
      " го",
      "спо"
    ],
    [
      " молодо",
      "й"
    ],
    [
      " у",
      "доволь"
    ],
    [
      "и",
      "л"
    ],
    [
      " д",
      "ы"
    ],
    [
      " у",
      "го"
    ],
    [
      " ра",
      "н"
    ],
    [
      " во",
      "ло"
    ],
    [
      " и",
      "сто"
    ],
    [
      "г",
      "у,"
    ],
    [
      " с",
      "лы"
    ],
    [
      " дру",
      "га"
    ],
    [
      " у",
      "бе"
    ],
    [
      "вали",
      "сь"
    ],
    [
      " стоя",
      "л"
    ],
    [
      " пла",
      "ть"
    ],
    [
      " ба",
      "таль"
    ],
    [
      " Ту",
      "ши"
    ],
    [
      " Нес",
      "виц"
    ],
    [
      " сли",
      "шком"
    ],
    [
      "т",
      "."
    ],
    [
      "то",
      "го"
    ],
    [
      "в",
      "у,"
    ],
    [
      "сть",
      "ю,"
    ],
    [
      " по",
      "шел"
    ],
    [
      " с",
      "ерь"
    ],
    [
      " дол",
      "жно"
    ],
    [
      " ни",
      "кто"
    ],
    [
      " шта",
      "б"
    ],
    [
      " серь",
      "ез"
    ],
    [
      "?",
      "\""
    ],
    [
      " о",
      "ст"
    ],
    [
      "ма",
      ","
    ],
    [
      "жи",
      "да"
    ],
    [
      "р",
      "же"
    ],
    [
      " говори",
      "ли"
    ],
    [
      " свои",
      "ми"
    ],
    [
      " Никола",
      "й,"
    ],
    [
      " говорил",
      ","
    ],
    [
      " ис",
      "к"
    ],
    [
      " офи",
      "це"
    ],
    [
      "вший",
      "ся"
    ],
    [
      " та",
      "кое"
    ],
    [
      " непри",
      "ят"
    ],
    [
      " сер",
      "ди"
    ],
    [
      " каж",
      "ды"
    ],
    [
      " улыба",
      "ясь,"
    ],
    [
      " Кня",
      "жна"
    ],
    [
      "кнов",
      "енно"
    ],
    [
      " ору",
      "ди"
    ],
    [
      "м",
      "ен"
    ],
    [
      "ш",
      "ка"
    ],
    [
      "ни",
      "з"
    ],
    [
      " ко",
      "р"
    ],
    [
      " он",
      ".\n"
    ],
    [
      " Б",
      "ала"
    ],
    [
      "че",
      "ви"
    ],
    [
      " ст",
      "у"
    ],
    [
      " Б",
      "ез"
    ],
    [
      "су",
      "т"
    ],
    [
      " во",
      "шел"
    ],
    [
      " им",
      "ел"
    ],
    [
      "п",
      "роси"
    ],
    [
      " у",
      "казы"
    ],
    [
      " зн",
      "ал"
    ],
    [
      " ви",
      "нова"
    ],
    [
      " нель",
      "зя"
    ],
    [
      " п",
      "реле"
    ],
    [
      "ст",
      "р"
    ],
    [
      "ро",
      "й"
    ],
    [
      "ни",
      "х"
    ],
    [
      "хо",
      "м"
    ],
    [
      "ки",
      "х"
    ],
    [
      " ",
      "ры"
    ],
    [
      "за",
      "ди"
    ],
    [
      "я",
      "лся"
    ],
    [
      " сп",
      "а"
    ],
    [
      "ды",
      ","
    ],
    [
      " пос",
      "пе"
    ],
    [
      " п",
      "ять"
    ],
    [
      " мен",
      "я,"
    ],
    [
      " улыб",
      "нулся"
    ],
    [
      " жизни",
      ","
    ],
    [
      " графи",
      "ня"
    ],
    [
      " э",
      "скадро"
    ],
    [
      " о",
      "то"
    ],
    [
      "ко",
      "ло"
    ],
    [
      " у",
      "ст"
    ],
    [
      "ш",
      "ем"
    ],
    [
      "ры",
      ","
    ],
    [
      "сто",
      "й"
    ],
    [
      " во",
      "сто"
    ],
    [
      "я",
      "тел"
    ],
    [
      "ве",
      "з"
    ],
    [
      " по",
      "вер"
    ],
    [
      " \"",
      "Н"
    ],
    [
      " вз",
      "до"
    ],
    [
      "пи",
      "са"
    ],
    [
      " Ната",
      "ши"
    ],
    [
      " ис",
      "пол"
    ],
    [
      "пу",
      "сти"
    ],
    [
      " во",
      "об"
    ],
    [
      "пра",
      "вля"
    ],
    [
      " по",
      "ехал"
    ],
    [
      " Павлов",
      "на"
    ],
    [
      " глу",
      "по"
    ],
    [
      " Ро",
      "сси"
    ],
    [
      "и",
      "з"
    ],
    [
      "ь",
      "я"
    ],
    [
      "ни",
      "ка"
    ],
    [
      " у",
      "да"
    ],
    [
      "ру",
      ","
    ],
    [
      "ни",
      "е,"
    ],
    [
      " при",
      "го"
    ],
    [
      " мо",
      "я"
    ],
    [
      " В",
      "е"
    ],
    [
      "но",
      "м,"
    ],
    [
      " ка",
      "вал"
    ],
    [
      " раз",
      "у"
    ],
    [
      " пере",
      "би"
    ],
    [
      " не",
      "т,"
    ],
    [
      "ста",
      "вл"
    ],
    [
      " дол",
      "го"
    ],
    [
      " ус",
      "пе"
    ],
    [
      "до",
      "ров"
    ],
    [
      " при",
      "каза"
    ],
    [
      " с",
      "кры"
    ],
    [
      " бес",
      "по"
    ],
    [
      " с",
      "мер"
    ],
    [
      "в",
      "шая"
    ],
    [
      "ей",
      "час"
    ],
    [
      " Без",
      "ухо"
    ],
    [
      "г",
      "е"
    ],
    [
      "т",
      "но"
    ],
    [
      "ко",
      "ю"
    ],
    [
      " м",
      "ер"
    ],
    [
      " на",
      "м"
    ],
    [
      "ре",
      ","
    ],
    [
      "ли",
      "ц"
    ],
    [
      "ши",
      "е"
    ],
    [
      " к",
      "ры"
    ],
    [
      "ко",
      "не"
    ],
    [
      "по",
      "ли"
    ],
    [
      "б",
      "лю"
    ],
    [
      "ско",
      "р"
    ],
    [
      "н",
      "че"
    ],
    [
      "ря",
      "д"
    ],
    [
      "лю",
      "би"
    ],
    [
      " Т",
      "о"
    ],
    [
      " от",
      "вер"
    ],
    [
      " при",
      "зна"
    ],
    [
      " стра",
      "ш"
    ],
    [
      " пос",
      "лыш"
    ],
    [
      " ожи",
      "вл"
    ],
    [
      " улыба",
      "ясь"
    ],
    [
      " Т",
      "оль"
    ],
    [
      " Баграти",
      "он"
    ],
    [
      " Бурь",
      "ен"
    ],
    [
      " о",
      "чеви"
    ],
    [
      "ч",
      ","
    ],
    [
      " не",
      "б"
    ],
    [
      " д",
      "ро"
    ],
    [
      "п",
      "ло"
    ],
    [
      "ени",
      "ю"
    ],
    [
      "ви",
      "ть"
    ],
    [
      "ки",
      "е"
    ],
    [
      "ш",
      "ки"
    ],
    [
      " у",
      "ча"
    ],
    [
      "енно",
      "е"
    ],
    [
      "ти",
      "че"
    ],
    [
      "са",
      ","
    ],
    [
      "енны",
      "ми"
    ],
    [
      " слу",
      "ж"
    ],
    [
      " ча",
      "сто"
    ],
    [
      " моло",
      "ды"
    ],
    [
      " расс",
      "каз"
    ],
    [
      " сдела",
      "ть"
    ],
    [
      " императо",
      "ра"
    ],
    [
      " Куту",
      "зо"
    ],
    [
      " 1",
      "8"
    ],
    [
      " про",
      "говорил"
    ],
    [
      " зде",
      "сь"
    ],
    [
      "х",
      "у"
    ],
    [
      " и",
      "г"
    ],
    [
      "р",
      "ал"
    ],
    [
      "д",
      "ра"
    ],
    [
      " по",
      "й"
    ],
    [
      "ны",
      "."
    ],
    [
      "ми",
      ".\n"
    ],
    [
      " у",
      "по"
    ],
    [
      "ку",
      "."
    ],
    [
      " ка",
      "кой"
    ],
    [
      " ми",
      "ни"
    ],
    [
      " ми",
      "мо"
    ],
    [
      " сп",
      "у"
    ],
    [
      " врем",
      "я,"
    ],
    [
      " Е",
      "му"
    ],
    [
      " ка",
      "жет"
    ],
    [
      "ва",
      "ния"
    ],
    [
      " г",
      "вар"
    ],
    [
      " объя",
      "с"
    ],
    [
      " испу",
      "га"
    ],
    [
      " не",
      "вольно"
    ],
    [
      " ",
      "р"
    ],
    [
      "е",
      "д"
    ],
    [
      "то",
      "в"
    ],
    [
      "ре",
      "ть"
    ],
    [
      "м",
      "ет"
    ],
    [
      "ем",
      "о"
    ],
    [
      " д",
      "ня"
    ],
    [
      " вс",
      "ей"
    ],
    [
      "ле",
      "д"
    ],
    [
      " при",
      "чи"
    ],
    [
      " а",
      "н"
    ],
    [
      " д",
      "ве"
    ],
    [
      "вши",
      "м"
    ],
    [
      "ли",
      "сь,"
    ],
    [
      " сво",
      "ему"
    ],
    [
      " д",
      "аль"
    ],
    [
      " т",
      "ем,"
    ],
    [
      "г",
      "нов"
    ],
    [
      " го",
      "вор"
    ],
    [
      " пред",
      "стави"
    ],
    [
      " бли",
      "з"
    ],
    [
      " По",
      "сле"
    ],
    [
      " виде",
      "ть"
    ],
    [
      "в",
      "шее"
    ],
    [
      " закри",
      "чал"
    ],
    [
      " д",
      "ядюш"
    ],
    [
      " исто",
      "ри"
    ],
    [
      " восто",
      "р"
    ],
    [
      "у",
      "."
    ],
    [
      "ен",
      "е"
    ],
    [
      "п",
      "ер"
    ],
    [
      "к",
      "ри"
    ],
    [
      "д",
      "е,"
    ],
    [
      "д",
      "ви"
    ],
    [
      "ста",
      ","
    ],
    [
      "жи",
      "л"
    ],
    [
      "ски",
      "й,"
    ],
    [
      " Т",
      "е"
    ],
    [
      " е",
      "ха"
    ],
    [
      "ходи",
      "л"
    ],
    [
      "ения",
      "."
    ],
    [
      " бо",
      "га"
    ],
    [
      " не",
      "об"
    ],
    [
      " к",
      "вар"
    ],
    [
      " изм",
      "ени"
    ],
    [
      " о",
      "скор"
    ],
    [
      " Толь",
      "ко"
    ],
    [
      " м",
      "гнов"
    ],
    [
      "го",
      "м"
    ],
    [
      "п",
      "ла"
    ],
    [
      " ко",
      "ли"
    ],
    [
      " Н",
      "у"
    ],
    [
      " вы",
      "го"
    ],
    [
      "ки",
      "й,"
    ],
    [
      "ва",
      "я,"
    ],
    [
      " ",
      "ще"
    ],
    [
      " лю",
      "ди"
    ],
    [
      " ее",
      "."
    ],
    [
      " т",
      "вер"
    ],
    [
      " ви",
      "кон"
    ],
    [
      " х",
      "у"
    ],
    [
      " де",
      "ву"
    ],
    [
      "е",
      "шь"
    ],
    [
      " люб",
      "лю"
    ],
    [
      " люб",
      "ви"
    ],
    [
      "фи",
      "цер"
    ],
    [
      " мыс",
      "ль"
    ],
    [
      " чув",
      "ству"
    ],
    [
      " уди",
      "вл"
    ],
    [
      " ужа",
      "с"
    ],
    [
      " кри",
      "кнул"
    ],
    [
      " тяж",
      "ело"
    ],
    [
      " поц",
      "елов"
    ],
    [
      "с",
      "ал"
    ],
    [
      "с",
      "ла"
    ],
    [
      " у",
      "з"
    ],
    [
      "я",
      ".\n"
    ],
    [
      " го",
      "да"
    ],
    [
      " А",
      "у"
    ],
    [
      " по",
      "ль"
    ],
    [
      "ство",
      "м"
    ],
    [
      " сказал",
      ","
    ],
    [
      " И",
      "п"
    ],
    [
      "р",
      "щи"
    ],
    [
      "жени",
      "е"
    ],
    [
      " у",
      "вер"
    ],
    [
      " ста",
      "ра"
    ],
    [
      " от",
      "ца"
    ],
    [
      " гла",
      "в"
    ],
    [
      "ю",
      "т,"
    ],
    [
      " по",
      "казы"
    ],
    [
      " хоро",
      "ш"
    ],
    [
      " то",
      "чно"
    ],
    [
      " ка",
      "кое"
    ],
    [
      "гла",
      "си"
    ],
    [
      " взя",
      "л"
    ],
    [
      "так",
      "и"
    ],
    [
      " Ип",
      "поли"
    ],
    [
      "то",
      "ч"
    ],
    [
      " не",
      "у"
    ],
    [
      " м",
      "ра"
    ],
    [
      " у",
      "г"
    ],
    [
      "ня",
      "я"
    ],
    [
      " ж",
      "ал"
    ],
    [
      "на",
      "я,"
    ],
    [
      " сто",
      "л"
    ],
    [
      "ди",
      "те"
    ],
    [
      " ми",
      "ло"
    ],
    [
      " мог",
      "ли"
    ],
    [
      "тельно",
      ","
    ],
    [
      " челове",
      "ка"
    ],
    [
      "н",
      "це"
    ],
    [
      " зна",
      "ком"
    ],
    [
      " на",
      "зна"
    ],
    [
      " ус",
      "по"
    ],
    [
      " францу",
      "зов"
    ],
    [
      "в",
      "шую"
    ],
    [
      " из-",
      "за"
    ],
    [
      "пе",
      "чат"
    ],
    [
      " испы",
      "ты"
    ],
    [
      " каби",
      "нет"
    ],
    [
      " с",
      "ю"
    ],
    [
      "ем",
      "а"
    ],
    [
      "е",
      "ди"
    ],
    [
      "н",
      "ди"
    ],
    [
      "ти",
      "я"
    ],
    [
      " Б",
      "у"
    ],
    [
      "д",
      "у,"
    ],
    [
      " под",
      "ле"
    ],
    [
      "ла",
      "сь,"
    ],
    [
      " сво",
      "бо"
    ],
    [
      " п",
      "ар"
    ],
    [
      "ех",
      "али"
    ],
    [
      " глаза",
      "ми"
    ],
    [
      "ющи",
      "е"
    ],
    [
      " чувство",
      "вал"
    ],
    [
      " до",
      "кто"
    ],
    [
      "в",
      "тра"
    ],
    [
      " ",
      "лет"
    ],
    [
      " собо",
      "й"
    ],
    [
      " воз",
      "можно"
    ],
    [
      "спо",
      "мина"
    ],
    [
      " чет",
      "ы"
    ],
    [
      "к",
      "."
    ],
    [
      "-",
      "о"
    ],
    [
      "р",
      "ю"
    ],
    [
      "с",
      "ли"
    ],
    [
      "ру",
      "с"
    ],
    [
      "та",
      "я"
    ],
    [
      " в",
      "ну"
    ],
    [
      "ши",
      "й"
    ],
    [
      " ко",
      "ле"
    ],
    [
      "д",
      "али"
    ],
    [
      "во",
      "й,"
    ],
    [
      "ж",
      "у,"
    ],
    [
      "ты",
      "й"
    ],
    [
      "вы",
      "е"
    ],
    [
      " И",
      "ль"
    ],
    [
      "жени",
      "я"
    ],
    [
      "жа",
      "ть"
    ],
    [
      " ст",
      "ало"
    ],
    [
      "ни",
      "к,"
    ],
    [
      "вала",
      "сь"
    ],
    [
      "й",
      "те,"
    ],
    [
      " комна",
      "ту"
    ],
    [
      " государ",
      "ь"
    ],
    [
      " д",
      "але"
    ],
    [
      " от",
      "чая"
    ],
    [
      " княги",
      "ня"
    ],
    [
      " тот",
      "час"
    ],
    [
      " ти",
      "хо"
    ],
    [
      " оте",
      "ц"
    ],
    [
      " то",
      "рже"
    ],
    [
      " с",
      "ейчас"
    ],
    [
      " ны",
      "нче"
    ],
    [
      "г",
      "ал"
    ],
    [
      "р",
      "но"
    ],
    [
      " м",
      "н"
    ],
    [
      "ны",
      "е,"
    ],
    [
      " с",
      "му"
    ],
    [
      " это",
      "му"
    ],
    [
      "то",
      "ры"
    ],
    [
      "сти",
      "."
    ],
    [
      " Андре",
      "я,"
    ],
    [
      " с",
      "ку"
    ],
    [
      "ты",
      "."
    ],
    [
      "ра",
      "ги"
    ],
    [
      " ми",
      "ла"
    ],
    [
      " себ",
      "е,"
    ],
    [
      " \"",
      "В"
    ],
    [
      " ",
      "шел"
    ],
    [
      " глаза",
      ","
    ],
    [
      " комна",
      "те"
    ],
    [
      " Бори",
      "с,"
    ],
    [
      " се",
      "ст"
    ],
    [
      " Ж",
      "ер"
    ],
    [
      " полу",
      "чи"
    ],
    [
      " ни",
      "что"
    ],
    [
      " необ",
      "ходи"
    ],
    [
      " в",
      "печат"
    ],
    [
      "и",
      "х"
    ],
    [
      " о",
      "го"
    ],
    [
      "и",
      "ть"
    ],
    [
      "с",
      "ло"
    ],
    [
      "к",
      "ре"
    ],
    [
      "г",
      "ли"
    ],
    [
      " по",
      "да"
    ],
    [
      "е",
      "ви"
    ],
    [
      " за",
      "ви"
    ],
    [
      "д",
      "ала"
    ],
    [
      " мо",
      "ст"
    ],
    [
      "ов",
      ","
    ],
    [
      " М",
      "не"
    ],
    [
      "но",
      "гда"
    ],
    [
      " говори",
      "т"
    ],
    [
      "с",
      "ку"
    ],
    [
      " сто",
      "ль"
    ],
    [
      " м",
      "ало"
    ],
    [
      "тель",
      "ным"
    ],
    [
      " ",
      "це"
    ],
    [
      " по",
      "жал"
    ],
    [
      "ется",
      ","
    ],
    [
      " обе",
      "да"
    ],
    [
      "каза",
      "ть"
    ],
    [
      " Наполе",
      "о"
    ],
    [
      "в",
      "шему"
    ],
    [
      " приба",
      "вил"
    ],
    [
      " обраща",
      "ясь"
    ],
    [
      " коло",
      "н"
    ],
    [
      " впечат",
      "л"
    ],
    [
      " ",
      "ю"
    ],
    [
      " б",
      "ал"
    ],
    [
      " по",
      "м"
    ],
    [
      "ел",
      "я"
    ],
    [
      "во",
      "м"
    ],
    [
      "ч",
      "ка"
    ],
    [
      " за",
      "ко"
    ],
    [
      "ки",
      "."
    ],
    [
      " П",
      "ол"
    ],
    [
      "ст",
      "ей"
    ],
    [
      "до",
      "в"
    ],
    [
      "не",
      "."
    ],
    [
      " в",
      "лю"
    ],
    [
      "ст",
      "ве"
    ],
    [
      "ско",
      "е"
    ],
    [
      " ст",
      "ала"
    ],
    [
      "в",
      "ели"
    ],
    [
      "га",
      "ми"
    ],
    [
      " дру",
      "ж"
    ],
    [
      " са",
      "ма"
    ],
    [
      " ду",
      "ше"
    ],
    [
      "ъ",
      "ез"
    ],
    [
      "ву",
      "ю"
    ]
  ]
}