{
  "vocab": {
    "\n": 0,
    " ": 1,
    "!": 2,
    "\"": 3,
    "'": 4,
    "(": 5,
    ")": 6,
    "*": 7,
    ",": 8,
    "-": 9,
    ".": 10,
    "0": 11,
    "1": 12,
    "2": 13,
    "3": 14,
    "4": 15,
    "5": 16,
    "6": 17,
    "7": 18,
    "8": 19,
    "9": 20,
    ":": 21,
    ";": 22,
    "<": 23,
    ">": 24,
    "?": 25,
    "A": 26,
    "B": 27,
    "C": 28,
    "D": 29,
    "E": 30,
    "H": 31,
    "I": 32,
    "J": 33,
    "K": 34,
    "L": 35,
    "M": 36,
    "N": 37,
    "O": 38,
    "P": 39,
    "S": 40,
    "T": 41,
    "U": 42,
    "V": 43,
    "X": 44,
    "\\": 45,
    "^": 46,
    "a": 47,
    "b": 48,
    "c": 49,
    "d": 50,
    "e": 51,
    "f": 52,
    "g": 53,
    "h": 54,
    "i": 55,
    "l": 56,
    "m": 57,
    "n": 58,
    "o": 59,
    "p": 60,
    "r": 61,
    "s": 62,
    "t": 63,
    "u": 64,
    "v": 65,
    "w": 66,
    "x": 67,
    "y": 68,
    "А": 69,
    "Б": 70,
    "В": 71,
    "Г": 72,
    "Д": 73,
    "Е": 74,
    "Ж": 75,
    "З": 76,
    "И": 77,
    "Й": 78,
    "К": 79,
    "Л": 80,
    "М": 81,
    "Н": 82,
    "О": 83,
    "П": 84,
    "Р": 85,
    "С": 86,
    "Т": 87,
    "У": 88,
    "Ф": 89,
    "Х": 90,
    "Ц": 91,
    "Ч": 92,
    "Ш": 93,
    "Щ": 94,
    "Ь": 95,
    "Э": 96,
    "Ю": 97,
    "Я": 98,
    "а": 99,
    "б": 100,
    "в": 101,
    "г": 102,
    "д": 103,
    "е": 104,
    "ж": 105,
    "з": 106,
    "и": 107,
    "й": 108,
    "к": 109,
    "л": 110,
    "м": 111,
    "н": 112,
    "о": 113,
    "п": 114,
    "р": 115,
    "с": 116,
    "т": 117,
    "у": 118,
    "ф": 119,
    "х": 120,
    "ц": 121,
    "ч": 122,
    "ш": 123,
    "щ": 124,
    "ъ": 125,
    "ы": 126,
    "ь": 127,
    "э": 128,
    "ю": 129,
    "я": 130,
    "ё": 131,
    ", ": 132,
    "о ": 133,
    "и ": 134,
    "е ": 135,
    "а ": 136,
    "ст": 137,
    "ал": 138,
    "  ": 139,
    "я ": 140,
    "ов": 141,
    "ь ": 142,
    "ен": 143,
    "ра": 144,
    "по": 145,
    ". ": 146,
    "то": 147,
    "ко": 148,
    "ер": 149,
    "ел": 150,
    "ка": 151,
    "й ": 152,
    "--": 153,
    "-- ": 154,
    "м ": 155,
    "пр": 156,
    "на": 157,
    "то ": 158,
    "ил": 159,
    "он": 160,
    "но": 161,
    "в ": 162,
    "к ": 163,
    "\n  ": 164,
    "во": 165,
    "го ": 166,
    "у ": 167,
    "бы": 168,
    "от": 169,
    "\n   ": 170,
    "не": 171,
    "не ": 172,
    "ни": 173,
    "ол": 174,
    "ат": 175,
    "ет": 176,
    ".\n   ": 177,
    "на ": 178,
    "ор": 179,
    "ит": 180,
    "ал ": 181,
    "но ": 182,
    ", ч": 183,
    "ны": 184,
    "од": 185,
    "с ": 186,
    "ре": 187,
    "за": 188,
    "ос": 189,
    "х ": 190,
    "об": 191,
    "был": 192,
    "ру": 193,
    "ня": 194,
    "ла": 195,
    "ю ": 196,
    "ед": 197,
    "ис": 198,
    "он ": 199,
    "ар": 200,
    ", что ": 201,
    "вс": 202,
    "и, ": 203,
    "вы": 204,
    "его ": 205,
    "ва": 206,
    "ем": 207,
    "ост": 208,
    "ви": 209,
    "та": 210,
    "ени": 211,
    "е, ": 212,
    "ся ": 213,
    "сл": 214,
    ".\n   -- ": 215,
    "ну": 216,
    "каз": 217,
    "мо": 218,
    "уд": 219,
    "при": 220,
    "ь, ": 221,
    "го": 222,
    "ки": 223,
    "тор": 224,
    "ест": 225,
    "как ": 226,
    "пер": 227,
    "из": 228,
    "я, ": 229,
    "ы ": 230,
    "ес": 231,
    "й, ": 232,
    "гов": 233,
    "а, ": 234,
    "ли": 235,
    "сво": 236,
    "ил ": 237,
    "ав": 238,
    "под": 239,
    "дел": 240,
    "говор": 241,
    "сказ": 242,
    "ем ": 243,
    "кня": 244,
    "ши": 245,
    "котор": 246,
    "ан": 247,
    "у, ": 248,
    "ми ": 249,
    "пол": 250,
    "же ": 251,
    "т ": 252,
    "раз": 253,
    "ом": 254,
    "ча": 255,
    "ез": 256,
    "н ": 257,
    "ми": 258,
    "ко ": 259,
    "ля": 260,
    "Ан": 261,
    ", -- ": 262,
    "ала ": 263,
    "гд": 264,
    "ль": 265,
    "ду": 266,
    ". О": 267,
    "ать ": 268,
    "ят": 269,
    "ож": 270,
    "ель": 271,
    "рас": 272,
    "лю": 273,
    "ет ": 274,
    "еб": 275,
    "это": 276,
    "ств": 277,
    "см": 278,
    "княз": 279,
    "ей ": 280,
    "зна": 281,
    "ив": 282,
    "бы ": 283,
    "ас": 284,
    "ог": 285,
    "ел ": 286,
    "дру": 287,
    "ско": 288,
    "за ": 289,
    "еж": 290,
    ", и ": 291,
    "им": 292,
    "все ": 293,
    "кр": 294,
    "ее ": 295,
    "дре": 296,
    "ош": 297,
    "вид": 298,
    "са": 299,
    "Андре": 300,
    "оч": 301,
    "вер": 302,
    "это ": 303,
    "ин": 304,
    ". -- ": 305,
    "буд": 306,
    "было ": 307,
    "ом ": 308,
    "она ": 309,
    "ход": 310,
    "от ": 311,
    "ему ": 312,
    "был ": 313,
    "яс": 314,
    "ить ": 315,
    "ма": 316,
    "ком": 317,
    "? ": 318,
    "гда ": 319,
    ". Н": 320,
    "которы": 321,
    "ех": 322,
    "уж": 323,
    "ут": 324,
    "лько ": 325,
    "еч": 326,
    "ов ": 327,
    "сказал ": 328,
    "да": 329,
    "гра": 330,
    "оль": 331,
    "ти": 332,
    "так ": 333,
    "нул": 334,
    "рав": 335,
    "ой ": 336,
    "ски": 337,
    "али ": 338,
    "мен": 339,
    "ку": 340,
    "ност": 341,
    "Пь": 342,
    ", как ": 343,
    "аш": 344,
    "ей": 345,
    "ещ": 346,
    "по ": 347,
    "ись ": 348,
    "себ": 349,
    "оп": 350,
    "ран": 351,
    "гла": 352,
    "Пьер": 353,
    "ул": 354,
    "му ": 355,
    ". В": 356,
    "ть ": 357,
    "ной ": 358,
    "стр": 359,
    "ев": 360,
    "щи": 361,
    "уч": 362,
    "жен": 363,
    "ад": 364,
    "ка ": 365,
    "ать": 366,
    "г ": 367,
    "м, ": 368,
    "сп": 369,
    "или ": 370,
    "ич": 371,
    "..": 372,
    "нов": 373,
    "гол": 374,
    "те": 375,
    "из ": 376,
    "ного ": 377,
    "ки ": 378,
    "все": 379,
    "отр": 380,
    "уз": 381,
    ". Он ": 382,
    "ни ": 383,
    "елов": 384,
    "ли ": 385,
    "ила ": 386,
    "мол": 387,
    "еш": 388,
    "ся": 389,
    "ный ": 390,
    "лиц": 391,
    "! ": 392,
    "только ": 393,
    "ая ": 394,
    "вз": 395,
    "сто": 396,
    "ным ": 397,
    "люб": 398,
    "ля ": 399,
    "князь ": 400,
    "ыв": 401,
    "пред": 402,
    "ув": 403,
    "ска": 404,
    "его": 405,
    "перед": 406,
    "жени": 407,
    "ек": 408,
    "про": 409,
    "чи": 410,
    "ум": 411,
    "итель": 412,
    "и с": 413,
    "Рост": 414,
    "ю, ": 415,
    "но, ": 416,
    "ди": 417,
    "ся, ": 418,
    "х, ": 419,
    "лен": 420,
    "ков": 421,
    "ико": 422,
    "аль": 423,
    "что ": 424,
    "аташ": 425,
    "ый ": 426,
    ", что": 427,
    "част": 428,
    "хот": 429,
    "ыб": 430,
    "прос": 431,
    "для ": 432,
    "ы, ": 433,
    "Я ": 434,
    ". К": 435,
    "И ": 436,
    "над": 437,
    "улыб": 438,
    "иц": 439,
    "уп": 440,
    "когда ": 441,
    "посл": 442,
    "граф": 443,
    "их ": 444,
    "ял": 445,
    "смотр": 446,
    "уш": 447,
    "еще ": 448,
    "ур": 449,
    "ели ": 450,
    "рем": 451,
    "е и ": 452,
    "ми, ": 453,
    "кой ": 454,
    "уб": 455,
    "ень ": 456,
    "енно ": 457,
    "гля": 458,
    "челов": 459,
    "нич": 460,
    "Наташ": 461,
    "боль": 462,
    "была ": 463,
    "вая ": 464,
    "ера": 465,
    "ался ": 466,
    "ясь ": 467,
    "си": 468,
    "кон": 469,
    "она": 470,
    "стар": 471,
    " и ": 472,
    "ги": 473,
    "мож": 474,
    "тр": 475,
    "чув": 476,
    "ты ": 477,
    "ное ": 478,
    "ить": 479,
    "гос": 480,
    "ого ": 481,
    "ень": 482,
    "ные ": 483,
    "а и ": 484,
    "эт": 485,
    "о, ": 486,
    "ани": 487,
    "икола": 488,
    ". П": 489,
    "ась ": 490,
    "воз": 491,
    "вы ": 492,
    "ку ": 493,
    "обра": 494,
    "-то ": 495,
    "вес": 496,
    "пл": 497,
    "до": 498,
    "пис": 499,
    ": ": 500,
    "пу": 501,
    "гор": 502,
    "ился ": 503,
    "говорил ": 504,
    "св": 505,
    ".\n   -- Н": 506,
    "пото": 507,
    "ять ": 508,
    "уже ": 509,
    ". С": 510,
    "ось ": 511,
    "? -- ": 512,
    "ны ": 513,
    "ез ": 514,
    "ных ": 515,
    "удар": 516,
    "ше ": 517,
    "врем": 518,
    "или": 519,
    "ла ": 520,
    "мал": 521,
    "ыш": 522,
    "дол": 523,
    "нач": 524,
    "чувств": 525,
    "были ": 526,
    "ранц": 527,
    "Андрей ": 528,
    "лов": 529,
    "дост": 530,
    "ря": 531,
    "люд": 532,
    "дер": 533,
    ", что он ": 534,
    "Ростов": 535,
    "со": 536,
    "него ": 537,
    "я и ": 538,
    "ус": 539,
    "бл": 540,
    "хор": 541,
    "стра": 542,
    "\n   -- ": 543,
    "Никола": 544,
    "крас": 545,
    "став": 546,
    "мог": 547,
    "ежд": 548,
    "им ": 549,
    "веч": 550,
    "мест": 551,
    "во ": 552,
    "тепер": 553,
    "до ": 554,
    ", чтобы ": 555,
    "слов": 556,
    "сов": 557,
    "оф": 558,
    "жел": 559,
    "ит ": 560,
    "ты": 561,
    "ую ": 562,
    "ет, ": 563,
    "ак ": 564,
    "пов": 565,
    "прав": 566,
    "стор": 567,
    "ид": 568,
    "го, ": 569,
    "няз": 570,
    "и по": 571,
    "год": 572,
    "ение ": 573,
    "ка, ": 574,
    "друго": 575,
    "лас": 576,
    ". Т": 577,
    "что": 578,
    "к, ": 579,
    "га": 580,
    "соб": 581,
    "ступ": 582,
    "сдел": 583,
    "мы": 584,
    "он, ": 585,
    "я на ": 586,
    "ки, ": 587,
    "кор": 588,
    "ох": 589,
    "мне ": 590,
    "гляд": 591,
    "зам": 592,
    "; ": 593,
    "шел ": 594,
    "их": 595,
    "хорош": 596,
    "Пьер ": 597,
    "Мар": 598,
    "нязь ": 599,
    "дв": 600,
    "ть": 601,
    "счаст": 602,
    "будто ": 603,
    "офиц": 604,
    "ше": 605,
    "ал, ": 606,
    "дат": 607,
    "франц": 608,
    "и не ": 609,
    "сер": 610,
    "Бор": 611,
    "кой": 612,
    "еств": 613,
    "вой": 614,
    "ста": 615,
    "ющ": 616,
    "молод": 617,
    "бол": 618,
    "зв": 619,
    "-- сказал ": 620,
    "жиз": 621,
    "очень ": 622,
    "ались ": 623,
    "ле": 624,
    "которые ": 625,
    "чер": 626,
    "вел": 627,
    "княж": 628,
    "ью ": 629,
    "который ": 630,
    "ном ": 631,
    "му": 632,
    "жд": 633,
    "этого ": 634,
    ". И ": 635,
    "ком ": 636,
    "ения ": 637,
    "кото": 638,
    "на, ": 639,
    "вор": 640,
    "сы": 641,
    "время ": 642,
    "олдат": 643,
    "челове": 644,
    "ная ": 645,
    "ей, ": 646,
    "прият": 647,
    "и и ": 648,
    "бр": 649,
    "пор": 650,
    "тол": 651,
    "ражени": 652,
    "гр": 653,
    "себя ": 654,
    "дор": 655,
    "нул ": 656,
    "ое ": 657,
    "кры": 658,
    "теперь ": 659,
    "дум": 660,
    "сказала ": 661,
    "вол": 662,
    "ющи": 663,
    "государ": 664,
    "ту": 665,
    "ом, ": 666,
    "нее ": 667,
    "они ": 668,
    "Дол": 669,
    ", -- сказал ": 670,
    "ша": 671,
    "француз": 672,
    "зад": 673,
    "ив ": 674,
    "ней ": 675,
    ". Но ": 676,
    "ой": 677,
    "тер": 678,
    "ать, ": 679,
    "князя ": 680,
    "мину": 681,
    "ехал ": 682,
    "Марь": 683,
    "особ": 684,
    "ым ": 685,
    "ную ": 686,
    "те ": 687,
    "быть ": 688,
    "голов": 689,
    "стви": 690,
    "ему": 691,
    "друг": 692,
    "ошад": 693,
    "анов": 694,
    "ала": 695,
    "ним": 696,
    "перед ": 697,
    "оз": 698,
    "стол": 699,
    "мил": 700,
    ".\n   К": 701,
    "опять ": 702,
    "полож": 703,
    "друг ": 704,
    "ким ": 705,
    ". Она ": 706,
    "зн": 707,
    "вш": 708,
    "нима": 709,
    "коман": 710,
    "кого ": 711,
    "А ": 712,
    "своей ": 713,
    "па": 714,
    "всех ": 715,
    "ство": 716,
    "Это ": 717,
    "кру": 718,
    "др": 719,
    "гост": 720,
    "ен ": 721,
    "кол": 722,
    "ничего ": 723,
    "лошад": 724,
    "само": 725,
    "эти": 726,
    "е. ": 727,
    "и в ": 728,
    "ту ": 729,
    "пера": 730,
    "! -- ": 731,
    "ай": 732,
    "езд": 733,
    "чувствов": 734,
    "прод": 735,
    "этот ": 736,
    "ский ": 737,
    "вши": 738,
    "вест": 739,
    "жал": 740,
    "тан": 741,
    "весел": 742,
    "тре": 743,
    "бес": 744,
    "ыва": 745,
    "иш": 746,
    "под ": 747,
    "комна": 748,
    "том ": 749,
    "ов, ": 750,
    "ец": 751,
    "ин ": 752,
    "глаза": 753,
    "... ": 754,
    "т, ": 755,
    "теб": 756,
    "ущ": 757,
    "офицер": 758,
    "том": 759,
    "мо ": 760,
    "пар": 761,
    "прот": 762,
    "обр": 763,
    "енер": 764,
    "солдат": 765,
    "при ": 766,
    "Долох": 767,
    "дом": 768,
    "ными ": 769,
    "свою ": 770,
    "есть ": 771,
    "гл": 772,
    "сил": 773,
    "Что ": 774,
    "муж": 775,
    "дви": 776,
    "импера": 777,
    "остав": 778,
    "уст": 779,
    "меня ": 780,
    "слыш": 781,
    "мог ": 782,
    "ку, ": 783,
    "видел": 784,
    ".\n   В": 785,
    "говорил": 786,
    "не по": 787,
    ".\n   -- В": 788,
    "Вас": 789,
    "спо": 790,
    "еть ": 791,
    "стоя": 792,
    "бо": 793,
    "ем, ": 794,
    "голос": 795,
    "лени": 796,
    "продол": 797,
    "сла": 798,
    "нял": 799,
    "сме": 800,
    "спрос": 801,
    "сколько ": 802,
    ". В ": 803,
    "али": 804,
    "ри": 805,
    "чит": 806,
    "сам ": 807,
    "его, ": 808,
    "у и ": 809,
    "мер": 810,
    "тя": 811,
    "пере": 812,
    "дов": 813,
    "после ": 814,
    "реш": 815,
    "утуз": 816,
    "ним ": 817,
    "дав": 818,
    "того": 819,
    "мы ": 820,
    "держ": 821,
    "рая ": 822,
    "алась ": 823,
    "рус": 824,
    "глав": 825,
    "к не": 826,
    "себе ": 827,
    "ые ": 828,
    "генер": 829,
    "ти ": 830,
    ".\n   -- Д": 831,
    "На": 832,
    "ствен": 833,
    "тем ": 834,
    "поле": 835,
    "более ": 836,
    "гру": 837,
    "ела ": 838,
    "крич": 839,
    "мысл": 840,
    "ись, ": 841,
    "своего ": 842,
    "ух": 843,
    "огля": 844,
    "может ": 845,
    "общ": 846,
    "ниц": 847,
    "наш": 848,
    "имо": 849,
    "кто ": 850,
    "ют ": 851,
    "илась ": 852,
    "будет ": 853,
    "Борис": 854,
    "того ": 855,
    "ясь, ": 856,
    "?\n   -- ": 857,
    "авши": 858,
    "и с ": 859,
    ". Д": 860,
    "ало ": 861,
    ": \"": 862,
    ". Е": 863,
    ". Я ": 864,
    "Он ": 865,
    "ых ": 866,
    "ых": 867,
    "князь Андре": 868,
    "кий ": 869,
    "ель ": 870,
    "поч": 871,
    "ительно ": 872,
    "со ": 873,
    "би": 874,
    "аться ": 875,
    "Васили": 876,
    "чем ": 877,
    "кв": 878,
    "се ": 879,
    "ял ": 880,
    "бра": 881,
    "прош": 882,
    "пла": 883,
    "ского ": 884,
    "пись": 885,
    "ег": 886,
    "ть, ": 887,
    "стал ": 888,
    "своим ": 889,
    "той ": 890,
    "ал, что ": 891,
    "нязь Андрей ": 892,
    "раз ": 893,
    "ность ": 894,
    "отвеч": 895,
    "кая ": 896,
    "кри": 897,
    "беж": 898,
    "больш": 899,
    "без ": 900,
    "знач": 901,
    ". М": 902,
    "где ": 903,
    "отц": 904,
    "а в ": 905,
    "нуж": 906,
    "ред": 907,
    "вет": 908,
    "ничего не ": 909,
    "прост": 910,
    "алось ": 911,
    "молч": 912,
    "яни": 913,
    ". Г": 914,
    "ности ": 915,
    "ивш": 916,
    "продолж": 917,
    "дес": 918,
    "бла": 919,
    "так": 920,
    "показ": 921,
    "сторон": 922,
    "всегда ": 923,
    "Ростов ": 924,
    "один ": 925,
    "кре": 926,
    "Анна ": 927,
    "зав": 928,
    "пре": 929,
    "послед": 930,
    "он не ": 931,
    "потому ": 932,
    "рад": 933,
    "поз": 934,
    "как будто ": 935,
    "Кутуз": 936,
    "Наполе": 937,
    "ения": 938,
    "ежели ": 939,
    "душ": 940,
    "гот": 941,
    "ро": 942,
    "кар": 943,
    "я не ": 944,
    "наход": 945,
    "которой ": 946,
    "нулся ": 947,
    "Сон": 948,
    "луч": 949,
    "останов": 950,
    "этой ": 951,
    "ывал ": 952,
    "енис": 953,
    "извест": 954,
    "пом": 955,
    "ян": 956,
    "эти ": 957,
    "добр": 958,
    "прис": 959,
    "про ": 960,
    "представ": 961,
    "кое ": 962,
    "те, ": 963,
    ".\n   -- П": 964,
    "ке ": 965,
    "та ": 966,
    "князь Андрей ": 967,
    "Ана": 968,
    "арми": 969,
    "рассказ": 970,
    "ется ": 971,
    "ци": 972,
    "-ни": 973,
    "-нибуд": 974,
    "взгляд": 975,
    "ской ": 976,
    "разговор": 977,
    "лась ": 978,
    "ились ": 979,
    "но и ": 980,
    "ежду ": 981,
    "то, что ": 982,
    "дела": 983,
    "ло ": 984,
    "замет": 985,
    "радост": 986,
    "которое ": 987,
    "бур": 988,
    "ари": 989,
    "мой ": 990,
    ".\n  ": 991,
    "император": 992,
    "ъю": 993,
    "ъютан": 994,
    "особенно ": 995,
    "Пав": 996,
    "улыба": 997,
    "долж": 998,
    "кл": 999,
    "неприят": 1000,
    "аз": 1001,
    ". Б": 1002,
    "вдруг ": 1003,
    "этом ": 1004,
    "точ": 1005,
    "было": 1006,
    "род": 1007,
    "князя Андре": 1008,
    "Мих": 1009,
    "вед": 1010,
    "ите ": 1011,
    "выражени": 1012,
    "но было ": 1013,
    "слуш": 1014,
    "ывая ": 1015,
    "кую ": 1016,
    "эту ": 1017,
    "обрат": 1018,
    "даже ": 1019,
    "ют": 1020,
    "ее": 1021,
    "ав ": 1022,
    "ете ": 1023,
    "дей": 1024,
    "над ": 1025,
    "сидел": 1026,
    "юш": 1027,
    "алос": 1028,
    "ние ": 1029,
    "иться ": 1030,
    "\" ": 1031,
    ", но ": 1032,
    "олкон": 1033,
    "адъютан": 1034,
    "на не": 1035,
    "ло": 1036,
    "увид": 1037,
    "ром": 1038,
    "Павлов": 1039,
    "человек": 1040,
    "них ": 1041,
    "ну ": 1042,
    "ерш": 1043,
    "вперед": 1044,
    "дет": 1045,
    "вам ": 1046,
    "каж": 1047,
    "которая ": 1048,
    ". \"": 1049,
    "ивши": 1050,
    "вал": 1051,
    "Пет": 1052,
    "иня ": 1053,
    "ами ": 1054,
    "же, ": 1055,
    "ист": 1056,
    "яд": 1057,
    "подум": 1058,
    "ь, что ": 1059,
    "дума": 1060,
    "вст": 1061,
    "несколько ": 1062,
    "атель": 1063,
    "бат": 1064,
    "осто": 1065,
    "вас ": 1066,
    "она, ": 1067,
    "нем": 1068,
    "ряд": 1069,
    "смотрел ": 1070,
    "обед": 1071,
    "Денис": 1072,
    "ий": 1073,
    "между ": 1074,
    "\", -- ": 1075,
    "ле ": 1076,
    "ак": 1077,
    "об ": 1078,
    "рую ": 1079,
    "Николай ": 1080,
    "говорила ": 1081,
    "другой ": 1082,
    "получ": 1083,
    "двер": 1084,
    "каза": 1085,
    "пы": 1086,
    "тем": 1087,
    "видимо": 1088,
    "вмест": 1089,
    "лицо ": 1090,
    "прек": 1091,
    "вот ": 1092,
    "е, и ": 1093,
    "пря": 1094,
    "вый ": 1095,
    "онапар": 1096,
    ".\n   -- К": 1097,
    ".\n   Н": 1098,
    "вод": 1099,
    "Михай": 1100,
    "ствов": 1101,
    "счастли": 1102,
    "еп": 1103,
    "ой, ": 1104,
    "прежд": 1105,
    "и, и ": 1106,
    "дорог": 1107,
    "цен": 1108,
    "стро": 1109,
    "ства": 1110,
    "служ": 1111,
    "ною ": 1112,
    "кла": 1113,
    "реч": 1114,
    "я в ": 1115,
    "ный, ": 1116,
    "малень": 1117,
    "лож": 1118,
    "которого ": 1119,
    "вечер": 1120,
    "своих ": 1121,
    ", не ": 1122,
    "два ": 1123,
    "спросил ": 1124,
    "ден": 1125,
    "глаза ": 1126,
    "кие ": 1127,
    "други": 1128,
    "полков": 1129,
    "треб": 1130,
    "приб": 1131
  },
  "merges": [
    [
      ",",
      " "
    ],
    [
      "о",
      " "
    ],
    [
      "и",
      " "
    ],
    [
      "е",
      " "
    ],
    [
      "а",
      " "
    ],
    [
      "с",
      "т"
    ],
    [
      "а",
      "л"
    ],
    [
      " ",
      " "
    ],
    [
      "я",
      " "
    ],
    [
      "о",
      "в"
    ],
    [
      "ь",
      " "
    ],
    [
      "е",
      "н"
    ],
    [
      "р",
      "а"
    ],
    [
      "п",
      "о"
    ],
    [
      ".",
      " "
    ],
    [
      "т",
      "о"
    ],
    [
      "к",
      "о"
    ],
    [
      "е",
      "р"
    ],
    [
      "е",
      "л"
    ],
    [
      "к",
      "а"
    ],
    [
      "й",
      " "
    ],
    [
      "-",
      "-"
    ],
    [
      "--",
      " "
    ],
    [
      "м",
      " "
    ],
    [
      "п",
      "р"
    ],
    [
      "н",
      "а"
    ],
    [
      "т",
      "о "
    ],
    [
      "и",
      "л"
    ],
    [
      "о",
      "н"
    ],
    [
      "н",
      "о"
    ],
    [
      "в",
      " "
    ],
    [
      "к",
      " "
    ],
    [
      "\n",
      "  "
    ],
    [
      "в",
      "о"
    ],
    [
      "г",
      "о "
    ],
    [
      "у",
      " "
    ],
    [
      "б",
      "ы"
    ],
    [
      "о",
      "т"
    ],
    [
      "\n  ",
      " "
    ],
    [
      "н",
      "е"
    ],
    [
      "н",
      "е "
    ],
    [
      "н",
      "и"
    ],
    [
      "о",
      "л"
    ],
    [
      "а",
      "т"
    ],
    [
      "е",
      "т"
    ],
    [
      ".",
      "\n   "
    ],
    [
      "н",
      "а "
    ],
    [
      "о",
      "р"
    ],
    [
      "и",
      "т"
    ],
    [
      "ал",
      " "
    ],
    [
      "н",
      "о "
    ],
    [
      ", ",
      "ч"
    ],
    [
      "н",
      "ы"
    ],
    [
      "о",
      "д"
    ],
    [
      "с",
      " "
    ],
    [
      "р",
      "е"
    ],
    [
      "з",
      "а"
    ],
    [
      "о",
      "с"
    ],
    [
      "х",
      " "
    ],
    [
      "о",
      "б"
    ],
    [
      "бы",
      "л"
    ],
    [
      "р",
      "у"
    ],
    [
      "н",
      "я"
    ],
    [
      "л",
      "а"
    ],
    [
      "ю",
      " "
    ],
    [
      "е",
      "д"
    ],
    [
      "и",
      "с"
    ],
    [
      "он",
      " "
    ],
    [
      "а",
      "р"
    ],
    [
      ", ч",
      "то "
    ],
    [
      "в",
      "с"
    ],
    [
      "и",
      ", "
    ],
    [
      "в",
      "ы"
    ],
    [
      "е",
      "го "
    ],
    [
      "в",
      "а"
    ],
    [
      "е",
      "м"
    ],
    [
      "о",
      "ст"
    ],
    [
      "в",
      "и"
    ],
    [
      "т",
      "а"
    ],
    [
      "ен",
      "и"
    ],
    [
      "е",
      ", "
    ],
    [
      "с",
      "я "
    ],
    [
      "с",
      "л"
    ],
    [
      ".\n   ",
      "-- "
    ],
    [
      "н",
      "у"
    ],
    [
      "ка",
      "з"
    ],
    [
      "м",
      "о"
    ],
    [
      "у",
      "д"
    ],
    [
      "пр",
      "и"
    ],
    [
      "ь",
      ", "
    ],
    [
      "г",
      "о"
    ],
    [
      "к",
      "и"
    ],
    [
      "то",
      "р"
    ],
    [
      "е",
      "ст"
    ],
    [
      "ка",
      "к "
    ],
    [
      "п",
      "ер"
    ],
    [
      "и",
      "з"
    ],
    [
      "я",
      ", "
    ],
    [
      "ы",
      " "
    ],
    [
      "е",
      "с"
    ],
    [
      "й",
      ", "
    ],
    [
      "г",
      "ов"
    ],
    [
      "а",
      ", "
    ],
    [
      "л",
      "и"
    ],
    [
      "с",
      "во"
    ],
    [
      "ил",
      " "
    ],
    [
      "а",
      "в"
    ],
    [
      "по",
      "д"
    ],
    [
      "д",
      "ел"
    ],
    [
      "гов",
      "ор"
    ],
    [
      "с",
      "каз"
    ],
    [
      "е",
      "м "
    ],
    [
      "к",
      "ня"
    ],
    [
      "ш",
      "и"
    ],
    [
      "ко",
      "тор"
    ],
    [
      "а",
      "н"
    ],
    [
      "у",
      ", "
    ],
    [
      "м",
      "и "
    ],
    [
      "по",
      "л"
    ],
    [
      "ж",
      "е "
    ],
    [
      "т",
      " "
    ],
    [
      "ра",
      "з"
    ],
    [
      "о",
      "м"
    ],
    [
      "ч",
      "а"
    ],
    [
      "е",
      "з"
    ],
    [
      "н",
      " "
    ],
    [
      "м",
      "и"
    ],
    [
      "к",
      "о "
    ],
    [
      "л",
      "я"
    ],
    [
      "А",
      "н"
    ],
    [
      ", ",
      "-- "
    ],
    [
      "ал",
      "а "
    ],
    [
      "г",
      "д"
    ],
    [
      "л",
      "ь"
    ],
    [
      "д",
      "у"
    ],
    [
      ". ",
      "О"
    ],
    [
      "ат",
      "ь "
    ],
    [
      "я",
      "т"
    ],
    [
      "о",
      "ж"
    ],
    [
      "ел",
      "ь"
    ],
    [
      "ра",
      "с"
    ],
    [
      "л",
      "ю"
    ],
    [
      "ет",
      " "
    ],
    [
      "е",
      "б"
    ],
    [
      "э",
      "то"
    ],
    [
      "ст",
      "в"
    ],
    [
      "с",
      "м"
    ],
    [
      "кня",
      "з"
    ],
    [
      "е",
      "й "
    ],
    [
      "з",
      "на"
    ],
    [
      "и",
      "в"
    ],
    [
      "бы",
      " "
    ],
    [
      "а",
      "с"
    ],
    [
      "о",
      "г"
    ],
    [
      "ел",
      " "
    ],
    [
      "д",
      "ру"
    ],
    [
      "с",
      "ко"
    ],
    [
      "з",
      "а "
    ],
    [
      "е",
      "ж"
    ],
    [
      ", ",
      "и "
    ],
    [
      "и",
      "м"
    ],
    [
      "вс",
      "е "
    ],
    [
      "к",
      "р"
    ],
    [
      "е",
      "е "
    ],
    [
      "д",
      "ре"
    ],
    [
      "о",
      "ш"
    ],
    [
      "ви",
      "д"
    ],
    [
      "с",
      "а"
    ],
    [
      "Ан",
      "дре"
    ],
    [
      "о",
      "ч"
    ],
    [
      "в",
      "ер"
    ],
    [
      "э",
      "то "
    ],
    [
      "и",
      "н"
    ],
    [
      ". ",
      "-- "
    ],
    [
      "б",
      "уд"
    ],
    [
      "был",
      "о "
    ],
    [
      "о",
      "м "
    ],
    [
      "он",
      "а "
    ],
    [
      "х",
      "од"
    ],
    [
      "от",
      " "
    ],
    [
      "ем",
      "у "
    ],
    [
      "был",
      " "
    ],
    [
      "я",
      "с"
    ],
    [
      "ит",
      "ь "
    ],
    [
      "м",
      "а"
    ],
    [
      "ко",
      "м"
    ],
    [
      "?",
      " "
    ],
    [
      "гд",
      "а "
    ],
    [
      ". ",
      "Н"
    ],
    [
      "котор",
      "ы"
    ],
    [
      "е",
      "х"
    ],
    [
      "у",
      "ж"
    ],
    [
      "у",
      "т"
    ],
    [
      "ль",
      "ко "
    ],
    [
      "е",
      "ч"
    ],
    [
      "ов",
      " "
    ],
    [
      "сказ",
      "ал "
    ],
    [
      "д",
      "а"
    ],
    [
      "г",
      "ра"
    ],
    [
      "ол",
      "ь"
    ],
    [
      "т",
      "и"
    ],
    [
      "та",
      "к "
    ],
    [
      "ну",
      "л"
    ],
    [
      "ра",
      "в"
    ],
    [
      "о",
      "й "
    ],
    [
      "с",
      "ки"
    ],
    [
      "ал",
      "и "
    ],
    [
      "м",
      "ен"
    ],
    [
      "к",
      "у"
    ],
    [
      "но",
      "ст"
    ],
    [
      "П",
      "ь"
    ],
    [
      ", ",
      "как "
    ],
    [
      "а",
      "ш"
    ],
    [
      "е",
      "й"
    ],
    [
      "е",
      "щ"
    ],
    [
      "п",
      "о "
    ],
    [
      "ис",
      "ь "
    ],
    [
      "с",
      "еб"
    ],
    [
      "о",
      "п"
    ],
    [
      "ра",
      "н"
    ],
    [
      "г",
      "ла"
    ],
    [
      "Пь",
      "ер"
    ],
    [
      "у",
      "л"
    ],
    [
      "м",
      "у "
    ],
    [
      ". ",
      "В"
    ],
    [
      "т",
      "ь "
    ],
    [
      "но",
      "й "
    ],
    [
      "ст",
      "р"
    ],
    [
      "е",
      "в"
    ],
    [
      "щ",
      "и"
    ],
    [
      "у",
      "ч"
    ],
    [
      "ж",
      "ен"
    ],
    [
      "а",
      "д"
    ],
    [
      "к",
      "а "
    ],
    [
      "ат",
      "ь"
    ],
    [
      "г",
      " "
    ],
    [
      "м",
      ", "
    ],
    [
      "с",
      "п"
    ],
    [
      "ил",
      "и "
    ],
    [
      "и",
      "ч"
    ],
    [
      ".",
      "."
    ],
    [
      "н",
      "ов"
    ],
    [
      "г",
      "ол"
    ],
    [
      "т",
      "е"
    ],
    [
      "из",
      " "
    ],
    [
      "но",
      "го "
    ],
    [
      "к",
      "и "
    ],
    [
      "вс",
      "е"
    ],
    [
      "от",
      "р"
    ],
    [
      "у",
      "з"
    ],
    [
      ". О",
      "н "
    ],
    [
      "н",
      "и "
    ],
    [
      "ел",
      "ов"
    ],
    [
      "л",
      "и "
    ],
    [
      "ил",
      "а "
    ],
    [
      "м",
      "ол"
    ],
    [
      "е",
      "ш"
    ],
    [
      "с",
      "я"
    ],
    [
      "ны",
      "й "
    ],
    [
      "ли",
      "ц"
    ],
    [
      "!",
      " "
    ],
    [
      "то",
      "лько "
    ],
    [
      "а",
      "я "
    ],
    [
      "в",
      "з"
    ],
    [
      "ст",
      "о"
    ],
    [
      "ны",
      "м "
    ],
    [
      "лю",
      "б"
    ],
    [
      "л",
      "я "
    ],
    [
      "княз",
      "ь "
    ],
    [
      "ы",
      "в"
    ],
    [
      "пр",
      "ед"
    ],
    [
      "у",
      "в"
    ],
    [
      "с",
      "ка"
    ],
    [
      "е",
      "го"
    ],
    [
      "пер",
      "ед"
    ],
    [
      "ж",
      "ени"
    ],
    [
      "е",
      "к"
    ],
    [
      "пр",
      "о"
    ],
    [
      "ч",
      "и"
    ],
    [
      "у",
      "м"
    ],
    [
      "ит",
      "ель"
    ],
    [
      "и ",
      "с"
    ],
    [
      "Р",
      "ост"
    ],
    [
      "ю",
      ", "
    ],
    [
      "но",
      ", "
    ],
    [
      "д",
      "и"
    ],
    [
      "с",
      "я, "
    ],
    [
      "х",
      ", "
    ],
    [
      "л",
      "ен"
    ],
    [
      "к",
      "ов"
    ],
    [
      "и",
      "ко"
    ],
    [
      "ал",
      "ь"
    ],
    [
      "ч",
      "то "
    ],
    [
      "ат",
      "аш"
    ],
    [
      "ы",
      "й "
    ],
    [
      ", ч",
      "то"
    ],
    [
      "ча",
      "ст"
    ],
    [
      "х",
      "от"
    ],
    [
      "ы",
      "б"
    ],
    [
      "пр",
      "ос"
    ],
    [
      "д",
      "ля "
    ],
    [
      "ы",
      ", "
    ],
    [
      "Я",
      " "
    ],
    [
      ". ",
      "К"
    ],
    [
      "И",
      " "
    ],
    [
      "на",
      "д"
    ],
    [
      "ул",
      "ыб"
    ],
    [
      "и",
      "ц"
    ],
    [
      "у",
      "п"
    ],
    [
      "ко",
      "гда "
    ],
    [
      "по",
      "сл"
    ],
    [
      "гра",
      "ф"
    ],
    [
      "и",
      "х "
    ],
    [
      "я",
      "л"
    ],
    [
      "см",
      "отр"
    ],
    [
      "у",
      "ш"
    ],
    [
      "ещ",
      "е "
    ],
    [
      "у",
      "р"
    ],
    [
      "ел",
      "и "
    ],
    [
      "ре",
      "м"
    ],
    [
      "е ",
      "и "
    ],
    [
      "м",
      "и, "
    ],
    [
      "ко",
      "й "
    ],
    [
      "у",
      "б"
    ],
    [
      "ен",
      "ь "
    ],
    [
      "ен",
      "но "
    ],
    [
      "г",
      "ля"
    ],
    [
      "ч",
      "елов"
    ],
    [
      "ни",
      "ч"
    ],
    [
      "Н",
      "аташ"
    ],
    [
      "б",
      "оль"
    ],
    [
      "был",
      "а "
    ],
    [
      "ва",
      "я "
    ],
    [
      "е",
      "ра"
    ],
    [
      "ал",
      "ся "
    ],
    [
      "яс",
      "ь "
    ],
    [
      "с",
      "и"
    ],
    [
      "ко",
      "н"
    ],
    [
      "о",
      "на"
    ],
    [
      "ст",
      "ар"
    ],
    [
      " ",
      "и "
    ],
    [
      "г",
      "и"
    ],
    [
      "мо",
      "ж"
    ],
    [
      "т",
      "р"
    ],
    [
      "ч",
      "ув"
    ],
    [
      "т",
      "ы "
    ],
    [
      "но",
      "е "
    ],
    [
      "ит",
      "ь"
    ],
    [
      "г",
      "ос"
    ],
    [
      "о",
      "го "
    ],
    [
      "ен",
      "ь"
    ],
    [
      "ны",
      "е "
    ],
    [
      "а ",
      "и "
    ],
    [
      "э",
      "т"
    ],
    [
      "о",
      ", "
    ],
    [
      "а",
      "ни"
    ],
    [
      "ико",
      "ла"
    ],
    [
      ". ",
      "П"
    ],
    [
      "ас",
      "ь "
    ],
    [
      "во",
      "з"
    ],
    [
      "вы",
      " "
    ],
    [
      "к",
      "у "
    ],
    [
      "об",
      "ра"
    ],
    [
      "-",
      "то "
    ],
    [
      "в",
      "ес"
    ],
    [
      "п",
      "л"
    ],
    [
      "д",
      "о"
    ],
    [
      "п",
      "ис"
    ],
    [
      ":",
      " "
    ],
    [
      "п",
      "у"
    ],
    [
      "г",
      "ор"
    ],
    [
      "ил",
      "ся "
    ],
    [
      "говор",
      "ил "
    ],
    [
      "с",
      "в"
    ],
    [
      ".\n   -- ",
      "Н"
    ],
    [
      "по",
      "то"
    ],
    [
      "ят",
      "ь "
    ],
    [
      "у",
      "же "
    ],
    [
      ". ",
      "С"
    ],
    [
      "ос",
      "ь "
    ],
    [
      "? ",
      "-- "
    ],
    [
      "ны",
      " "
    ],
    [
      "ез",
      " "
    ],
    [
      "ны",
      "х "
    ],
    [
      "уд",
      "ар"
    ],
    [
      "ш",
      "е "
    ],
    [
      "в",
      "рем"
    ],
    [
      "ил",
      "и"
    ],
    [
      "л",
      "а "
    ],
    [
      "м",
      "ал"
    ],
    [
      "ы",
      "ш"
    ],
    [
      "д",
      "ол"
    ],
    [
      "на",
      "ч"
    ],
    [
      "чув",
      "ств"
    ],
    [
      "был",
      "и "
    ],
    [
      "ран",
      "ц"
    ],
    [
      "Андре",
      "й "
    ],
    [
      "л",
      "ов"
    ],
    [
      "д",
      "ост"
    ],
    [
      "р",
      "я"
    ],
    [
      "лю",
      "д"
    ],
    [
      "д",
      "ер"
    ],
    [
      ", что ",
      "он "
    ],
    [
      "Рост",
      "ов"
    ],
    [
      "с",
      "о"
    ],
    [
      "не",
      "го "
    ],
    [
      "я ",
      "и "
    ],
    [
      "у",
      "с"
    ],
    [
      "б",
      "л"
    ],
    [
      "х",
      "ор"
    ],
    [
      "ст",
      "ра"
    ],
    [
      "\n   ",
      "-- "
    ],
    [
      "Н",
      "икола"
    ],
    [
      "к",
      "рас"
    ],
    [
      "ст",
      "ав"
    ],
    [
      "мо",
      "г"
    ],
    [
      "еж",
      "д"
    ],
    [
      "и",
      "м "
    ],
    [
      "в",
      "еч"
    ],
    [
      "м",
      "ест"
    ],
    [
      "в",
      "о "
    ],
    [
      "те",
      "пер"
    ],
    [
      "д",
      "о "
    ],
    [
      ", что",
      "бы "
    ],
    [
      "сл",
      "ов"
    ],
    [
      "с",
      "ов"
    ],
    [
      "о",
      "ф"
    ],
    [
      "ж",
      "ел"
    ],
    [
      "ит",
      " "
    ],
    [
      "т",
      "ы"
    ],
    [
      "у",
      "ю "
    ],
    [
      "ет",
      ", "
    ],
    [
      "а",
      "к "
    ],
    [
      "п",
      "ов"
    ],
    [
      "п",
      "рав"
    ],
    [
      "ст",
      "ор"
    ],
    [
      "и",
      "д"
    ],
    [
      "го",
      ", "
    ],
    [
      "ня",
      "з"
    ],
    [
      "и ",
      "по"
    ],
    [
      "г",
      "од"
    ],
    [
      "ени",
      "е "
    ],
    [
      "ка",
      ", "
    ],
    [
      "дру",
      "го"
    ],
    [
      "ла",
      "с"
    ],
    [
      ". ",
      "Т"
    ],
    [
      "ч",
      "то"
    ],
    [
      "к",
      ", "
    ],
    [
      "г",
      "а"
    ],
    [
      "с",
      "об"
    ],
    [
      "ст",
      "уп"
    ],
    [
      "с",
      "дел"
    ],
    [
      "м",
      "ы"
    ],
    [
      "он",
      ", "
    ],
    [
      "я ",
      "на "
    ],
    [
      "к",
      "и, "
    ],
    [
      "ко",
      "р"
    ],
    [
      "о",
      "х"
    ],
    [
      "м",
      "не "
    ],
    [
      "гля",
      "д"
    ],
    [
      "за",
      "м"
    ],
    [
      ";",
      " "
    ],
    [
      "ш",
      "ел "
    ],
    [
      "и",
      "х"
    ],
    [
      "хор",
      "ош"
    ],
    [
      "Пьер",
      " "
    ],
    [
      "М",
      "ар"
    ],
    [
      "няз",
      "ь "
    ],
    [
      "д",
      "в"
    ],
    [
      "т",
      "ь"
    ],
    [
      "с",
      "част"
    ],
    [
      "буд",
      "то "
    ],
    [
      "оф",
      "иц"
    ],
    [
      "ш",
      "е"
    ],
    [
      "ал",
      ", "
    ],
    [
      "д",
      "ат"
    ],
    [
      "ф",
      "ранц"
    ],
    [
      "и ",
      "не "
    ],
    [
      "с",
      "ер"
    ],
    [
      "Б",
      "ор"
    ],
    [
      "ко",
      "й"
    ],
    [
      "ест",
      "в"
    ],
    [
      "во",
      "й"
    ],
    [
      "ст",
      "а"
    ],
    [
      "ю",
      "щ"
    ],
    [
      "мол",
      "од"
    ],
    [
      "б",
      "ол"
    ],
    [
      "з",
      "в"
    ],
    [
      "-- ",
      "сказал "
    ],
    [
      "ж",
      "из"
    ],
    [
      "оч",
      "ень "
    ],
    [
      "ал",
      "ись "
    ],
    [
      "л",
      "е"
    ],
    [
      "которы",
      "е "
    ],
    [
      "ч",
      "ер"
    ],
    [
      "в",
      "ел"
    ],
    [
      "кня",
      "ж"
    ],
    [
      "ь",
      "ю "
    ],
    [
      "которы",
      "й "
    ],
    [
      "но",
      "м "
    ],
    [
      "м",
      "у"
    ],
    [
      "ж",
      "д"
    ],
    [
      "это",
      "го "
    ],
    [
      ". ",
      "И "
    ],
    [
      "ко",
      "м "
    ],
    [
      "ени",
      "я "
    ],
    [
      "ко",
      "то"
    ],
    [
      "на",
      ", "
    ],
    [
      "во",
      "р"
    ],
    [
      "с",
      "ы"
    ],
    [
      "врем",
      "я "
    ],
    [
      "ол",
      "дат"
    ],
    [
      "челов",
      "е"
    ],
    [
      "на",
      "я "
    ],
    [
      "е",
      "й, "
    ],
    [
      "при",
      "ят"
    ],
    [
      "и ",
      "и "
    ],
    [
      "б",
      "р"
    ],
    [
      "по",
      "р"
    ],
    [
      "то",
      "л"
    ],
    [
      "ра",
      "жени"
    ],
    [
      "г",
      "р"
    ],
    [
      "себ",
      "я "
    ],
    [
      "д",
      "ор"
    ],
    [
      "нул",
      " "
    ],
    [
      "о",
      "е "
    ],
    [
      "кр",
      "ы"
    ],
    [
      "тепер",
      "ь "
    ],
    [
      "ду",
      "м"
    ],
    [
      "сказ",
      "ала "
    ],
    [
      "во",
      "л"
    ],
    [
      "ю",
      "щи"
    ],
    [
      "гос",
      "удар"
    ],
    [
      "т",
      "у"
    ],
    [
      "ом",
      ", "
    ],
    [
      "не",
      "е "
    ],
    [
      "он",
      "и "
    ],
    [
      "Д",
      "ол"
    ],
    [
      ", -- ",
      "сказал "
    ],
    [
      "ш",
      "а"
    ],
    [
      "франц",
      "уз"
    ],
    [
      "за",
      "д"
    ],
    [
      "и",
      "в "
    ],
    [
      "не",
      "й "
    ],
    [
      ". Н",
      "о "
    ],
    [
      "о",
      "й"
    ],
    [
      "т",
      "ер"
    ],
    [
      "ат",
      "ь, "
    ],
    [
      "княз",
      "я "
    ],
    [
      "ми",
      "ну"
    ],
    [
      "ех",
      "ал "
    ],
    [
      "Мар",
      "ь"
    ],
    [
      "ос",
      "об"
    ],
    [
      "ы",
      "м "
    ],
    [
      "ну",
      "ю "
    ],
    [
      "т",
      "е "
    ],
    [
      "бы",
      "ть "
    ],
    [
      "гол",
      "ов"
    ],
    [
      "ст",
      "ви"
    ],
    [
      "ем",
      "у"
    ],
    [
      "дру",
      "г"
    ],
    [
      "ош",
      "ад"
    ],
    [
      "ан",
      "ов"
    ],
    [
      "ал",
      "а"
    ],
    [
      "ни",
      "м"
    ],
    [
      "перед",
      " "
    ],
    [
      "о",
      "з"
    ],
    [
      "ст",
      "ол"
    ],
    [
      "м",
      "ил"
    ],
    [
      ".\n   ",
      "К"
    ],
    [
      "оп",
      "ять "
    ],
    [
      "пол",
      "ож"
    ],
    [
      "дру",
      "г "
    ],
    [
      "ки",
      "м "
    ],
    [
      ". О",
      "на "
    ],
    [
      "з",
      "н"
    ],
    [
      "в",
      "ш"
    ],
    [
      "ни",
      "ма"
    ],
    [
      "ком",
      "ан"
    ],
    [
      "ко",
      "го "
    ],
    [
      "А",
      " "
    ],
    [
      "сво",
      "ей "
    ],
    [
      "п",
      "а"
    ],
    [
      "все",
      "х "
    ],
    [
      "ст",
      "во"
    ],
    [
      "Э",
      "то "
    ],
    [
      "к",
      "ру"
    ],
    [
      "д",
      "р"
    ],
    [
      "г",
      "ост"
    ],
    [
      "ен",
      " "
    ],
    [
      "ко",
      "л"
    ],
    [
      "нич",
      "его "
    ],
    [
      "л",
      "ошад"
    ],
    [
      "са",
      "мо"
    ],
    [
      "э",
      "ти"
    ],
    [
      "е",
      ". "
    ],
    [
      "и ",
      "в "
    ],
    [
      "т",
      "у "
    ],
    [
      "п",
      "ера"
    ],
    [
      "! ",
      "-- "
    ],
    [
      "а",
      "й"
    ],
    [
      "ез",
      "д"
    ],
    [
      "чувств",
      "ов"
    ],
    [
      "пр",
      "од"
    ],
    [
      "это",
      "т "
    ],
    [
      "ски",
      "й "
    ],
    [
      "в",
      "ши"
    ],
    [
      "в",
      "ест"
    ],
    [
      "ж",
      "ал"
    ],
    [
      "та",
      "н"
    ],
    [
      "вес",
      "ел"
    ],
    [
      "т",
      "ре"
    ],
    [
      "б",
      "ес"
    ],
    [
      "ы",
      "ва"
    ],
    [
      "и",
      "ш"
    ],
    [
      "под",
      " "
    ],
    [
      "ком",
      "на"
    ],
    [
      "то",
      "м "
    ],
    [
      "ов",
      ", "
    ],
    [
      "е",
      "ц"
    ],
    [
      "и",
      "н "
    ],
    [
      "гла",
      "за"
    ],
    [
      "..",
      ". "
    ],
    [
      "т",
      ", "
    ],
    [
      "т",
      "еб"
    ],
    [
      "у",
      "щ"
    ],
    [
      "офиц",
      "ер"
    ],
    [
      "то",
      "м"
    ],
    [
      "м",
      "о "
    ],
    [
      "п",
      "ар"
    ],
    [
      "пр",
      "от"
    ],
    [
      "об",
      "р"
    ],
    [
      "ен",
      "ер"
    ],
    [
      "с",
      "олдат"
    ],
    [
      "пр",
      "и "
    ],
    [
      "Дол",
      "ох"
    ],
    [
      "д",
      "ом"
    ],
    [
      "ны",
      "ми "
    ],
    [
      "сво",
      "ю "
    ],
    [
      "ест",
      "ь "
    ],
    [
      "г",
      "л"
    ],
    [
      "с",
      "ил"
    ],
    [
      "Ч",
      "то "
    ],
    [
      "м",
      "уж"
    ],
    [
      "д",
      "ви"
    ],
    [
      "им",
      "пера"
    ],
    [
      "ост",
      "ав"
    ],
    [
      "у",
      "ст"
    ],
    [
      "мен",
      "я "
    ],
    [
      "сл",
      "ыш"
    ],
    [
      "мо",
      "г "
    ],
    [
      "к",
      "у, "
    ],
    [
      "ви",
      "дел"
    ],
    [
      ".\n   ",
      "В"
    ],
    [
      "говор",
      "ил"
    ],
    [
      "не ",
      "по"
    ],
    [
      ".\n   -- ",
      "В"
    ],
    [
      "В",
      "ас"
    ],
    [
      "с",
      "по"
    ],
    [
      "ет",
      "ь "
    ],
    [
      "сто",
      "я"
    ],
    [
      "б",
      "о"
    ],
    [
      "ем",
      ", "
    ],
    [
      "гол",
      "ос"
    ],
    [
      "л",
      "ени"
    ],
    [
      "прод",
      "ол"
    ],
    [
      "с",
      "ла"
    ],
    [
      "ня",
      "л"
    ],
    [
      "см",
      "е"
    ],
    [
      "с",
      "прос"
    ],
    [
      "ско",
      "лько "
    ],
    [
      ". В",
      " "
    ],
    [
      "ал",
      "и"
    ],
    [
      "р",
      "и"
    ],
    [
      "ч",
      "ит"
    ],
    [
      "са",
      "м "
    ],
    [
      "его",
      ", "
    ],
    [
      "у ",
      "и "
    ],
    [
      "м",
      "ер"
    ],
    [
      "т",
      "я"
    ],
    [
      "пер",
      "е"
    ],
    [
      "д",
      "ов"
    ],
    [
      "посл",
      "е "
    ],
    [
      "ре",
      "ш"
    ],
    [
      "ут",
      "уз"
    ],
    [
      "ни",
      "м "
    ],
    [
      "д",
      "ав"
    ],
    [
      "то",
      "го"
    ],
    [
      "м",
      "ы "
    ],
    [
      "дер",
      "ж"
    ],
    [
      "ра",
      "я "
    ],
    [
      "ал",
      "ась "
    ],
    [
      "ру",
      "с"
    ],
    [
      "гла",
      "в"
    ],
    [
      "к ",
      "не"
    ],
    [
      "себ",
      "е "
    ],
    [
      "ы",
      "е "
    ],
    [
      "г",
      "енер"
    ],
    [
      "т",
      "и "
    ],
    [
      ".\n   -- ",
      "Д"
    ],
    [
      "Н",
      "а"
    ],
    [
      "ств",
      "ен"
    ],
    [
      "т",
      "ем "
    ],
    [
      "пол",
      "е"
    ],
    [
      "бол",
      "ее "
    ],
    [
      "г",
      "ру"
    ],
    [
      "ел",
      "а "
    ],
    [
      "кр",
      "ич"
    ],
    [
      "мы",
      "сл"
    ],
    [
      "ис",
      "ь, "
    ],
    [
      "сво",
      "его "
    ],
    [
      "у",
      "х"
    ],
    [
      "ог",
      "ля"
    ],
    [
      "мож",
      "ет "
    ],
    [
      "об",
      "щ"
    ],
    [
      "ни",
      "ц"
    ],
    [
      "на",
      "ш"
    ],
    [
      "и",
      "мо"
    ],
    [
      "к",
      "то "
    ],
    [
      "ю",
      "т "
    ],
    [
      "ил",
      "ась "
    ],
    [
      "буд",
      "ет "
    ],
    [
      "Бор",
      "ис"
    ],
    [
      "то",
      "го "
    ],
    [
      "яс",
      "ь, "
    ],
    [
      "?",
      "\n   -- "
    ],
    [
      "ав",
      "ши"
    ],
    [
      "и ",
      "с "
    ],
    [
      ". ",
      "Д"
    ],
    [
      "ал",
      "о "
    ],
    [
      ": ",
      "\""
    ],
    [
      ". ",
      "Е"
    ],
    [
      ". ",
      "Я "
    ],
    [
      "О",
      "н "
    ],
    [
      "ы",
      "х "
    ],
    [
      "ы",
      "х"
    ],
    [
      "князь ",
      "Андре"
    ],
    [
      "ки",
      "й "
    ],
    [
      "ел",
      "ь "
    ],
    [
      "по",
      "ч"
    ],
    [
      "итель",
      "но "
    ],
    [
      "с",
      "о "
    ],
    [
      "б",
      "и"
    ],
    [
      "ать",
      "ся "
    ],
    [
      "Вас",
      "или"
    ],
    [
      "ч",
      "ем "
    ],
    [
      "к",
      "в"
    ],
    [
      "с",
      "е "
    ],
    [
      "ял",
      " "
    ],
    [
      "б",
      "ра"
    ],
    [
      "пр",
      "ош"
    ],
    [
      "п",
      "ла"
    ],
    [
      "ско",
      "го "
    ],
    [
      "пис",
      "ь"
    ],
    [
      "е",
      "г"
    ],
    [
      "т",
      "ь, "
    ],
    [
      "ст",
      "ал "
    ],
    [
      "сво",
      "им "
    ],
    [
      "то",
      "й "
    ],
    [
      "ал",
      ", что "
    ],
    [
      "нязь ",
      "Андрей "
    ],
    [
      "раз",
      " "
    ],
    [
      "ност",
      "ь "
    ],
    [
      "от",
      "веч"
    ],
    [
      "ка",
      "я "
    ],
    [
      "кр",
      "и"
    ],
    [
      "б",
      "еж"
    ],
    [
      "боль",
      "ш"
    ],
    [
      "б",
      "ез "
    ],
    [
      "зна",
      "ч"
    ],
    [
      ". ",
      "М"
    ],
    [
      "гд",
      "е "
    ],
    [
      "от",
      "ц"
    ],
    [
      "а ",
      "в "
    ],
    [
      "ну",
      "ж"
    ],
    [
      "ре",
      "д"
    ],
    [
      "в",
      "ет"
    ],
    [
      "ничего ",
      "не "
    ],
    [
      "пр",
      "ост"
    ],
    [
      "ал",
      "ось "
    ],
    [
      "мол",
      "ч"
    ],
    [
      "я",
      "ни"
    ],
    [
      ". ",
      "Г"
    ],
    [
      "ност",
      "и "
    ],
    [
      "ив",
      "ш"
    ],
    [
      "продол",
      "ж"
    ],
    [
      "д",
      "ес"
    ],
    [
      "б",
      "ла"
    ],
    [
      "та",
      "к"
    ],
    [
      "по",
      "каз"
    ],
    [
      "стор",
      "он"
    ],
    [
      "все",
      "гда "
    ],
    [
      "Рост",
      "ов "
    ],
    [
      "од",
      "ин "
    ],
    [
      "к",
      "ре"
    ],
    [
      "Ан",
      "на "
    ],
    [
      "за",
      "в"
    ],
    [
      "пр",
      "е"
    ],
    [
      "посл",
      "ед"
    ],
    [
      "он ",
      "не "
    ],
    [
      "пото",
      "му "
    ],
    [
      "ра",
      "д"
    ],
    [
      "по",
      "з"
    ],
    [
      "как ",
      "будто "
    ],
    [
      "К",
      "утуз"
    ],
    [
      "На",
      "поле"
    ],
    [
      "ени",
      "я"
    ],
    [
      "еж",
      "ели "
    ],
    [
      "ду",
      "ш"
    ],
    [
      "г",
      "от"
    ],
    [
      "р",
      "о"
    ],
    [
      "ка",
      "р"
    ],
    [
      "я ",
      "не "
    ],
    [
      "на",
      "ход"
    ],
    [
      "котор",
      "ой "
    ],
    [
      "нул",
      "ся "
    ],
    [
      "С",
      "он"
    ],
    [
      "л",
      "уч"
    ],
    [
      "ост",
      "анов"
    ],
    [
      "это",
      "й "
    ],
    [
      "ыв",
      "ал "
    ],
    [
      "ен",
      "ис"
    ],
    [
      "из",
      "вест"
    ],
    [
      "по",
      "м"
    ],
    [
      "я",
      "н"
    ],
    [
      "эт",
      "и "
    ],
    [
      "д",
      "обр"
    ],
    [
      "пр",
      "ис"
    ],
    [
      "пр",
      "о "
    ],
    [
      "пред",
      "став"
    ],
    [
      "ко",
      "е "
    ],
    [
      "т",
      "е, "
    ],
    [
      ".\n   -- ",
      "П"
    ],
    [
      "к",
      "е "
    ],
    [
      "т",
      "а "
    ],
    [
      "князь ",
      "Андрей "
    ],
    [
      "А",
      "на"
    ],
    [
      "ар",
      "ми"
    ],
    [
      "рас",
      "сказ"
    ],
    [
      "ет",
      "ся "
    ],
    [
      "ц",
      "и"
    ],
    [
      "-",
      "ни"
    ],
    [
      "-ни",
      "буд"
    ],
    [
      "вз",
      "гляд"
    ],
    [
      "ско",
      "й "
    ],
    [
      "раз",
      "говор"
    ],
    [
      "лас",
      "ь "
    ],
    [
      "ил",
      "ись "
    ],
    [
      "но ",
      "и "
    ],
    [
      "ежд",
      "у "
    ],
    [
      "то",
      ", что "
    ],
    [
      "дел",
      "а"
    ],
    [
      "л",
      "о "
    ],
    [
      "зам",
      "ет"
    ],
    [
      "ра",
      "дост"
    ],
    [
      "котор",
      "ое "
    ],
    [
      "б",
      "ур"
    ],
    [
      "ар",
      "и"
    ],
    [
      "мо",
      "й "
    ],
    [
      ".",
      "\n  "
    ],
    [
      "импера",
      "тор"
    ],
    [
      "ъ",
      "ю"
    ],
    [
      "ъю",
      "тан"
    ],
    [
      "особ",
      "енно "
    ],
    [
      "П",
      "ав"
    ],
    [
      "улыб",
      "а"
    ],
    [
      "дол",
      "ж"
    ],
    [
      "к",
      "л"
    ],
    [
      "не",
      "прият"
    ],
    [
      "а",
      "з"
    ],
    [
      ". ",
      "Б"
    ],
    [
      "в",
      "друг "
    ],
    [
      "это",
      "м "
    ],
    [
      "то",
      "ч"
    ],
    [
      "был",
      "о"
    ],
    [
      "р",
      "од"
    ],
    [
      "князя ",
      "Андре"
    ],
    [
      "М",
      "их"
    ],
    [
      "в",
      "ед"
    ],
    [
      "ит",
      "е "
    ],
    [
      "вы",
      "ражени"
    ],
    [
      "но ",
      "было "
    ],
    [
      "сл",
      "уш"
    ],
    [
      "ы",
      "вая "
    ],
    [
      "ку",
      "ю "
    ],
    [
      "эт",
      "у "
    ],
    [
      "обра",
      "т"
    ],
    [
      "да",
      "же "
    ],
    [
      "ю",
      "т"
    ],
    [
      "е",
      "е"
    ],
    [
      "а",
      "в "
    ],
    [
      "ет",
      "е "
    ],
    [
      "д",
      "ей"
    ],
    [
      "над",
      " "
    ],
    [
      "си",
      "дел"
    ],
    [
      "ю",
      "ш"
    ],
    [
      "ал",
      "ос"
    ],
    [
      "ни",
      "е "
    ],
    [
      "ить",
      "ся "
    ],
    [
      "\"",
      " "
    ],
    [
      ", ",
      "но "
    ],
    [
      "ол",
      "кон"
    ],
    [
      "ад",
      "ъютан"
    ],
    [
      "на ",
      "не"
    ],
    [
      "л",
      "о"
    ],
    [
      "у",
      "вид"
    ],
    [
      "р",
      "ом"
    ],
    [
      "Пав",
      "лов"
    ],
    [
      "челов",
      "ек"
    ],
    [
      "ни",
      "х "
    ],
    [
      "н",
      "у "
    ],
    [
      "ер",
      "ш"
    ],
    [
      "в",
      "перед"
    ],
    [
      "д",
      "ет"
    ],
    [
      "ва",
      "м "
    ],
    [
      "ка",
      "ж"
    ],
    [
      "кото",
      "рая "
    ],
    [
      ". ",
      "\""
    ],
    [
      "ив",
      "ши"
    ],
    [
      "в",
      "ал"
    ],
    [
      "П",
      "ет"
    ],
    [
      "ин",
      "я "
    ],
    [
      "а",
      "ми "
    ],
    [
      "ж",
      "е, "
    ],
    [
      "и",
      "ст"
    ],
    [
      "я",
      "д"
    ],
    [
      "под",
      "ум"
    ],
    [
      "ь",
      ", что "
    ],
    [
      "ду",
      "ма"
    ],
    [
      "в",
      "ст"
    ],
    [
      "не",
      "сколько "
    ],
    [
      "ат",
      "ель"
    ],
    [
      "б",
      "ат"
    ],
    [
      "ост",
      "о"
    ],
    [
      "ва",
      "с "
    ],
    [
      "она",
      ", "
    ],
    [
      "не",
      "м"
    ],
    [
      "ря",
      "д"
    ],
    [
      "смотр",
      "ел "
    ],
    [
      "об",
      "ед"
    ],
    [
      "Д",
      "енис"
    ],
    [
      "и",
      "й"
    ],
    [
      "м",
      "ежду "
    ],
    [
      "\"",
      ", -- "
    ],
    [
      "л",
      "е "
    ],
    [
      "а",
      "к"
    ],
    [
      "об",
      " "
    ],
    [
      "ру",
      "ю "
    ],
    [
      "Никола",
      "й "
    ],
    [
      "говор",
      "ила "
    ],
    [
      "друго",
      "й "
    ],
    [
      "пол",
      "уч"
    ],
    [
      "д",
      "вер"
    ],
    [
      "ка",
      "за"
    ],
    [
      "п",
      "ы"
    ],
    [
      "т",
      "ем"
    ],
    [
      "вид",
      "имо"
    ],
    [
      "в",
      "мест"
    ],
    [
      "лиц",
      "о "
    ],
    [
      "пр",
      "ек"
    ],
    [
      "во",
      "т "
    ],
    [
      "е, ",
      "и "
    ],
    [
      "пр",
      "я"
    ],
    [
      "вы",
      "й "
    ],
    [
      "она",
      "пар"
    ],
    [
      ".\n   -- ",
      "К"
    ],
    [
      ".\n   ",
      "Н"
    ],
    [
      "во",
      "д"
    ],
    [
      "Мих",
      "ай"
    ],
    [
      "ств",
      "ов"
    ],
    [
      "счаст",
      "ли"
    ],
    [
      "е",
      "п"
    ],
    [
      "о",
      "й, "
    ],
    [
      "пр",
      "ежд"
    ],
    [
      "и, ",
      "и "
    ],
    [
      "дор",
      "ог"
    ],
    [
      "ц",
      "ен"
    ],
    [
      "стр",
      "о"
    ],
    [
      "ст",
      "ва"
    ],
    [
      "сл",
      "уж"
    ],
    [
      "но",
      "ю "
    ],
    [
      "к",
      "ла"
    ],
    [
      "ре",
      "ч"
    ],
    [
      "я ",
      "в "
    ],
    [
      "ны",
      "й, "
    ],
    [
      "мал",
      "ень"
    ],
    [
      "л",
      "ож"
    ],
    [
      "котор",
      "ого "
    ],
    [
      "веч",
      "ер"
    ],
    [
      "сво",
      "их "
    ],
    [
      ", ",
      "не "
    ],
    [
      "дв",
      "а "
    ],
    [
      "спрос",
      "ил "
    ],
    [
      "д",
      "ен"
    ],
    [
      "гла",
      "за "
    ],
    [
      "ки",
      "е "
    ],
    [
      "дру",
      "ги"
    ],
    [
      "пол",
      "ков"
    ],
    [
      "тре",
      "б"
    ],
    [
      "при",
      "б"
    ]
  ]
}