{
  "vocab": {
    "0": "<unk>",
    "1": "<pad>",
    "2": "<s>",
    "3": "</s>",
    "4": "</w>",
    "5": "!",
    "6": "!</w>",
    "7": "\"",
    "8": "\"</w>",
    "9": "#",
    "10": "#</w>",
    "11": "$",
    "12": "$</w>",
    "13": "%",
    "14": "%</w>",
    "15": "&",
    "16": "&</w>",
    "17": "'",
    "18": "'</w>",
    "19": "(",
    "20": "(</w>",
    "21": ")",
    "22": ")</w>",
    "23": "*",
    "24": "*</w>",
    "25": "+",
    "26": "+</w>",
    "27": ",",
    "28": ",</w>",
    "29": ".",
    "30": ".</w>",
    "31": "/",
    "32": "/</w>",
    "33": "0",
    "34": "1",
    "35": "12",
    "36": "123",
    "37": "1234",
    "38": "12345",
    "39": "12345</w>",
    "40": "2",
    "41": "3",
    "42": "4",
    "43": "5",
    "44": "6",
    "45": "67",
    "46": "678",
    "47": "6789",
    "48": "67890",
    "49": "67890</w>",
    "50": "7",
    "51": "8",
    "52": "9",
    "53": ":",
    "54": ":</w>",
    "55": ";",
    "56": ";</w>",
    "57": "<",
    "58": "<</w>",
    "59": ">",
    "60": "></w>",
    "61": "?",
    "62": "?</w>",
    "63": "@",
    "64": "@</w>",
    "65": "B",
    "66": "BP",
    "67": "BPE",
    "68": "BPE</w>",
    "69": "By",
    "70": "Byt",
    "71": "Byte</w>",
    "72": "E",
    "73": "En",
    "74": "Enc",
    "75": "Enco",
    "76": "Encod",
    "77": "Encodi",
    "78": "Encodin",
    "79": "Encoding",
    "80": "Encoding</w>",
    "81": "L",
    "82": "N",
    "83": "NL",
    "84": "NLP",
    "85": "NLP</w>",
    "86": "P",
    "87": "Pa",
    "88": "Pai",
    "89": "Pair</w>",
    "90": "[",
    "91": "[</w>",
    "92": "\\",
    "93": "\\</w>",
    "94": "]",
    "95": "]</w>",
    "96": "^",
    "97": "^</w>",
    "98": "_",
    "99": "_</w>",
    "100": "a",
    "101": "b",
    "102": "bon",
    "103": "bonj",
    "104": "bonjo",
    "105": "bonjou",
    "106": "bonjour</w>",
    "107": "c",
    "108": "d",
    "109": "e",
    "110": "e</w>",
    "111": "g",
    "112": "h",
    "113": "he",
    "114": "hel",
    "115": "hell",
    "116": "hello",
    "117": "hello</w>",
    "118": "i",
    "119": "j",
    "120": "l",
    "121": "le</w>",
    "122": "m",
    "123": "mon",
    "124": "mond",
    "125": "monde</w>",
    "126": "n",
    "127": "o",
    "128": "on",
    "129": "r",
    "130": "r</w>",
    "131": "t",
    "132": "u",
    "133": "w",
    "134": "wo",
    "135": "wor",
    "136": "worl",
    "137": "world",
    "138": "world</w>",
    "139": "y",
    "140": "{",
    "141": "{</w>",
    "142": "|",
    "143": "|</w>",
    "144": "}",
    "145": "}</w>",
    "146": "~",
    "147": "~</w>",
    "148": "А",
    "149": "А</w>",
    "150": "Ан",
    "151": "Анг",
    "152": "Англи",
    "153": "Англий",
    "154": "Английс",
    "155": "Английск",
    "156": "Английски",
    "157": "Английский</w>",
    "158": "Г",
    "159": "Гл",
    "160": "Глу",
    "161": "Глубо",
    "162": "Глубоко",
    "163": "Глубокое</w>",
    "164": "Д",
    "165": "Дл",
    "166": "Длин",
    "167": "Длинные</w>",
    "168": "К",
    "169": "Ка",
    "170": "Как</w>",
    "171": "Кач",
    "172": "Качест",
    "173": "Качество",
    "174": "Качество</w>",
    "175": "Ко",
    "176": "Короткие</w>",
    "177": "М",
    "178": "Ма",
    "179": "Маш",
    "180": "Машинное</w>",
    "181": "Н",
    "182": "Не",
    "183": "Ней",
    "184": "Нейро",
    "185": "Нейрон",
    "186": "Нейронные</w>",
    "187": "О",
    "188": "Оч",
    "189": "Очен",
    "190": "Очень</w>",
    "191": "П",
    "192": "Пов",
    "193": "Повтор",
    "194": "Повторяю",
    "195": "Повторяющи",
    "196": "Повторяющие",
    "197": "Повторяющиеся</w>",
    "198": "Предлож",
    "199": "Предложен",
    "200": "Предложения</w>",
    "201": "Привет</w>",
    "202": "Р",
    "203": "Раз",
    "204": "Разные</w>",
    "205": "С",
    "206": "Спе",
    "207": "Специ",
    "208": "Специаль",
    "209": "Специальные</w>",
    "210": "Т",
    "211": "То",
    "212": "Токениз",
    "213": "Токениза",
    "214": "Токенизаци",
    "215": "Токенизация</w>",
    "216": "Ч",
    "217": "Частот",
    "218": "Частотны",
    "219": "Частотный</w>",
    "220": "Э",
    "221": "Это",
    "222": "Это</w>",
    "223": "а",
    "224": "а</w>",
    "225": "ает</w>",
    "226": "аз",
    "227": "ал",
    "228": "алго",
    "229": "алгори",
    "230": "алгорит",
    "231": "алгоритм",
    "232": "алгоритм</w>",
    "233": "алгоритма</w>",
    "234": "алгоритмы</w>",
    "235": "аль",
    "236": "ан",
    "237": "анал",
    "238": "анализ",
    "239": "анализ</w>",
    "240": "анализа</w>",
    "241": "ант",
    "242": "анти",
    "243": "антид",
    "244": "антидис",
    "245": "антидисест",
    "246": "антидисеста",
    "247": "антидисестаб",
    "248": "антидисестабли",
    "249": "антидисестаблиш",
    "250": "антидисестаблишмент",
    "251": "антидисестаблишмента",
    "252": "антидисестаблишментари",
    "253": "антидисестаблишментариан",
    "254": "антидисестаблишментарианиз",
    "255": "антидисестаблишментарианизм</w>",
    "256": "аст",
    "257": "асто",
    "258": "астот",
    "259": "ат",
    "260": "ать</w>",
    "261": "б",
    "262": "бо",
    "263": "боле",
    "264": "более</w>",
    "265": "в",
    "266": "в</w>",
    "267": "вен",
    "268": "венного</w>",
    "269": "вли",
    "270": "влия",
    "271": "влияет</w>",
    "272": "вн",
    "273": "вни",
    "274": "вним",
    "275": "вниман",
    "276": "внимание</w>",
    "277": "во",
    "278": "вол",
    "279": "вс",
    "280": "все</w>",
    "281": "вы",
    "282": "вы</w>",
    "283": "г",
    "284": "го",
    "285": "го</w>",
    "286": "д",
    "287": "дан",
    "288": "данных</w>",
    "289": "де",
    "290": "дел",
    "291": "дела</w>",
    "292": "дл",
    "293": "длин",
    "294": "длинное</w>",
    "295": "длины</w>",
    "296": "для</w>",
    "297": "е",
    "298": "е</w>",
    "299": "ен",
    "300": "ение</w>",
    "301": "ест",
    "302": "естест",
    "303": "естественного</w>",
    "304": "ет",
    "305": "ет</w>",
    "306": "ж",
    "307": "же</w>",
    "308": "з",
    "309": "зр",
    "310": "зрение</w>",
    "311": "и",
    "312": "и</w>",
    "313": "ие</w>",
    "314": "из",
    "315": "изуч",
    "316": "изучает</w>",
    "317": "ин",
    "318": "инное</w>",
    "319": "интел",
    "320": "интеллект",
    "321": "интеллекта</w>",
    "322": "ир",
    "323": "иров",
    "324": "ис",
    "325": "иск",
    "326": "иску",
    "327": "искус",
    "328": "искусст",
    "329": "искусственного</w>",
    "330": "ия</w>",
    "331": "й",
    "332": "й</w>",
    "333": "к",
    "334": "к</w>",
    "335": "кен",
    "336": "кениз",
    "337": "кие</w>",
    "338": "ко",
    "339": "ком",
    "340": "комп",
    "341": "компью",
    "342": "компьюте",
    "343": "компьютер",
    "344": "компьютерное</w>",
    "345": "кон",
    "346": "конц",
    "347": "конце",
    "348": "концеп",
    "349": "концепции</w>",
    "350": "короткие</w>",
    "351": "кото",
    "352": "котор",
    "353": "котора",
    "354": "которая</w>",
    "355": "которы",
    "356": "которые</w>",
    "357": "который</w>",
    "358": "л",
    "359": "ле",
    "360": "леж",
    "361": "лежат",
    "362": "лежат</w>",
    "363": "лек",
    "364": "лект",
    "365": "ли",
    "366": "м",
    "367": "м</w>",
    "368": "ме",
    "369": "мел",
    "370": "мелкие</w>",
    "371": "мен",
    "372": "мент",
    "373": "мер",
    "374": "мето",
    "375": "метод",
    "376": "метода</w>",
    "377": "методы</w>",
    "378": "мир",
    "379": "мир</w>",
    "380": "мо",
    "381": "моде",
    "382": "моделе",
    "383": "моделей</w>",
    "384": "мож",
    "385": "можно</w>",
    "386": "мы</w>",
    "387": "н",
    "388": "на</w>",
    "389": "но",
    "390": "но</w>",
    "391": "ного</w>",
    "392": "ное</w>",
    "393": "ной</w>",
    "394": "ност",
    "395": "ну",
    "396": "нуж",
    "397": "нужно</w>",
    "398": "ны",
    "399": "ные</w>",
    "400": "ных</w>",
    "401": "о",
    "402": "об",
    "403": "обл",
    "404": "област",
    "405": "область</w>",
    "406": "обра",
    "407": "обраб",
    "408": "обрабат",
    "409": "обрабаты",
    "410": "обрабатыв",
    "411": "обрабатывать</w>",
    "412": "обработ",
    "413": "обработк",
    "414": "обработке</w>",
    "415": "обуч",
    "416": "обучат",
    "417": "обучать",
    "418": "обучаться</w>",
    "419": "обучение</w>",
    "420": "ов",
    "421": "ож",
    "422": "он",
    "423": "он</w>",
    "424": "она</w>",
    "425": "они</w>",
    "426": "оно</w>",
    "427": "ос",
    "428": "осно",
    "429": "основ",
    "430": "основе</w>",
    "431": "п",
    "432": "пе",
    "433": "пер",
    "434": "первы",
    "435": "первым</w>",
    "436": "по",
    "437": "помо",
    "438": "помощ",
    "439": "помощью",
    "440": "помощью</w>",
    "441": "пр",
    "442": "предлож",
    "443": "предложение</w>",
    "444": "привет</w>",
    "445": "про",
    "446": "пров",
    "447": "прове",
    "448": "провер",
    "449": "проверк",
    "450": "проверки</w>",
    "451": "произ",
    "452": "произво",
    "453": "производ",
    "454": "производи",
    "455": "производител",
    "456": "производитель",
    "457": "производительност",
    "458": "производительность</w>",
    "459": "р",
    "460": "ра",
    "461": "рабо",
    "462": "работ",
    "463": "работы</w>",
    "464": "раз",
    "465": "разб",
    "466": "разби",
    "467": "разбив",
    "468": "разбивает</w>",
    "469": "размер",
    "470": "размера</w>",
    "471": "разного</w>",
    "472": "разной</w>",
    "473": "ре",
    "474": "револ",
    "475": "револю",
    "476": "революци",
    "477": "революцион",
    "478": "революциониз",
    "479": "революционизиров",
    "480": "революционизировал",
    "481": "революционизировало",
    "482": "революционизировало</w>",
    "483": "редл",
    "484": "редлож",
    "485": "ри",
    "486": "рив",
    "487": "ривет</w>",
    "488": "ро",
    "489": "рот",
    "490": "роткие</w>",
    "491": "с",
    "492": "с</w>",
    "493": "сет",
    "494": "сети</w>",
    "495": "си",
    "496": "сим",
    "497": "символ",
    "498": "символы</w>",
    "499": "сист",
    "500": "систе",
    "501": "систем</w>",
    "502": "сл",
    "503": "слов",
    "504": "слова</w>",
    "505": "слож",
    "506": "сложност",
    "507": "сложности</w>",
    "508": "сов",
    "509": "совре",
    "510": "современ",
    "511": "современных</w>",
    "512": "сп",
    "513": "спос",
    "514": "способ",
    "515": "способные</w>",
    "516": "ст",
    "517": "стат",
    "518": "стати",
    "519": "статист",
    "520": "статисти",
    "521": "статистич",
    "522": "статистиче",
    "523": "статистичес",
    "524": "статистические</w>",
    "525": "сто",
    "526": "су",
    "527": "суб",
    "528": "субслов",
    "529": "субсловной</w>",
    "530": "ся</w>",
    "531": "т",
    "532": "те",
    "533": "тек",
    "534": "текст",
    "535": "текст</w>",
    "536": "текста",
    "537": "текстах</w>",
    "538": "тел",
    "539": "тест",
    "540": "тестиров",
    "541": "тестирован",
    "542": "тестирования</w>",
    "543": "тесто",
    "544": "тестовы",
    "545": "тестовый</w>",
    "546": "то",
    "547": "тоже</w>",
    "548": "токениз",
    "549": "токениза",
    "550": "токенизатор",
    "551": "токенизатора</w>",
    "552": "токенизации</w>",
    "553": "токенизиров",
    "554": "токенизировать</w>",
    "555": "тор",
    "556": "тра",
    "557": "тран",
    "558": "транс",
    "559": "трансф",
    "560": "трансфо",
    "561": "трансфор",
    "562": "трансформер",
    "563": "трансформеры</w>",
    "564": "ты</w>",
    "565": "у",
    "566": "уже</w>",
    "567": "ум",
    "568": "умет",
    "569": "уметь</w>",
    "570": "уч",
    "571": "ф",
    "572": "фу",
    "573": "фун",
    "574": "фунд",
    "575": "фунда",
    "576": "фундамент",
    "577": "фундаменталь",
    "578": "фундаментальны",
    "579": "фундаментальным",
    "580": "фундаментальными</w>",
    "581": "х",
    "582": "х</w>",
    "583": "ц",
    "584": "ци",
    "585": "ции</w>",
    "586": "ч",
    "587": "част",
    "588": "части</w>",
    "589": "частот",
    "590": "частот</w>",
    "591": "чи",
    "592": "числ",
    "593": "числа</w>",
    "594": "ш",
    "595": "ша",
    "596": "шаго",
    "597": "шагом</w>",
    "598": "щ",
    "599": "щи",
    "600": "ы",
    "601": "ы</w>",
    "602": "ь",
    "603": "ь</w>",
    "604": "ью",
    "605": "э",
    "606": "элект",
    "607": "электро",
    "608": "электрог",
    "609": "электрогаз",
    "610": "электрогазос",
    "611": "электрогазосв",
    "612": "электрогазосва",
    "613": "электрогазосвар",
    "614": "электрогазосварщи",
    "615": "электрогазосварщик</w>",
    "616": "эт",
    "617": "эти</w>",
    "618": "это",
    "619": "это</w>",
    "620": "этого</w>",
    "621": "ю",
    "622": "я",
    "623": "я</w>",
    "624": "яв",
    "625": "явл",
    "626": "явля",
    "627": "являет",
    "628": "является</w>",
    "629": "являю",
    "630": "являют",
    "631": "являются</w>",
    "632": "яз",
    "633": "язы",
    "634": "язык",
    "635": "языка</w>",
    "636": "языки</w>",
    "637": "яю",
    "638": "—",
    "639": "—</w>"
  },
  "merges": [
    [
      "е",
      "</w>"
    ],
    [
      "т",
      "о"
    ],
    [
      "с",
      "т"
    ],
    [
      "а",
      "</w>"
    ],
    [
      ".",
      "</w>"
    ],
    [
      ",",
      "</w>"
    ],
    [
      "е",
      "н"
    ],
    [
      "и",
      "</w>"
    ],
    [
      "н",
      "о"
    ],
    [
      "я",
      "</w>"
    ],
    [
      "т",
      "е"
    ],
    [
      "и",
      "з"
    ],
    [
      "о",
      "в"
    ],
    [
      "р",
      "а"
    ],
    [
      "ы",
      "</w>"
    ],
    [
      "и",
      "е</w>"
    ],
    [
      "г",
      "о"
    ],
    [
      "а",
      "л"
    ],
    [
      "н",
      "ы"
    ],
    [
      "е",
      "т"
    ],
    [
      "д",
      "л"
    ],
    [
      "о",
      "б"
    ],
    [
      "к",
      "о"
    ],
    [
      "р",
      "и"
    ],
    [
      "а",
      "н"
    ],
    [
      "с",
      "л"
    ],
    [
      "й",
      "</w>"
    ],
    [
      "ь",
      "</w>"
    ],
    [
      "л",
      "е"
    ],
    [
      "а",
      "т"
    ],
    [
      ":",
      "</w>"
    ],
    [
      "те",
      "к"
    ],
    [
      "тек",
      "ст"
    ],
    [
      "ц",
      "и"
    ],
    [
      "б",
      "о"
    ],
    [
      "и",
      "н"
    ],
    [
      "э",
      "то"
    ],
    [
      "ет",
      "</w>"
    ],
    [
      "ны",
      "е</w>"
    ],
    [
      "н",
      "а</w>"
    ],
    [
      "сл",
      "ов"
    ],
    [
      "м",
      "</w>"
    ],
    [
      "р",
      "о"
    ],
    [
      "текст",
      "</w>"
    ],
    [
      "к",
      "ен"
    ],
    [
      "кен",
      "из"
    ],
    [
      "м",
      "е"
    ],
    [
      "и",
      "р"
    ],
    [
      "у",
      "ч"
    ],
    [
      "ен",
      "ие</w>"
    ],
    [
      "—",
      "</w>"
    ],
    [
      "это",
      "</w>"
    ],
    [
      "го",
      "</w>"
    ],
    [
      "ал",
      "го"
    ],
    [
      "алго",
      "ри"
    ],
    [
      "алгори",
      "т"
    ],
    [
      "с",
      "я</w>"
    ],
    [
      "слов",
      "а</w>"
    ],
    [
      "е",
      "ст"
    ],
    [
      "то",
      "р"
    ],
    [
      "дл",
      "я</w>"
    ],
    [
      "то",
      "кениз"
    ],
    [
      "ра",
      "з"
    ],
    [
      "к",
      "ие</w>"
    ],
    [
      "в",
      "о"
    ],
    [
      "р",
      "е"
    ],
    [
      "о",
      "ж"
    ],
    [
      "но",
      "е</w>"
    ],
    [
      "об",
      "уч"
    ],
    [
      "но",
      "го</w>"
    ],
    [
      "алгорит",
      "м"
    ],
    [
      "о",
      "с"
    ],
    [
      "х",
      "</w>"
    ],
    [
      "л",
      "и"
    ],
    [
      "м",
      "ен"
    ],
    [
      "с",
      "то"
    ],
    [
      "B",
      "P"
    ],
    [
      "BP",
      "E"
    ],
    [
      "BPE",
      "</w>"
    ],
    [
      "e",
      "</w>"
    ],
    [
      "токениз",
      "а"
    ],
    [
      "ци",
      "и</w>"
    ],
    [
      "о",
      "н"
    ],
    [
      "ир",
      "ов"
    ],
    [
      "ж",
      "е</w>"
    ],
    [
      "но",
      "</w>"
    ],
    [
      "ра",
      "бо"
    ],
    [
      "рабо",
      "т"
    ],
    [
      "ин",
      "ное</w>"
    ],
    [
      "обуч",
      "ение</w>"
    ],
    [
      "а",
      "ст"
    ],
    [
      "и",
      "с"
    ],
    [
      "в",
      "ен"
    ],
    [
      "вен",
      "ного</w>"
    ],
    [
      "те",
      "л"
    ],
    [
      "ле",
      "к"
    ],
    [
      "лек",
      "т"
    ],
    [
      "а",
      "ет</w>"
    ],
    [
      "ны",
      "х</w>"
    ],
    [
      "мен",
      "т"
    ],
    [
      "а",
      "з"
    ],
    [
      "щ",
      "и"
    ],
    [
      "к",
      "</w>"
    ],
    [
      "я",
      "ю"
    ],
    [
      "ан",
      "ал"
    ],
    [
      "анал",
      "из"
    ],
    [
      "а",
      "сто"
    ],
    [
      "асто",
      "т"
    ],
    [
      "(",
      "</w>"
    ],
    [
      "r",
      "</w>"
    ],
    [
      ")",
      "</w>"
    ],
    [
      "но",
      "й</w>"
    ],
    [
      "токениза",
      "ции</w>"
    ],
    [
      "ко",
      "тор"
    ],
    [
      "котор",
      "ы"
    ],
    [
      "бо",
      "ле"
    ],
    [
      "боле",
      "е</w>"
    ],
    [
      "К",
      "а"
    ],
    [
      "но",
      "ст"
    ],
    [
      "м",
      "о"
    ],
    [
      "д",
      "е"
    ],
    [
      "во",
      "л"
    ],
    [
      "ь",
      "ю"
    ],
    [
      "N",
      "L"
    ],
    [
      "NL",
      "P"
    ],
    [
      "NLP",
      "</w>"
    ],
    [
      "то",
      "же</w>"
    ],
    [
      "ат",
      "ь</w>"
    ],
    [
      "ме",
      "то"
    ],
    [
      "мето",
      "д"
    ],
    [
      "я",
      "в"
    ],
    [
      "яв",
      "л"
    ],
    [
      "п",
      "е"
    ],
    [
      "в",
      "ы"
    ],
    [
      "в",
      "</w>"
    ],
    [
      "я",
      "з"
    ],
    [
      "яз",
      "ы"
    ],
    [
      "язы",
      "к"
    ],
    [
      "ро",
      "т"
    ],
    [
      "рот",
      "кие</w>"
    ],
    [
      "o",
      "n"
    ],
    [
      "ри",
      "в"
    ],
    [
      "рив",
      "ет</w>"
    ],
    [
      "м",
      "ир"
    ],
    [
      "мир",
      "</w>"
    ],
    [
      "ал",
      "ь"
    ],
    [
      "с",
      "и"
    ],
    [
      "!",
      "</w>"
    ],
    [
      "?",
      "</w>"
    ],
    [
      "ме",
      "р"
    ],
    [
      "работ",
      "ы</w>"
    ],
    [
      "ре",
      "дл"
    ],
    [
      "редл",
      "ож"
    ],
    [
      "и",
      "я</w>"
    ],
    [
      "алгоритм",
      "а</w>"
    ],
    [
      "М",
      "а"
    ],
    [
      "Ма",
      "ш"
    ],
    [
      "Маш",
      "инное</w>"
    ],
    [
      "об",
      "л"
    ],
    [
      "обл",
      "аст"
    ],
    [
      "област",
      "ь</w>"
    ],
    [
      "ис",
      "к"
    ],
    [
      "иск",
      "у"
    ],
    [
      "иску",
      "с"
    ],
    [
      "искус",
      "ст"
    ],
    [
      "искусст",
      "венного</w>"
    ],
    [
      "ин",
      "тел"
    ],
    [
      "интел",
      "лект"
    ],
    [
      "интеллект",
      "а</w>"
    ],
    [
      "ко",
      "то"
    ],
    [
      "кото",
      "ра"
    ],
    [
      "котора",
      "я</w>"
    ],
    [
      "из",
      "уч"
    ],
    [
      "изуч",
      "ает</w>"
    ],
    [
      "алгоритм",
      "ы</w>"
    ],
    [
      "с",
      "п"
    ],
    [
      "сп",
      "ос"
    ],
    [
      "спос",
      "об"
    ],
    [
      "способ",
      "ные</w>"
    ],
    [
      "обуч",
      "ат"
    ],
    [
      "обучат",
      "ь"
    ],
    [
      "обучать",
      "ся</w>"
    ],
    [
      "д",
      "ан"
    ],
    [
      "дан",
      "ных</w>"
    ],
    [
      "Д",
      "л"
    ],
    [
      "Дл",
      "ин"
    ],
    [
      "Длин",
      "ные</w>"
    ],
    [
      "ан",
      "т"
    ],
    [
      "ант",
      "и"
    ],
    [
      "анти",
      "д"
    ],
    [
      "антид",
      "ис"
    ],
    [
      "антидис",
      "ест"
    ],
    [
      "антидисест",
      "а"
    ],
    [
      "антидисеста",
      "б"
    ],
    [
      "антидисестаб",
      "ли"
    ],
    [
      "антидисестабли",
      "ш"
    ],
    [
      "антидисестаблиш",
      "мент"
    ],
    [
      "антидисестаблишмент",
      "а"
    ],
    [
      "антидисестаблишмента",
      "ри"
    ],
    [
      "антидисестаблишментари",
      "ан"
    ],
    [
      "антидисестаблишментариан",
      "из"
    ],
    [
      "антидисестаблишментарианиз",
      "м</w>"
    ],
    [
      "э",
      "лект"
    ],
    [
      "элект",
      "ро"
    ],
    [
      "электро",
      "г"
    ],
    [
      "электрог",
      "аз"
    ],
    [
      "электрогаз",
      "ос"
    ],
    [
      "электрогазос",
      "в"
    ],
    [
      "электрогазосв",
      "а"
    ],
    [
      "электрогазосва",
      "р"
    ],
    [
      "электрогазосвар",
      "щи"
    ],
    [
      "электрогазосварщи",
      "к</w>"
    ],
    [
      "П",
      "ов"
    ],
    [
      "Пов",
      "тор"
    ],
    [
      "Повтор",
      "яю"
    ],
    [
      "Повторяю",
      "щи"
    ],
    [
      "Повторяющи",
      "е"
    ],
    [
      "Повторяющие",
      "ся</w>"
    ],
    [
      "анализ",
      "а</w>"
    ],
    [
      "ч",
      "астот"
    ],
    [
      "частот",
      "</w>"
    ],
    [
      "B",
      "y"
    ],
    [
      "By",
      "t"
    ],
    [
      "Byt",
      "e</w>"
    ],
    [
      "P",
      "a"
    ],
    [
      "Pa",
      "i"
    ],
    [
      "Pai",
      "r</w>"
    ],
    [
      "E",
      "n"
    ],
    [
      "En",
      "c"
    ],
    [
      "Enc",
      "o"
    ],
    [
      "Enco",
      "d"
    ],
    [
      "Encod",
      "i"
    ],
    [
      "Encodi",
      "n"
    ],
    [
      "Encodin",
      "g"
    ],
    [
      "Encoding",
      "</w>"
    ],
    [
      "алгорит",
      "м</w>"
    ],
    [
      "с",
      "у"
    ],
    [
      "су",
      "б"
    ],
    [
      "суб",
      "слов"
    ],
    [
      "субслов",
      "ной</w>"
    ],
    [
      "которы",
      "й</w>"
    ],
    [
      "раз",
      "б"
    ],
    [
      "разб",
      "и"
    ],
    [
      "разби",
      "в"
    ],
    [
      "разбив",
      "ает</w>"
    ],
    [
      "ме",
      "л"
    ],
    [
      "мел",
      "кие</w>"
    ],
    [
      "ч",
      "аст"
    ],
    [
      "част",
      "и</w>"
    ],
    [
      "Ка",
      "ч"
    ],
    [
      "Кач",
      "ест"
    ],
    [
      "Качест",
      "во"
    ],
    [
      "Качество",
      "</w>"
    ],
    [
      "в",
      "ли"
    ],
    [
      "вли",
      "я"
    ],
    [
      "влия",
      "ет</w>"
    ],
    [
      "п",
      "ро"
    ],
    [
      "про",
      "из"
    ],
    [
      "произ",
      "во"
    ],
    [
      "произво",
      "д"
    ],
    [
      "производ",
      "и"
    ],
    [
      "производи",
      "тел"
    ],
    [
      "производител",
      "ь"
    ],
    [
      "производитель",
      "ност"
    ],
    [
      "производительност",
      "ь</w>"
    ],
    [
      "мо",
      "де"
    ],
    [
      "моде",
      "ле"
    ],
    [
      "моделе",
      "й</w>"
    ],
    [
      "Г",
      "л"
    ],
    [
      "Гл",
      "у"
    ],
    [
      "Глу",
      "бо"
    ],
    [
      "Глубо",
      "ко"
    ],
    [
      "Глубоко",
      "е</w>"
    ],
    [
      "ре",
      "вол"
    ],
    [
      "револ",
      "ю"
    ],
    [
      "револю",
      "ци"
    ],
    [
      "революци",
      "он"
    ],
    [
      "революцион",
      "из"
    ],
    [
      "революциониз",
      "иров"
    ],
    [
      "революционизиров",
      "ал"
    ],
    [
      "революционизировал",
      "о"
    ],
    [
      "революционизировало",
      "</w>"
    ],
    [
      "ко",
      "м"
    ],
    [
      "ком",
      "п"
    ],
    [
      "комп",
      "ью"
    ],
    [
      "компью",
      "те"
    ],
    [
      "компьюте",
      "р"
    ],
    [
      "компьютер",
      "ное</w>"
    ],
    [
      "з",
      "р"
    ],
    [
      "зр",
      "ение</w>"
    ],
    [
      "А",
      "н"
    ],
    [
      "Ан",
      "г"
    ],
    [
      "Анг",
      "ли"
    ],
    [
      "Англи",
      "й"
    ],
    [
      "Англий",
      "с"
    ],
    [
      "Английс",
      "к"
    ],
    [
      "Английск",
      "и"
    ],
    [
      "Английски",
      "й</w>"
    ],
    [
      "м",
      "ож"
    ],
    [
      "мож",
      "но</w>"
    ],
    [
      "токениз",
      "иров"
    ],
    [
      "токенизиров",
      "ать</w>"
    ],
    [
      "с",
      "</w>"
    ],
    [
      "п",
      "о"
    ],
    [
      "по",
      "мо"
    ],
    [
      "помо",
      "щ"
    ],
    [
      "помощ",
      "ью"
    ],
    [
      "помощью",
      "</w>"
    ],
    [
      "это",
      "го</w>"
    ],
    [
      "метод",
      "а</w>"
    ],
    [
      "Т",
      "о"
    ],
    [
      "То",
      "кениз"
    ],
    [
      "Токениз",
      "а"
    ],
    [
      "Токениза",
      "ци"
    ],
    [
      "Токенизаци",
      "я</w>"
    ],
    [
      "явл",
      "я"
    ],
    [
      "явля",
      "ет"
    ],
    [
      "являет",
      "ся</w>"
    ],
    [
      "пе",
      "р"
    ],
    [
      "пер",
      "вы"
    ],
    [
      "первы",
      "м</w>"
    ],
    [
      "ш",
      "а"
    ],
    [
      "ша",
      "го"
    ],
    [
      "шаго",
      "м</w>"
    ],
    [
      "об",
      "работ"
    ],
    [
      "обработ",
      "к"
    ],
    [
      "обработк",
      "е</w>"
    ],
    [
      "ест",
      "ест"
    ],
    [
      "естест",
      "венного</w>"
    ],
    [
      "язык",
      "а</w>"
    ],
    [
      "К",
      "о"
    ],
    [
      "Ко",
      "роткие</w>"
    ],
    [
      "т",
      "ы</w>"
    ],
    [
      "он",
      "</w>"
    ],
    [
      "о",
      "на</w>"
    ],
    [
      "о",
      "но</w>"
    ],
    [
      "м",
      "ы</w>"
    ],
    [
      "в",
      "ы</w>"
    ],
    [
      "он",
      "и</w>"
    ],
    [
      "Р",
      "аз"
    ],
    [
      "Раз",
      "ные</w>"
    ],
    [
      "язык",
      "и</w>"
    ],
    [
      "h",
      "e"
    ],
    [
      "he",
      "l"
    ],
    [
      "hel",
      "l"
    ],
    [
      "hell",
      "o"
    ],
    [
      "hello",
      "</w>"
    ],
    [
      "w",
      "o"
    ],
    [
      "wo",
      "r"
    ],
    [
      "wor",
      "l"
    ],
    [
      "worl",
      "d"
    ],
    [
      "world",
      "</w>"
    ],
    [
      "b",
      "on"
    ],
    [
      "bon",
      "j"
    ],
    [
      "bonj",
      "o"
    ],
    [
      "bonjo",
      "u"
    ],
    [
      "bonjou",
      "r</w>"
    ],
    [
      "l",
      "e</w>"
    ],
    [
      "m",
      "on"
    ],
    [
      "mon",
      "d"
    ],
    [
      "mond",
      "e</w>"
    ],
    [
      "п",
      "ривет</w>"
    ],
    [
      "С",
      "пе"
    ],
    [
      "Спе",
      "ци"
    ],
    [
      "Специ",
      "аль"
    ],
    [
      "Специаль",
      "ные</w>"
    ],
    [
      "си",
      "м"
    ],
    [
      "сим",
      "вол"
    ],
    [
      "символ",
      "ы</w>"
    ],
    [
      "@",
      "</w>"
    ],
    [
      "#",
      "</w>"
    ],
    [
      "$",
      "</w>"
    ],
    [
      "%",
      "</w>"
    ],
    [
      "^",
      "</w>"
    ],
    [
      "&",
      "</w>"
    ],
    [
      "*",
      "</w>"
    ],
    [
      "_",
      "</w>"
    ],
    [
      "+",
      "</w>"
    ],
    [
      "{",
      "</w>"
    ],
    [
      "}",
      "</w>"
    ],
    [
      "[",
      "</w>"
    ],
    [
      "]",
      "</w>"
    ],
    [
      "|",
      "</w>"
    ],
    [
      "\\",
      "</w>"
    ],
    [
      "\"",
      "</w>"
    ],
    [
      ";",
      "</w>"
    ],
    [
      "'",
      "</w>"
    ],
    [
      "<",
      "</w>"
    ],
    [
      ">",
      "</w>"
    ],
    [
      "/",
      "</w>"
    ],
    [
      "~",
      "</w>"
    ],
    [
      "Н",
      "е"
    ],
    [
      "Не",
      "й"
    ],
    [
      "Ней",
      "ро"
    ],
    [
      "Нейро",
      "н"
    ],
    [
      "Нейрон",
      "ные</w>"
    ],
    [
      "с",
      "ет"
    ],
    [
      "сет",
      "и</w>"
    ],
    [
      "т",
      "ра"
    ],
    [
      "тра",
      "н"
    ],
    [
      "тран",
      "с"
    ],
    [
      "транс",
      "ф"
    ],
    [
      "трансф",
      "о"
    ],
    [
      "трансфо",
      "р"
    ],
    [
      "трансфор",
      "мер"
    ],
    [
      "трансформер",
      "ы</w>"
    ],
    [
      "в",
      "н"
    ],
    [
      "вн",
      "и"
    ],
    [
      "вни",
      "м"
    ],
    [
      "вним",
      "ан"
    ],
    [
      "вниман",
      "ие</w>"
    ],
    [
      "в",
      "с"
    ],
    [
      "вс",
      "е</w>"
    ],
    [
      "э",
      "т"
    ],
    [
      "эт",
      "и</w>"
    ],
    [
      "ко",
      "н"
    ],
    [
      "кон",
      "ц"
    ],
    [
      "конц",
      "е"
    ],
    [
      "конце",
      "п"
    ],
    [
      "концеп",
      "ции</w>"
    ],
    [
      "явл",
      "яю"
    ],
    [
      "являю",
      "т"
    ],
    [
      "являют",
      "ся</w>"
    ],
    [
      "ф",
      "у"
    ],
    [
      "фу",
      "н"
    ],
    [
      "фун",
      "д"
    ],
    [
      "фунд",
      "а"
    ],
    [
      "фунда",
      "мент"
    ],
    [
      "фундамент",
      "аль"
    ],
    [
      "фундаменталь",
      "ны"
    ],
    [
      "фундаментальны",
      "м"
    ],
    [
      "фундаментальным",
      "и</w>"
    ],
    [
      "с",
      "ов"
    ],
    [
      "сов",
      "ре"
    ],
    [
      "совре",
      "мен"
    ],
    [
      "современ",
      "ных</w>"
    ],
    [
      "си",
      "ст"
    ],
    [
      "сист",
      "е"
    ],
    [
      "систе",
      "м</w>"
    ],
    [
      "П",
      "ривет</w>"
    ],
    [
      "Ка",
      "к</w>"
    ],
    [
      "де",
      "л"
    ],
    [
      "дел",
      "а</w>"
    ],
    [
      "Э",
      "то"
    ],
    [
      "Это",
      "</w>"
    ],
    [
      "те",
      "сто"
    ],
    [
      "тесто",
      "вы"
    ],
    [
      "тестовы",
      "й</w>"
    ],
    [
      "п",
      "р"
    ],
    [
      "пр",
      "ов"
    ],
    [
      "пров",
      "е"
    ],
    [
      "прове",
      "р"
    ],
    [
      "провер",
      "к"
    ],
    [
      "проверк",
      "и</w>"
    ],
    [
      "токениза",
      "тор"
    ],
    [
      "токенизатор",
      "а</w>"
    ],
    [
      "П",
      "редлож"
    ],
    [
      "Предлож",
      "ен"
    ],
    [
      "Предложен",
      "ия</w>"
    ],
    [
      "раз",
      "ной</w>"
    ],
    [
      "дл",
      "ин"
    ],
    [
      "длин",
      "ы</w>"
    ],
    [
      "О",
      "ч"
    ],
    [
      "Оч",
      "ен"
    ],
    [
      "Очен",
      "ь</w>"
    ],
    [
      "ко",
      "роткие</w>"
    ],
    [
      "А",
      "</w>"
    ],
    [
      "у",
      "же</w>"
    ],
    [
      "дл",
      "инное</w>"
    ],
    [
      "п",
      "редлож"
    ],
    [
      "предлож",
      "ение</w>"
    ],
    [
      "те",
      "ст"
    ],
    [
      "тест",
      "иров"
    ],
    [
      "тестиров",
      "ан"
    ],
    [
      "тестирован",
      "ия</w>"
    ],
    [
      "текст",
      "а"
    ],
    [
      "текста",
      "х</w>"
    ],
    [
      "раз",
      "ного</w>"
    ],
    [
      "раз",
      "мер"
    ],
    [
      "размер",
      "а</w>"
    ],
    [
      "сл",
      "ож"
    ],
    [
      "слож",
      "ност"
    ],
    [
      "сложност",
      "и</w>"
    ],
    [
      "Ч",
      "астот"
    ],
    [
      "Частот",
      "ны"
    ],
    [
      "Частотны",
      "й</w>"
    ],
    [
      "анализ",
      "</w>"
    ],
    [
      "ст",
      "ат"
    ],
    [
      "стат",
      "и"
    ],
    [
      "стати",
      "ст"
    ],
    [
      "статист",
      "и"
    ],
    [
      "статисти",
      "ч"
    ],
    [
      "статистич",
      "е"
    ],
    [
      "статистиче",
      "с"
    ],
    [
      "статистичес",
      "кие</w>"
    ],
    [
      "метод",
      "ы</w>"
    ],
    [
      "ле",
      "ж"
    ],
    [
      "леж",
      "ат"
    ],
    [
      "лежат",
      "</w>"
    ],
    [
      "ос",
      "но"
    ],
    [
      "осно",
      "в"
    ],
    [
      "основ",
      "е</w>"
    ],
    [
      "1",
      "2"
    ],
    [
      "12",
      "3"
    ],
    [
      "123",
      "4"
    ],
    [
      "1234",
      "5"
    ],
    [
      "12345",
      "</w>"
    ],
    [
      "6",
      "7"
    ],
    [
      "67",
      "8"
    ],
    [
      "678",
      "9"
    ],
    [
      "6789",
      "0"
    ],
    [
      "67890",
      "</w>"
    ],
    [
      "ч",
      "и"
    ],
    [
      "чи",
      "сл"
    ],
    [
      "числ",
      "а</w>"
    ],
    [
      "которы",
      "е</w>"
    ],
    [
      "н",
      "у"
    ],
    [
      "ну",
      "ж"
    ],
    [
      "нуж",
      "но</w>"
    ],
    [
      "у",
      "м"
    ],
    [
      "ум",
      "ет"
    ],
    [
      "умет",
      "ь</w>"
    ],
    [
      "об",
      "ра"
    ],
    [
      "обра",
      "б"
    ],
    [
      "обраб",
      "ат"
    ],
    [
      "обрабат",
      "ы"
    ],
    [
      "обрабаты",
      "в"
    ],
    [
      "обрабатыв",
      "ать</w>"
    ]
  ],
  "vocab_size": 640
}