{
  "vocab": {
    "0": "<unk>",
    "1": "<pad>",
    "2": "<s>",
    "3": "</s>",
    "4": "</w>",
    "5": "!",
    "6": "!</w>",
    "7": "\"",
    "8": "\"</w>",
    "9": "#",
    "10": "#</w>",
    "11": "$",
    "12": "$</w>",
    "13": "%",
    "14": "%</w>",
    "15": "&",
    "16": "&</w>",
    "17": "'",
    "18": "'</w>",
    "19": "(",
    "20": "(</w>",
    "21": ")",
    "22": ")</w>",
    "23": "*",
    "24": "*</w>",
    "25": "+",
    "26": "+</w>",
    "27": ",",
    "28": ",</w>",
    "29": ".",
    "30": ".</w>",
    "31": "/",
    "32": "/</w>",
    "33": "0",
    "34": "1",
    "35": "2",
    "36": "3",
    "37": "4",
    "38": "5",
    "39": "6",
    "40": "7",
    "41": "8",
    "42": "9",
    "43": ":",
    "44": ":</w>",
    "45": ";",
    "46": ";</w>",
    "47": "<",
    "48": "<</w>",
    "49": ">",
    "50": "></w>",
    "51": "?",
    "52": "?</w>",
    "53": "@",
    "54": "@</w>",
    "55": "B",
    "56": "BP",
    "57": "BPE",
    "58": "BPE</w>",
    "59": "By",
    "60": "Byt",
    "61": "Byte</w>",
    "62": "E",
    "63": "En",
    "64": "Enc",
    "65": "Enco",
    "66": "Encod",
    "67": "Encodi",
    "68": "Encodin",
    "69": "Encoding",
    "70": "Encoding</w>",
    "71": "L",
    "72": "N",
    "73": "NL",
    "74": "NLP",
    "75": "NLP</w>",
    "76": "P",
    "77": "Pa",
    "78": "Pai",
    "79": "Pair</w>",
    "80": "[",
    "81": "[</w>",
    "82": "\\",
    "83": "\\</w>",
    "84": "]",
    "85": "]</w>",
    "86": "^",
    "87": "^</w>",
    "88": "_",
    "89": "_</w>",
    "90": "a",
    "91": "b",
    "92": "bon",
    "93": "bonj",
    "94": "bonjo",
    "95": "bonjou",
    "96": "bonjour</w>",
    "97": "c",
    "98": "d",
    "99": "e",
    "100": "e</w>",
    "101": "g",
    "102": "h",
    "103": "he",
    "104": "hel",
    "105": "hell",
    "106": "hello",
    "107": "hello</w>",
    "108": "i",
    "109": "j",
    "110": "l",
    "111": "le</w>",
    "112": "m",
    "113": "mon",
    "114": "mond",
    "115": "monde</w>",
    "116": "n",
    "117": "o",
    "118": "on",
    "119": "r",
    "120": "r</w>",
    "121": "t",
    "122": "u",
    "123": "w",
    "124": "wo",
    "125": "wor",
    "126": "worl",
    "127": "world",
    "128": "world</w>",
    "129": "y",
    "130": "{",
    "131": "{</w>",
    "132": "|",
    "133": "|</w>",
    "134": "}",
    "135": "}</w>",
    "136": "~",
    "137": "~</w>",
    "138": "А",
    "139": "А</w>",
    "140": "Ан",
    "141": "Анг",
    "142": "Англи",
    "143": "Англий",
    "144": "Английс",
    "145": "Английск",
    "146": "Английски",
    "147": "Английский</w>",
    "148": "Г",
    "149": "Гл",
    "150": "Глу",
    "151": "Глубо",
    "152": "Глубоко",
    "153": "Глубокое</w>",
    "154": "Д",
    "155": "Дл",
    "156": "Длин",
    "157": "Длинные</w>",
    "158": "К",
    "159": "Ка",
    "160": "Как</w>",
    "161": "Кач",
    "162": "Качест",
    "163": "Качество",
    "164": "Качество</w>",
    "165": "Ко",
    "166": "Короткие</w>",
    "167": "М",
    "168": "Ма",
    "169": "Маш",
    "170": "Машинное</w>",
    "171": "Н",
    "172": "Не",
    "173": "Ней",
    "174": "Нейро",
    "175": "Нейрон",
    "176": "Нейронные</w>",
    "177": "О",
    "178": "Оч",
    "179": "Очен",
    "180": "Очень</w>",
    "181": "П",
    "182": "Пов",
    "183": "Повтор",
    "184": "Повторяю",
    "185": "Повторяющи",
    "186": "Повторяющие",
    "187": "Повторяющиеся</w>",
    "188": "Предлож",
    "189": "Предложен",
    "190": "Предложения</w>",
    "191": "Привет</w>",
    "192": "Р",
    "193": "Раз",
    "194": "Разные</w>",
    "195": "С",
    "196": "Спе",
    "197": "Специ",
    "198": "Специаль",
    "199": "Специальные</w>",
    "200": "Т",
    "201": "То",
    "202": "Токениз",
    "203": "Токениза",
    "204": "Токенизаци",
    "205": "Токенизация</w>",
    "206": "Ч",
    "207": "Частот",
    "208": "Частотны",
    "209": "Частотный</w>",
    "210": "Э",
    "211": "Это",
    "212": "Это</w>",
    "213": "а",
    "214": "а</w>",
    "215": "ает</w>",
    "216": "аз",
    "217": "ал",
    "218": "алго",
    "219": "алгори",
    "220": "алгорит",
    "221": "алгоритм",
    "222": "алгоритм</w>",
    "223": "алгоритма</w>",
    "224": "алгоритмы</w>",
    "225": "аль",
    "226": "ан",
    "227": "анал",
    "228": "анализ",
    "229": "анализ</w>",
    "230": "анализа</w>",
    "231": "ант",
    "232": "анти",
    "233": "антид",
    "234": "антидис",
    "235": "антидисест",
    "236": "антидисеста",
    "237": "антидисестаб",
    "238": "антидисестабли",
    "239": "антидисестаблиш",
    "240": "антидисестаблишмент",
    "241": "антидисестаблишмента",
    "242": "антидисестаблишментари",
    "243": "антидисестаблишментариан",
    "244": "антидисестаблишментарианиз",
    "245": "антидисестаблишментарианизм</w>",
    "246": "аст",
    "247": "асто",
    "248": "астот",
    "249": "ат",
    "250": "ать</w>",
    "251": "б",
    "252": "бо",
    "253": "боле",
    "254": "более</w>",
    "255": "в",
    "256": "в</w>",
    "257": "вен",
    "258": "венного</w>",
    "259": "вли",
    "260": "влия",
    "261": "влияет</w>",
    "262": "вн",
    "263": "вни",
    "264": "вним",
    "265": "вниман",
    "266": "внимание</w>",
    "267": "во",
    "268": "вол",
    "269": "вс",
    "270": "все</w>",
    "271": "вы",
    "272": "вы</w>",
    "273": "г",
    "274": "го",
    "275": "го</w>",
    "276": "д",
    "277": "дан",
    "278": "данных</w>",
    "279": "де",
    "280": "дел",
    "281": "дела</w>",
    "282": "дл",
    "283": "длин",
    "284": "длинное</w>",
    "285": "длины</w>",
    "286": "для</w>",
    "287": "е",
    "288": "е</w>",
    "289": "ен",
    "290": "ение</w>",
    "291": "ест",
    "292": "естест",
    "293": "естественного</w>",
    "294": "ет",
    "295": "ет</w>",
    "296": "ж",
    "297": "же</w>",
    "298": "з",
    "299": "зр",
    "300": "зрение</w>",
    "301": "и",
    "302": "и</w>",
    "303": "ие</w>",
    "304": "из",
    "305": "изуч",
    "306": "изучает</w>",
    "307": "ин",
    "308": "инное</w>",
    "309": "интел",
    "310": "интеллект",
    "311": "интеллекта</w>",
    "312": "ир",
    "313": "иров",
    "314": "ис",
    "315": "иск",
    "316": "иску",
    "317": "искус",
    "318": "искусст",
    "319": "искусственного</w>",
    "320": "ия</w>",
    "321": "й",
    "322": "й</w>",
    "323": "к",
    "324": "к</w>",
    "325": "кен",
    "326": "кениз",
    "327": "кие</w>",
    "328": "ко",
    "329": "ком",
    "330": "комп",
    "331": "компью",
    "332": "компьюте",
    "333": "компьютер",
    "334": "компьютерное</w>",
    "335": "кон",
    "336": "конц",
    "337": "конце",
    "338": "концеп",
    "339": "концепции</w>",
    "340": "короткие</w>",
    "341": "кото",
    "342": "котор",
    "343": "котора",
    "344": "которая</w>",
    "345": "которы",
    "346": "который</w>",
    "347": "л",
    "348": "ле",
    "349": "леж",
    "350": "лежат",
    "351": "лежат</w>",
    "352": "лек",
    "353": "лект",
    "354": "ли",
    "355": "м",
    "356": "м</w>",
    "357": "ме",
    "358": "мел",
    "359": "мелкие</w>",
    "360": "мен",
    "361": "мент",
    "362": "мер",
    "363": "мето",
    "364": "метод",
    "365": "метода</w>",
    "366": "методы</w>",
    "367": "мир",
    "368": "мир</w>",
    "369": "мо",
    "370": "моде",
    "371": "моделе",
    "372": "моделей</w>",
    "373": "мож",
    "374": "можно</w>",
    "375": "мы</w>",
    "376": "н",
    "377": "на</w>",
    "378": "но",
    "379": "но</w>",
    "380": "ного</w>",
    "381": "ное</w>",
    "382": "ной</w>",
    "383": "ност",
    "384": "ны",
    "385": "ные</w>",
    "386": "ных</w>",
    "387": "о",
    "388": "об",
    "389": "обл",
    "390": "област",
    "391": "область</w>",
    "392": "обработ",
    "393": "обработк",
    "394": "обработке</w>",
    "395": "обуч",
    "396": "обучат",
    "397": "обучать",
    "398": "обучаться</w>",
    "399": "обучение</w>",
    "400": "ов",
    "401": "ож",
    "402": "он",
    "403": "он</w>",
    "404": "она</w>",
    "405": "они</w>",
    "406": "оно</w>",
    "407": "ос",
    "408": "осно",
    "409": "п",
    "410": "пе",
    "411": "пер",
    "412": "первы",
    "413": "первым</w>",
    "414": "по",
    "415": "помо",
    "416": "помощ",
    "417": "помощью",
    "418": "помощью</w>",
    "419": "пр",
    "420": "предлож",
    "421": "предложение</w>",
    "422": "привет</w>",
    "423": "про",
    "424": "пров",
    "425": "прове",
    "426": "провер",
    "427": "проверк",
    "428": "проверки</w>",
    "429": "произ",
    "430": "произво",
    "431": "производ",
    "432": "производи",
    "433": "производител",
    "434": "производитель",
    "435": "производительност",
    "436": "производительность</w>",
    "437": "р",
    "438": "ра",
    "439": "рабо",
    "440": "работ",
    "441": "работы</w>",
    "442": "раз",
    "443": "разб",
    "444": "разби",
    "445": "разбив",
    "446": "разбивает</w>",
    "447": "размер",
    "448": "размера</w>",
    "449": "разного</w>",
    "450": "разной</w>",
    "451": "ре",
    "452": "револ",
    "453": "револю",
    "454": "революци",
    "455": "революцион",
    "456": "революциониз",
    "457": "революционизиров",
    "458": "революционизировал",
    "459": "революционизировало",
    "460": "революционизировало</w>",
    "461": "редл",
    "462": "редлож",
    "463": "ри",
    "464": "рив",
    "465": "ривет</w>",
    "466": "ро",
    "467": "рот",
    "468": "роткие</w>",
    "469": "с",
    "470": "с</w>",
    "471": "сет",
    "472": "сети</w>",
    "473": "си",
    "474": "сим",
    "475": "символ",
    "476": "символы</w>",
    "477": "сист",
    "478": "систе",
    "479": "систем</w>",
    "480": "сл",
    "481": "слов",
    "482": "слова</w>",
    "483": "слож",
    "484": "сложност",
    "485": "сложности</w>",
    "486": "сов",
    "487": "совре",
    "488": "современ",
    "489": "современных</w>",
    "490": "сп",
    "491": "спос",
    "492": "способ",
    "493": "способные</w>",
    "494": "ст",
    "495": "стат",
    "496": "стати",
    "497": "статист",
    "498": "статисти",
    "499": "статистич",
    "500": "статистиче",
    "501": "статистичес",
    "502": "статистические</w>",
    "503": "сто",
    "504": "су",
    "505": "суб",
    "506": "субслов",
    "507": "субсловной</w>",
    "508": "ся</w>",
    "509": "т",
    "510": "те",
    "511": "тек",
    "512": "текст",
    "513": "текст</w>",
    "514": "текста",
    "515": "текстах</w>",
    "516": "тел",
    "517": "тест",
    "518": "тестиров",
    "519": "тестирован",
    "520": "тестирования</w>",
    "521": "тесто",
    "522": "тестовы",
    "523": "тестовый</w>",
    "524": "то",
    "525": "тоже</w>",
    "526": "токениз",
    "527": "токениза",
    "528": "токенизатор",
    "529": "токенизатора</w>",
    "530": "токенизации</w>",
    "531": "токенизиров",
    "532": "токенизировать</w>",
    "533": "тор",
    "534": "тра",
    "535": "тран",
    "536": "транс",
    "537": "трансф",
    "538": "трансфо",
    "539": "трансфор",
    "540": "трансформер",
    "541": "трансформеры</w>",
    "542": "ты</w>",
    "543": "у",
    "544": "уже</w>",
    "545": "уч",
    "546": "ф",
    "547": "фу",
    "548": "фун",
    "549": "фунд",
    "550": "фунда",
    "551": "фундамент",
    "552": "фундаменталь",
    "553": "фундаментальны",
    "554": "фундаментальным",
    "555": "фундаментальными</w>",
    "556": "х",
    "557": "х</w>",
    "558": "ц",
    "559": "ци",
    "560": "ции</w>",
    "561": "ч",
    "562": "част",
    "563": "части</w>",
    "564": "частот",
    "565": "частот</w>",
    "566": "ш",
    "567": "ша",
    "568": "шаго",
    "569": "шагом</w>",
    "570": "щ",
    "571": "щи",
    "572": "ы",
    "573": "ы</w>",
    "574": "ь",
    "575": "ь</w>",
    "576": "ью",
    "577": "э",
    "578": "элект",
    "579": "электро",
    "580": "электрог",
    "581": "электрогаз",
    "582": "электрогазос",
    "583": "электрогазосв",
    "584": "электрогазосва",
    "585": "электрогазосвар",
    "586": "электрогазосварщи",
    "587": "электрогазосварщик</w>",
    "588": "эт",
    "589": "эти</w>",
    "590": "это",
    "591": "это</w>",
    "592": "этого</w>",
    "593": "ю",
    "594": "я",
    "595": "я</w>",
    "596": "яв",
    "597": "явл",
    "598": "явля",
    "599": "являет",
    "600": "является</w>",
    "601": "являю",
    "602": "являют",
    "603": "являются</w>",
    "604": "яз",
    "605": "язы",
    "606": "язык",
    "607": "языка</w>",
    "608": "языки</w>",
    "609": "яю",
    "610": "—",
    "611": "—</w>"
  },
  "merges": [
    [
      "е",
      "</w>"
    ],
    [
      "т",
      "о"
    ],
    [
      "с",
      "т"
    ],
    [
      "а",
      "</w>"
    ],
    [
      ".",
      "</w>"
    ],
    [
      ",",
      "</w>"
    ],
    [
      "е",
      "н"
    ],
    [
      "и",
      "</w>"
    ],
    [
      "н",
      "о"
    ],
    [
      "я",
      "</w>"
    ],
    [
      "т",
      "е"
    ],
    [
      "и",
      "з"
    ],
    [
      "о",
      "в"
    ],
    [
      "р",
      "а"
    ],
    [
      "ы",
      "</w>"
    ],
    [
      "и",
      "е</w>"
    ],
    [
      "г",
      "о"
    ],
    [
      "а",
      "л"
    ],
    [
      "н",
      "ы"
    ],
    [
      "е",
      "т"
    ],
    [
      "д",
      "л"
    ],
    [
      "о",
      "б"
    ],
    [
      "к",
      "о"
    ],
    [
      "р",
      "и"
    ],
    [
      "а",
      "н"
    ],
    [
      "с",
      "л"
    ],
    [
      "й",
      "</w>"
    ],
    [
      "ь",
      "</w>"
    ],
    [
      "л",
      "е"
    ],
    [
      "а",
      "т"
    ],
    [
      ":",
      "</w>"
    ],
    [
      "те",
      "к"
    ],
    [
      "тек",
      "ст"
    ],
    [
      "ц",
      "и"
    ],
    [
      "б",
      "о"
    ],
    [
      "и",
      "н"
    ],
    [
      "э",
      "то"
    ],
    [
      "ет",
      "</w>"
    ],
    [
      "ны",
      "е</w>"
    ],
    [
      "н",
      "а</w>"
    ],
    [
      "сл",
      "ов"
    ],
    [
      "м",
      "</w>"
    ],
    [
      "р",
      "о"
    ],
    [
      "текст",
      "</w>"
    ],
    [
      "к",
      "ен"
    ],
    [
      "кен",
      "из"
    ],
    [
      "м",
      "е"
    ],
    [
      "и",
      "р"
    ],
    [
      "у",
      "ч"
    ],
    [
      "ен",
      "ие</w>"
    ],
    [
      "—",
      "</w>"
    ],
    [
      "это",
      "</w>"
    ],
    [
      "го",
      "</w>"
    ],
    [
      "ал",
      "го"
    ],
    [
      "алго",
      "ри"
    ],
    [
      "алгори",
      "т"
    ],
    [
      "с",
      "я</w>"
    ],
    [
      "слов",
      "а</w>"
    ],
    [
      "е",
      "ст"
    ],
    [
      "то",
      "р"
    ],
    [
      "дл",
      "я</w>"
    ],
    [
      "то",
      "кениз"
    ],
    [
      "ра",
      "з"
    ],
    [
      "к",
      "ие</w>"
    ],
    [
      "в",
      "о"
    ],
    [
      "р",
      "е"
    ],
    [
      "о",
      "ж"
    ],
    [
      "но",
      "е</w>"
    ],
    [
      "об",
      "уч"
    ],
    [
      "но",
      "го</w>"
    ],
    [
      "алгорит",
      "м"
    ],
    [
      "о",
      "с"
    ],
    [
      "х",
      "</w>"
    ],
    [
      "л",
      "и"
    ],
    [
      "м",
      "ен"
    ],
    [
      "с",
      "то"
    ],
    [
      "B",
      "P"
    ],
    [
      "BP",
      "E"
    ],
    [
      "BPE",
      "</w>"
    ],
    [
      "e",
      "</w>"
    ],
    [
      "токениз",
      "а"
    ],
    [
      "ци",
      "и</w>"
    ],
    [
      "о",
      "н"
    ],
    [
      "ир",
      "ов"
    ],
    [
      "ж",
      "е</w>"
    ],
    [
      "но",
      "</w>"
    ],
    [
      "ра",
      "бо"
    ],
    [
      "рабо",
      "т"
    ],
    [
      "ин",
      "ное</w>"
    ],
    [
      "обуч",
      "ение</w>"
    ],
    [
      "а",
      "ст"
    ],
    [
      "и",
      "с"
    ],
    [
      "в",
      "ен"
    ],
    [
      "вен",
      "ного</w>"
    ],
    [
      "те",
      "л"
    ],
    [
      "ле",
      "к"
    ],
    [
      "лек",
      "т"
    ],
    [
      "а",
      "ет</w>"
    ],
    [
      "ны",
      "х</w>"
    ],
    [
      "мен",
      "т"
    ],
    [
      "а",
      "з"
    ],
    [
      "щ",
      "и"
    ],
    [
      "к",
      "</w>"
    ],
    [
      "я",
      "ю"
    ],
    [
      "ан",
      "ал"
    ],
    [
      "анал",
      "из"
    ],
    [
      "а",
      "сто"
    ],
    [
      "асто",
      "т"
    ],
    [
      "(",
      "</w>"
    ],
    [
      "r",
      "</w>"
    ],
    [
      ")",
      "</w>"
    ],
    [
      "но",
      "й</w>"
    ],
    [
      "токениза",
      "ции</w>"
    ],
    [
      "ко",
      "тор"
    ],
    [
      "котор",
      "ы"
    ],
    [
      "бо",
      "ле"
    ],
    [
      "боле",
      "е</w>"
    ],
    [
      "К",
      "а"
    ],
    [
      "но",
      "ст"
    ],
    [
      "м",
      "о"
    ],
    [
      "д",
      "е"
    ],
    [
      "во",
      "л"
    ],
    [
      "ь",
      "ю"
    ],
    [
      "N",
      "L"
    ],
    [
      "NL",
      "P"
    ],
    [
      "NLP",
      "</w>"
    ],
    [
      "то",
      "же</w>"
    ],
    [
      "ат",
      "ь</w>"
    ],
    [
      "ме",
      "то"
    ],
    [
      "мето",
      "д"
    ],
    [
      "я",
      "в"
    ],
    [
      "яв",
      "л"
    ],
    [
      "п",
      "е"
    ],
    [
      "в",
      "ы"
    ],
    [
      "в",
      "</w>"
    ],
    [
      "я",
      "з"
    ],
    [
      "яз",
      "ы"
    ],
    [
      "язы",
      "к"
    ],
    [
      "ро",
      "т"
    ],
    [
      "рот",
      "кие</w>"
    ],
    [
      "o",
      "n"
    ],
    [
      "ри",
      "в"
    ],
    [
      "рив",
      "ет</w>"
    ],
    [
      "м",
      "ир"
    ],
    [
      "мир",
      "</w>"
    ],
    [
      "ал",
      "ь"
    ],
    [
      "с",
      "и"
    ],
    [
      "!",
      "</w>"
    ],
    [
      "?",
      "</w>"
    ],
    [
      "ме",
      "р"
    ],
    [
      "работ",
      "ы</w>"
    ],
    [
      "ре",
      "дл"
    ],
    [
      "редл",
      "ож"
    ],
    [
      "и",
      "я</w>"
    ],
    [
      "алгоритм",
      "а</w>"
    ],
    [
      "М",
      "а"
    ],
    [
      "Ма",
      "ш"
    ],
    [
      "Маш",
      "инное</w>"
    ],
    [
      "об",
      "л"
    ],
    [
      "обл",
      "аст"
    ],
    [
      "област",
      "ь</w>"
    ],
    [
      "ис",
      "к"
    ],
    [
      "иск",
      "у"
    ],
    [
      "иску",
      "с"
    ],
    [
      "искус",
      "ст"
    ],
    [
      "искусст",
      "венного</w>"
    ],
    [
      "ин",
      "тел"
    ],
    [
      "интел",
      "лект"
    ],
    [
      "интеллект",
      "а</w>"
    ],
    [
      "ко",
      "то"
    ],
    [
      "кото",
      "ра"
    ],
    [
      "котора",
      "я</w>"
    ],
    [
      "из",
      "уч"
    ],
    [
      "изуч",
      "ает</w>"
    ],
    [
      "алгоритм",
      "ы</w>"
    ],
    [
      "с",
      "п"
    ],
    [
      "сп",
      "ос"
    ],
    [
      "спос",
      "об"
    ],
    [
      "способ",
      "ные</w>"
    ],
    [
      "обуч",
      "ат"
    ],
    [
      "обучат",
      "ь"
    ],
    [
      "обучать",
      "ся</w>"
    ],
    [
      "д",
      "ан"
    ],
    [
      "дан",
      "ных</w>"
    ],
    [
      "Д",
      "л"
    ],
    [
      "Дл",
      "ин"
    ],
    [
      "Длин",
      "ные</w>"
    ],
    [
      "ан",
      "т"
    ],
    [
      "ант",
      "и"
    ],
    [
      "анти",
      "д"
    ],
    [
      "антид",
      "ис"
    ],
    [
      "антидис",
      "ест"
    ],
    [
      "антидисест",
      "а"
    ],
    [
      "антидисеста",
      "б"
    ],
    [
      "антидисестаб",
      "ли"
    ],
    [
      "антидисестабли",
      "ш"
    ],
    [
      "антидисестаблиш",
      "мент"
    ],
    [
      "антидисестаблишмент",
      "а"
    ],
    [
      "антидисестаблишмента",
      "ри"
    ],
    [
      "антидисестаблишментари",
      "ан"
    ],
    [
      "антидисестаблишментариан",
      "из"
    ],
    [
      "антидисестаблишментарианиз",
      "м</w>"
    ],
    [
      "э",
      "лект"
    ],
    [
      "элект",
      "ро"
    ],
    [
      "электро",
      "г"
    ],
    [
      "электрог",
      "аз"
    ],
    [
      "электрогаз",
      "ос"
    ],
    [
      "электрогазос",
      "в"
    ],
    [
      "электрогазосв",
      "а"
    ],
    [
      "электрогазосва",
      "р"
    ],
    [
      "электрогазосвар",
      "щи"
    ],
    [
      "электрогазосварщи",
      "к</w>"
    ],
    [
      "П",
      "ов"
    ],
    [
      "Пов",
      "тор"
    ],
    [
      "Повтор",
      "яю"
    ],
    [
      "Повторяю",
      "щи"
    ],
    [
      "Повторяющи",
      "е"
    ],
    [
      "Повторяющие",
      "ся</w>"
    ],
    [
      "анализ",
      "а</w>"
    ],
    [
      "ч",
      "астот"
    ],
    [
      "частот",
      "</w>"
    ],
    [
      "B",
      "y"
    ],
    [
      "By",
      "t"
    ],
    [
      "Byt",
      "e</w>"
    ],
    [
      "P",
      "a"
    ],
    [
      "Pa",
      "i"
    ],
    [
      "Pai",
      "r</w>"
    ],
    [
      "E",
      "n"
    ],
    [
      "En",
      "c"
    ],
    [
      "Enc",
      "o"
    ],
    [
      "Enco",
      "d"
    ],
    [
      "Encod",
      "i"
    ],
    [
      "Encodi",
      "n"
    ],
    [
      "Encodin",
      "g"
    ],
    [
      "Encoding",
      "</w>"
    ],
    [
      "алгорит",
      "м</w>"
    ],
    [
      "с",
      "у"
    ],
    [
      "су",
      "б"
    ],
    [
      "суб",
      "слов"
    ],
    [
      "субслов",
      "ной</w>"
    ],
    [
      "которы",
      "й</w>"
    ],
    [
      "раз",
      "б"
    ],
    [
      "разб",
      "и"
    ],
    [
      "разби",
      "в"
    ],
    [
      "разбив",
      "ает</w>"
    ],
    [
      "ме",
      "л"
    ],
    [
      "мел",
      "кие</w>"
    ],
    [
      "ч",
      "аст"
    ],
    [
      "част",
      "и</w>"
    ],
    [
      "Ка",
      "ч"
    ],
    [
      "Кач",
      "ест"
    ],
    [
      "Качест",
      "во"
    ],
    [
      "Качество",
      "</w>"
    ],
    [
      "в",
      "ли"
    ],
    [
      "вли",
      "я"
    ],
    [
      "влия",
      "ет</w>"
    ],
    [
      "п",
      "ро"
    ],
    [
      "про",
      "из"
    ],
    [
      "произ",
      "во"
    ],
    [
      "произво",
      "д"
    ],
    [
      "производ",
      "и"
    ],
    [
      "производи",
      "тел"
    ],
    [
      "производител",
      "ь"
    ],
    [
      "производитель",
      "ност"
    ],
    [
      "производительност",
      "ь</w>"
    ],
    [
      "мо",
      "де"
    ],
    [
      "моде",
      "ле"
    ],
    [
      "моделе",
      "й</w>"
    ],
    [
      "Г",
      "л"
    ],
    [
      "Гл",
      "у"
    ],
    [
      "Глу",
      "бо"
    ],
    [
      "Глубо",
      "ко"
    ],
    [
      "Глубоко",
      "е</w>"
    ],
    [
      "ре",
      "вол"
    ],
    [
      "револ",
      "ю"
    ],
    [
      "револю",
      "ци"
    ],
    [
      "революци",
      "он"
    ],
    [
      "революцион",
      "из"
    ],
    [
      "революциониз",
      "иров"
    ],
    [
      "революционизиров",
      "ал"
    ],
    [
      "революционизировал",
      "о"
    ],
    [
      "революционизировало",
      "</w>"
    ],
    [
      "ко",
      "м"
    ],
    [
      "ком",
      "п"
    ],
    [
      "комп",
      "ью"
    ],
    [
      "компью",
      "те"
    ],
    [
      "компьюте",
      "р"
    ],
    [
      "компьютер",
      "ное</w>"
    ],
    [
      "з",
      "р"
    ],
    [
      "зр",
      "ение</w>"
    ],
    [
      "А",
      "н"
    ],
    [
      "Ан",
      "г"
    ],
    [
      "Анг",
      "ли"
    ],
    [
      "Англи",
      "й"
    ],
    [
      "Англий",
      "с"
    ],
    [
      "Английс",
      "к"
    ],
    [
      "Английск",
      "и"
    ],
    [
      "Английски",
      "й</w>"
    ],
    [
      "м",
      "ож"
    ],
    [
      "мож",
      "но</w>"
    ],
    [
      "токениз",
      "иров"
    ],
    [
      "токенизиров",
      "ать</w>"
    ],
    [
      "с",
      "</w>"
    ],
    [
      "п",
      "о"
    ],
    [
      "по",
      "мо"
    ],
    [
      "помо",
      "щ"
    ],
    [
      "помощ",
      "ью"
    ],
    [
      "помощью",
      "</w>"
    ],
    [
      "это",
      "го</w>"
    ],
    [
      "метод",
      "а</w>"
    ],
    [
      "Т",
      "о"
    ],
    [
      "То",
      "кениз"
    ],
    [
      "Токениз",
      "а"
    ],
    [
      "Токениза",
      "ци"
    ],
    [
      "Токенизаци",
      "я</w>"
    ],
    [
      "явл",
      "я"
    ],
    [
      "явля",
      "ет"
    ],
    [
      "являет",
      "ся</w>"
    ],
    [
      "пе",
      "р"
    ],
    [
      "пер",
      "вы"
    ],
    [
      "первы",
      "м</w>"
    ],
    [
      "ш",
      "а"
    ],
    [
      "ша",
      "го"
    ],
    [
      "шаго",
      "м</w>"
    ],
    [
      "об",
      "работ"
    ],
    [
      "обработ",
      "к"
    ],
    [
      "обработк",
      "е</w>"
    ],
    [
      "ест",
      "ест"
    ],
    [
      "естест",
      "венного</w>"
    ],
    [
      "язык",
      "а</w>"
    ],
    [
      "К",
      "о"
    ],
    [
      "Ко",
      "роткие</w>"
    ],
    [
      "т",
      "ы</w>"
    ],
    [
      "он",
      "</w>"
    ],
    [
      "о",
      "на</w>"
    ],
    [
      "о",
      "но</w>"
    ],
    [
      "м",
      "ы</w>"
    ],
    [
      "в",
      "ы</w>"
    ],
    [
      "он",
      "и</w>"
    ],
    [
      "Р",
      "аз"
    ],
    [
      "Раз",
      "ные</w>"
    ],
    [
      "язык",
      "и</w>"
    ],
    [
      "h",
      "e"
    ],
    [
      "he",
      "l"
    ],
    [
      "hel",
      "l"
    ],
    [
      "hell",
      "o"
    ],
    [
      "hello",
      "</w>"
    ],
    [
      "w",
      "o"
    ],
    [
      "wo",
      "r"
    ],
    [
      "wor",
      "l"
    ],
    [
      "worl",
      "d"
    ],
    [
      "world",
      "</w>"
    ],
    [
      "b",
      "on"
    ],
    [
      "bon",
      "j"
    ],
    [
      "bonj",
      "o"
    ],
    [
      "bonjo",
      "u"
    ],
    [
      "bonjou",
      "r</w>"
    ],
    [
      "l",
      "e</w>"
    ],
    [
      "m",
      "on"
    ],
    [
      "mon",
      "d"
    ],
    [
      "mond",
      "e</w>"
    ],
    [
      "п",
      "ривет</w>"
    ],
    [
      "С",
      "пе"
    ],
    [
      "Спе",
      "ци"
    ],
    [
      "Специ",
      "аль"
    ],
    [
      "Специаль",
      "ные</w>"
    ],
    [
      "си",
      "м"
    ],
    [
      "сим",
      "вол"
    ],
    [
      "символ",
      "ы</w>"
    ],
    [
      "@",
      "</w>"
    ],
    [
      "#",
      "</w>"
    ],
    [
      "$",
      "</w>"
    ],
    [
      "%",
      "</w>"
    ],
    [
      "^",
      "</w>"
    ],
    [
      "&",
      "</w>"
    ],
    [
      "*",
      "</w>"
    ],
    [
      "_",
      "</w>"
    ],
    [
      "+",
      "</w>"
    ],
    [
      "{",
      "</w>"
    ],
    [
      "}",
      "</w>"
    ],
    [
      "[",
      "</w>"
    ],
    [
      "]",
      "</w>"
    ],
    [
      "|",
      "</w>"
    ],
    [
      "\\",
      "</w>"
    ],
    [
      "\"",
      "</w>"
    ],
    [
      ";",
      "</w>"
    ],
    [
      "'",
      "</w>"
    ],
    [
      "<",
      "</w>"
    ],
    [
      ">",
      "</w>"
    ],
    [
      "/",
      "</w>"
    ],
    [
      "~",
      "</w>"
    ],
    [
      "Н",
      "е"
    ],
    [
      "Не",
      "й"
    ],
    [
      "Ней",
      "ро"
    ],
    [
      "Нейро",
      "н"
    ],
    [
      "Нейрон",
      "ные</w>"
    ],
    [
      "с",
      "ет"
    ],
    [
      "сет",
      "и</w>"
    ],
    [
      "т",
      "ра"
    ],
    [
      "тра",
      "н"
    ],
    [
      "тран",
      "с"
    ],
    [
      "транс",
      "ф"
    ],
    [
      "трансф",
      "о"
    ],
    [
      "трансфо",
      "р"
    ],
    [
      "трансфор",
      "мер"
    ],
    [
      "трансформер",
      "ы</w>"
    ],
    [
      "в",
      "н"
    ],
    [
      "вн",
      "и"
    ],
    [
      "вни",
      "м"
    ],
    [
      "вним",
      "ан"
    ],
    [
      "вниман",
      "ие</w>"
    ],
    [
      "в",
      "с"
    ],
    [
      "вс",
      "е</w>"
    ],
    [
      "э",
      "т"
    ],
    [
      "эт",
      "и</w>"
    ],
    [
      "ко",
      "н"
    ],
    [
      "кон",
      "ц"
    ],
    [
      "конц",
      "е"
    ],
    [
      "конце",
      "п"
    ],
    [
      "концеп",
      "ции</w>"
    ],
    [
      "явл",
      "яю"
    ],
    [
      "являю",
      "т"
    ],
    [
      "являют",
      "ся</w>"
    ],
    [
      "ф",
      "у"
    ],
    [
      "фу",
      "н"
    ],
    [
      "фун",
      "д"
    ],
    [
      "фунд",
      "а"
    ],
    [
      "фунда",
      "мент"
    ],
    [
      "фундамент",
      "аль"
    ],
    [
      "фундаменталь",
      "ны"
    ],
    [
      "фундаментальны",
      "м"
    ],
    [
      "фундаментальным",
      "и</w>"
    ],
    [
      "с",
      "ов"
    ],
    [
      "сов",
      "ре"
    ],
    [
      "совре",
      "мен"
    ],
    [
      "современ",
      "ных</w>"
    ],
    [
      "си",
      "ст"
    ],
    [
      "сист",
      "е"
    ],
    [
      "систе",
      "м</w>"
    ],
    [
      "П",
      "ривет</w>"
    ],
    [
      "Ка",
      "к</w>"
    ],
    [
      "де",
      "л"
    ],
    [
      "дел",
      "а</w>"
    ],
    [
      "Э",
      "то"
    ],
    [
      "Это",
      "</w>"
    ],
    [
      "те",
      "сто"
    ],
    [
      "тесто",
      "вы"
    ],
    [
      "тестовы",
      "й</w>"
    ],
    [
      "п",
      "р"
    ],
    [
      "пр",
      "ов"
    ],
    [
      "пров",
      "е"
    ],
    [
      "прове",
      "р"
    ],
    [
      "провер",
      "к"
    ],
    [
      "проверк",
      "и</w>"
    ],
    [
      "токениза",
      "тор"
    ],
    [
      "токенизатор",
      "а</w>"
    ],
    [
      "П",
      "редлож"
    ],
    [
      "Предлож",
      "ен"
    ],
    [
      "Предложен",
      "ия</w>"
    ],
    [
      "раз",
      "ной</w>"
    ],
    [
      "дл",
      "ин"
    ],
    [
      "длин",
      "ы</w>"
    ],
    [
      "О",
      "ч"
    ],
    [
      "Оч",
      "ен"
    ],
    [
      "Очен",
      "ь</w>"
    ],
    [
      "ко",
      "роткие</w>"
    ],
    [
      "А",
      "</w>"
    ],
    [
      "у",
      "же</w>"
    ],
    [
      "дл",
      "инное</w>"
    ],
    [
      "п",
      "редлож"
    ],
    [
      "предлож",
      "ение</w>"
    ],
    [
      "те",
      "ст"
    ],
    [
      "тест",
      "иров"
    ],
    [
      "тестиров",
      "ан"
    ],
    [
      "тестирован",
      "ия</w>"
    ],
    [
      "текст",
      "а"
    ],
    [
      "текста",
      "х</w>"
    ],
    [
      "раз",
      "ного</w>"
    ],
    [
      "раз",
      "мер"
    ],
    [
      "размер",
      "а</w>"
    ],
    [
      "сл",
      "ож"
    ],
    [
      "слож",
      "ност"
    ],
    [
      "сложност",
      "и</w>"
    ],
    [
      "Ч",
      "астот"
    ],
    [
      "Частот",
      "ны"
    ],
    [
      "Частотны",
      "й</w>"
    ],
    [
      "анализ",
      "</w>"
    ],
    [
      "ст",
      "ат"
    ],
    [
      "стат",
      "и"
    ],
    [
      "стати",
      "ст"
    ],
    [
      "статист",
      "и"
    ],
    [
      "статисти",
      "ч"
    ],
    [
      "статистич",
      "е"
    ],
    [
      "статистиче",
      "с"
    ],
    [
      "статистичес",
      "кие</w>"
    ],
    [
      "метод",
      "ы</w>"
    ],
    [
      "ле",
      "ж"
    ],
    [
      "леж",
      "ат"
    ],
    [
      "лежат",
      "</w>"
    ],
    [
      "ос",
      "но"
    ]
  ],
  "vocab_size": 612
}