{
  "vocab": {
    "\n": 0,
    " ": 1,
    "!": 2,
    "\"": 3,
    "#": 4,
    "&": 5,
    "'": 6,
    "(": 7,
    ")": 8,
    "*": 9,
    ",": 10,
    "-": 11,
    ".": 12,
    "/": 13,
    "0": 14,
    "1": 15,
    "2": 16,
    "3": 17,
    "4": 18,
    "5": 19,
    "6": 20,
    "7": 21,
    "8": 22,
    "9": 23,
    ":": 24,
    ";": 25,
    "<": 26,
    "=": 27,
    ">": 28,
    "?": 29,
    "A": 30,
    "B": 31,
    "C": 32,
    "D": 33,
    "E": 34,
    "F": 35,
    "G": 36,
    "H": 37,
    "I": 38,
    "J": 39,
    "K": 40,
    "L": 41,
    "M": 42,
    "N": 43,
    "O": 44,
    "P": 45,
    "Q": 46,
    "R": 47,
    "S": 48,
    "T": 49,
    "U": 50,
    "V": 51,
    "W": 52,
    "X": 53,
    "Y": 54,
    "Z": 55,
    "_": 56,
    "`": 57,
    "a": 58,
    "b": 59,
    "c": 60,
    "d": 61,
    "e": 62,
    "f": 63,
    "g": 64,
    "h": 65,
    "i": 66,
    "j": 67,
    "k": 68,
    "l": 69,
    "m": 70,
    "n": 71,
    "o": 72,
    "p": 73,
    "q": 74,
    "r": 75,
    "s": 76,
    "t": 77,
    "u": 78,
    "v": 79,
    "w": 80,
    "x": 81,
    "y": 82,
    "z": 83,
    "}": 84,
    "¢": 85,
    "¤": 86,
    "¥": 87,
    "®": 88,
    "µ": 89,
    "»": 90,
    "ó": 91,
    "–": 92,
    "—": 93,
    "‘": 94,
    "’": 95,
    "‚": 96,
    "…": 97,
    " t": 98,
    "he": 99,
    " a": 100,
    " \n": 101,
    " the": 102,
    "in": 103,
    " s": 104,
    "nd": 105,
    " w": 106,
    "re": 107,
    " o": 108,
    "ha": 109,
    "ou": 110,
    " and": 111,
    " b": 112,
    " f": 113,
    "er": 114,
    "ed": 115,
    "ing": 116,
    "ll": 117,
    "it": 118,
    "or": 119,
    " of": 120,
    " m": 121,
    "is": 122,
    "en": 123,
    " c": 124,
    " l": 125,
    "ar": 126,
    "as": 127,
    " to": 128,
    " d": 129,
    " h": 130,
    "es": 131,
    " n": 132,
    "on": 133,
    " he": 134,
    "ow": 135,
    " g": 136,
    "id": 137,
    " in": 138,
    " ha": 139,
    "om": 140,
    "hat": 141,
    "ut": 142,
    "an": 143,
    "at": 144,
    " '": 145,
    " be": 146,
    "ot": 147,
    " I": 148,
    " p": 149,
    "gh": 150,
    "ld": 151,
    " y": 152,
    " T": 153,
    "le": 154,
    " was": 155,
    " it": 156,
    "ay": 157,
    "ve": 158,
    "im": 159,
    " that": 160,
    "ro": 161,
    " st": 162,
    " we": 163,
    "ir": 164,
    " you": 165,
    " u": 166,
    " e": 167,
    "st": 168,
    " on": 169,
    " sa": 170,
    " th": 171,
    "ght": 172,
    "ad": 173,
    "ly": 174,
    "am": 175,
    "et": 176,
    "se": 177,
    " his": 178,
    "and": 179,
    " The": 180,
    " B": 181,
    "ill": 182,
    "oo": 183,
    " they": 184,
    "ver": 185,
    "ur": 186,
    " said": 187,
    " not": 188,
    "ac": 189,
    " S": 190,
    "ith": 191,
    " for": 192,
    " as": 193,
    "il": 194,
    " A": 195,
    " r": 196,
    "al": 197,
    "##": 198,
    "the": 199,
    "ke": 200,
    "ight": 201,
    "ain": 202,
    "ould": 203,
    " is": 204,
    " with": 205,
    " had": 206,
    "ent": 207,
    " F": 208,
    "ore": 209,
    " G": 210,
    "ee": 211,
    " H": 212,
    "s,": 213,
    "ic": 214,
    "ast": 215,
    " at": 216,
    " M": 217,
    "ome": 218,
    "ard": 219,
    " re": 220,
    "if": 221,
    "all": 222,
    " an": 223,
    "th": 224,
    " him": 225,
    "s.": 226,
    "ong": 227,
    "ag": 228,
    " were": 229,
    "red": 230,
    " fr": 231,
    " up": 232,
    " wh": 233,
    " have": 234,
    " all": 235,
    "e,": 236,
    ".'": 237,
    " but": 238,
    " them": 239,
    "ind": 240,
    ",'": 241,
    " W": 242,
    "'s": 243,
    " k": 244,
    " or": 245,
    "rod": 246,
    "ter": 247,
    "ack": 248,
    "ood": 249,
    "pp": 250,
    "ch": 251,
    "e.": 252,
    "own": 253,
    "nt": 254,
    " from": 255,
    " le": 256,
    "ell": 257,
    " He": 258,
    " go": 259,
    " do": 260,
    " gre": 261,
    "to": 262,
    " their": 263,
    " `": 264,
    " sh": 265,
    " there": 266,
    " see": 267,
    " ne": 268,
    " no": 269,
    "rodo": 270,
    "un": 271,
    "her": 272,
    " out": 273,
    " E": 274,
    " now": 275,
    " sp": 276,
    " li": 277,
    " so": 278,
    " Frodo": 279,
    "ound": 280,
    "ri": 281,
    "ame": 282,
    "ord": 283,
    "ess": 284,
    " ho": 285,
    " are": 286,
    " will": 287,
    "um": 288,
    "ook": 289,
    "out": 290,
    "ce": 291,
    " But": 292,
    "ry": 293,
    " ag": 294,
    "orn": 295,
    " whe": 296,
    "han": 297,
    "ough": 298,
    "our": 299,
    " if": 300,
    " me": 301,
    "ust": 302,
    "el": 303,
    "!'": 304,
    " sha": 305,
    "ven": 306,
    " al": 307,
    " R": 308,
    "ves": 309,
    "ark": 310,
    " kn": 311,
    "way": 312,
    " by": 313,
    "bo": 314,
    "ide": 315,
    "hed": 316,
    " ro": 317,
    "ak": 318,
    "ed.": 319,
    " long": 320,
    " L": 321,
    " my": 322,
    "ol": 323,
    " D": 324,
    "ear": 325,
    " v": 326,
    " could": 327,
    "The": 328,
    " cl": 329,
    "est": 330,
    "one": 331,
    "'t": 332,
    "ond": 333,
    " down": 334,
    "ther": 335,
    " again": 336,
    "alf": 337,
    "ie": 338,
    "any": 339,
    "####": 340,
    "####-": 341,
    "urn": 342,
    "ra": 343,
    "ed,": 344,
    " 'I": 345,
    " came": 346,
    " this": 347,
    "andalf": 348,
    " O": 349,
    "fore": 350,
    " And": 351,
    "ward": 352,
    " into": 353,
    " su": 354,
    " your": 355,
    "bb": 356,
    " like": 357,
    " would": 358,
    "ck": 359,
    " look": 360,
    " Sam": 361,
    " great": 362,
    " N": 363,
    "qu": 364,
    " P": 365,
    "ered": 366,
    "ass": 367,
    " more": 368,
    "art": 369,
    "ep": 370,
    "lf": 371,
    "ire": 372,
    " Gandalf": 373,
    "ought": 374,
    "ount": 375,
    "den": 376,
    " se": 377,
    "ion": 378,
    " some": 379,
    "ers": 380,
    " what": 381,
    " back": 382,
    " It": 383,
    "es,": 384,
    " can": 385,
    "ge": 386,
    " C": 387,
    " any": 388,
    "ake": 389,
    "tle": 390,
    "pe": 391,
    " ab": 392,
    "ath": 393,
    " been": 394,
    "very": 395,
    " bl": 396,
    " come": 397,
    "are": 398,
    "oll": 399,
    "bbit": 400,
    "?'": 401,
    "ink": 402,
    " dark": 403,
    "ing.": 404,
    " j": 405,
    "au": 406,
    " before": 407,
    " one": 408,
    "ing,": 409,
    " br": 410,
    "ft": 411,
    " fl": 412,
    "ant": 413,
    " gr": 414,
    " They": 415,
    " over": 416,
    "nder": 417,
    " de": 418,
    "ist": 419,
    " then": 420,
    " am": 421,
    "rag": 422,
    " seem": 423,
    " when": 424,
    " com": 425,
    "be": 426,
    " tim": 427,
    " away": 428,
    "ost": 429,
    " did": 430,
    "em": 431,
    " than": 432,
    "ilbo": 433,
    " still": 434,
    " about": 435,
    " way": 436,
    "us": 437,
    "ble": 438,
    " far": 439,
    " day": 440,
    "ose": 441,
    " \"": 442,
    "ick": 443,
    "ings": 444,
    "pt": 445,
    " sl": 446,
    " too": 447,
    " last": 448,
    " know": 449,
    " other": 450,
    "ous": 451,
    "ipp": 452,
    " qu": 453,
    " sw": 454,
    " pl": 455,
    " Th": 456,
    " us": 457,
    " tre": 458,
    "ile": 459,
    " many": 460,
    " hand": 461,
    "ul": 462,
    "ang": 463,
    " 'W": 464,
    " pass": 465,
    "bl": 466,
    " went": 467,
    " Bilbo": 468,
    " may": 469,
    "fter": 470,
    " light": 471,
    " fe": 472,
    " upon": 473,
    "You": 474,
    " -": 475,
    "es.": 476,
    " tr": 477,
    "er.": 478,
    " ey": 479,
    " only": 480,
    " even": 481,
    " has": 482,
    "self": 483,
    "wn": 484,
    "er,": 485,
    "ss": 486,
    "ittle": 487,
    " thr": 488,
    "eep": 489,
    " must": 490,
    "ountain": 491,
    " hobbit": 492,
    " wat": 493,
    "ich": 494,
    " There": 495,
    "ite": 496,
    " gl": 497,
    " old": 498,
    " our": 499,
    "ne": 500,
    " sm": 501,
    " under": 502,
    "y,": 503,
    "ort": 504,
    "old": 505,
    "ig": 506,
    " turn": 507,
    "on't": 508,
    "ave": 509,
    " shall": 510,
    "ippin": 511,
    "ragorn": 512,
    "op": 513,
    " very": 514,
    " here": 515,
    "ree": 516,
    "erry": 517,
    " str": 518,
    "of": 519,
    "hing": 520,
    "we": 521,
    "ive": 522,
    "ade": 523,
    " ar": 524,
    " say": 525,
    "dow": 526,
    " little": 527,
    "li": 528,
    "But": 529,
    " Then": 530,
    " thought": 531,
    " tw": 532,
    " Pippin": 533,
    " its": 534,
    " off": 535,
    "ace": 536,
    " Aragorn": 537,
    " seemed": 538,
    " un": 539,
    "ure": 540,
    " end": 541,
    "ice": 542,
    " where": 543,
    "read": 544,
    "ish": 545,
    " time": 546,
    "ate": 547,
    " who": 548,
    "alk": 549,
    " gu": 550,
    "y.": 551,
    "air": 552,
    "hind": 553,
    " looked": 554,
    "sw": 555,
    " wor": 556,
    "uch": 557,
    " night": 558,
    " while": 559,
    "ted": 560,
    " think": 561,
    " should": 562,
    "dden": 563,
    " which": 564,
    " beg": 565,
    " saw": 566,
    "ap": 567,
    "war": 568,
    " good": 569,
    " land": 570,
    "led": 571,
    "ting": 572,
    "ling": 573,
    " after": 574,
    " through": 575,
    "not": 576,
    " en": 577,
    " yet": 578,
    " El": 579,
    " get": 580,
    "row": 581,
    "ved": 582,
    " 'The": 583,
    " sil": 584,
    " 'A": 585,
    " ever": 586,
    "irst": 587,
    " heard": 588,
    "ather": 589,
    " she": 590,
    " left": 591,
    " bet": 592,
    "outh": 593,
    " him.": 594,
    " fell": 595,
    "ng": 596,
    "!\"": 597,
    " well": 598,
    "igh": 599,
    "ild": 600,
    " Merry": 601,
    " made": 602,
    " much": 603,
    " wind": 604,
    " We": 605,
    " it.": 606,
    " said.": 607,
    " nor": 608,
    "less": 609,
    " mo": 610,
    "reat": 611,
    "ale": 612,
    " stood": 613,
    " men": 614,
    "ried": 615,
    " behind": 616,
    "wards": 617,
    "ull": 618,
    " St": 619,
    "ddenly": 620,
    "oud": 621,
    " rem": 622,
    "ollum": 623,
    "oke": 624,
    "aster": 625,
    " road": 626,
    " po": 627,
    " ke": 628,
    " it,": 629,
    "get": 630,
    "sh": 631,
    " ch": 632,
    " ex": 633,
    " her": 634,
    "other": 635,
    " head": 636,
    " them.": 637,
    " vo": 638,
    " pre": 639,
    " call": 640,
    " answ": 641,
    "ared": 642,
    " found": 643,
    "ff": 644,
    " For": 645,
    "pen": 646,
    " deep": 647,
    "iver": 648,
    " shadow": 649,
    " spe": 650,
    "ly.": 651,
    " himself": 652,
    "oth": 653,
    " first": 654,
    " him,": 655,
    "elt": 656,
    " fall": 657,
    "ched": 658,
    " pe": 659,
    "ving": 660,
    " own": 661,
    " though": 662,
    " Gollum": 663,
    " stre": 664,
    " door": 665,
    "that": 666,
    " might": 667,
    " going": 668,
    "r.": 669,
    " war": 670,
    "ower": 671,
    " hill": 672,
    "ine": 673,
    " find": 674,
    " soon": 675,
    " near": 676,
    "ct": 677,
    " got": 678,
    " per": 679,
    " set": 680,
    " man": 681,
    " word": 682,
    " eyes": 683,
    "hap": 684,
    " right": 685,
    " sun": 686,
    " fire": 687,
    "ful": 688,
    " har": 689,
    " don't": 690,
    " Or": 691,
    " black": 692,
    "ere": 693,
    " At": 694,
    " unt": 695,
    "'ll": 696,
    " Frodo.": 697,
    "so": 698,
    " lay": 699,
    " You": 700,
    " two": 701,
    " hor": 702,
    " dre": 703,
    "bove": 704,
    " open": 705,
    "de": 706,
    " ask": 707,
    "yond": 708,
    "owed": 709,
    "ci": 710,
    "ue": 711,
    " In": 712,
    " never": 713,
    "ither": 714,
    " seen": 715,
    "ift": 716,
    "ew": 717,
    "was": 718,
    "leep": 719,
    " turned": 720,
    "ins": 721,
    " 'N": 722,
    " heart": 723,
    "ness": 724,
    " J": 725,
    " wall": 726,
    " passed": 727,
    " sc": 728,
    " Ro": 729,
    "his": 730,
    "ank": 731,
    " round": 732,
    " 'But": 733,
    "ies": 734,
    "agg": 735,
    "for": 736,
    " them,": 737,
    " cr": 738,
    " cle": 739,
    "turn": 740,
    " dwar": 741,
    "eg": 742,
    " these": 743,
    " feet": 744,
    "ell,": 745,
    "able": 746,
    " things": 747,
    " 'H": 748,
    "iff": 749,
    "ince": 750,
    " des": 751,
    " frie": 752,
    " friend": 753,
    "aid": 754,
    "ning": 755,
    "imli": 756,
    "hen": 757,
    "ken": 758,
    " lo": 759,
    "ally": 760,
    " `I": 761,
    "olk": 762,
    " take": 763,
    "here": 764,
    " bo": 765,
    " bec": 766,
    " above": 767,
    " wa": 768,
    " new": 769,
    " until": 770,
    " bel": 771,
    " fear": 772,
    " Gandalf.": 773,
    "omet": 774,
    " Mr.": 775,
    " how": 776,
    "n't": 777,
    "ise": 778,
    "ross": 779,
    " sat": 780,
    "uck": 781,
    " sk": 782,
    " wond": 783,
    " just": 784,
    "eng": 785,
    "ering": 786,
    "ung": 787,
    "iz": 788,
    " ac": 789,
    " Sh": 790,
    " fo": 791,
    " Gimli": 792,
    " 'T": 793,
    " hope": 794,
    " hel": 795,
    " towards": 796,
    "rid": 797,
    " part": 798,
    " high": 799,
    " let": 800,
    "sel": 801,
    " Far": 802,
    " mountain": 803,
    " hobbits": 804,
    "ield": 805,
    " con": 806,
    "ly,": 807,
    " bre": 808,
    "oment": 809,
    "pped": 810,
    "olas": 811,
    "egolas": 812,
    "cl": 813,
    "you": 814,
    "hes": 815,
    " arm": 816,
    "rom": 817,
    " bro": 818,
    "ab": 819,
    "ach": 820,
    " So": 821,
    " ear": 822,
    " tell": 823,
    " beyond": 824,
    "ten": 825,
    " ston": 826,
    " rid": 827,
    " began": 828,
    "but": 829,
    "anc": 830,
    " need": 831,
    " path": 832,
    " those": 833,
    " dis": 834,
    " wood": 835,
    "imb": 836,
    "ouse": 837,
    " put": 838,
    " el": 839,
    " such": 840,
    " suddenly": 841,
    " felt": 842,
    "az": 843,
    "gether": 844,
    " again.": 845,
    "with": 846,
    " cha": 847,
    " hu": 848,
    "aught": 849,
    " took": 850,
    " walk": 851,
    "ished": 852,
    " foll": 853,
    " water": 854,
    "ready": 855,
    "aking": 856,
    "les": 857,
    " sword": 858,
    " Legolas": 859,
    "me": 860,
    " Men": 861,
    "age": 862,
    " chan": 863,
    " moment": 864,
    "ail": 865,
    " make": 866,
    "they": 867,
    " cour": 868,
    " slow": 869,
    " once": 870,
    "ween": 871,
    "amir": 872,
    " sound": 873,
    "ho": 874,
    "ip": 875,
    "now": 876,
    " Shire": 877,
    " hear": 878,
    " you,": 879,
    " mind": 880,
    "most": 881,
    " small": 882,
    " hard": 883,
    " ev": 884,
    " grey": 885,
    "arum": 886,
    " side": 887,
    " white": 888,
    " another": 889,
    "aruman": 890,
    "oor": 891,
    " As": 892,
    " along": 893,
    " dwarves": 894,
    "int": 895,
    " rest": 896,
    "av": 897,
    "ool": 898,
    " year": 899,
    " star": 900,
    " fac": 901,
    " answered": 902,
    " help": 903,
    "sed": 904,
    "uin": 905,
    " return": 906,
    "end": 907,
    " green": 908,
    " Orc": 909,
    " since": 910,
    "jo": 911,
    " K": 912,
    " air": 913,
    " run": 914,
    " without": 915,
    " days": 916,
    "land": 917,
    " Ring": 918,
    "ened": 919,
    " 'It": 920,
    "ople": 921,
    "ber": 922,
    " gold": 923,
    "s;": 924,
    "pany": 925,
    " somet": 926,
    " want": 927,
    " most": 928,
    " folk": 929,
    " Faramir": 930,
    " Y": 931,
    " king": 932,
    " Is": 933,
    "thing": 934,
    "orom": 935,
    "raw": 936,
    " keep": 937,
    "oromir": 938,
    "ady": 939,
    " Mountain": 940,
    " inde": 941,
    " thing": 942,
    "s.'": 943,
    " enough": 944,
    " knew": 945,
    " dr": 946,
    " spr": 947,
    "aves": 948,
    "ondor": 949,
    " (": 950,
    "rand": 951,
    " fee": 952,
    " few": 953,
    " sleep": 954,
    " spoke": 955,
    " pro": 956,
    " clear": 957,
    " between": 958,
    "imp": 959,
    " speak": 960,
    " wr": 961,
    " clo": 962,
    ",\"": 963,
    " wish": 964,
    "ey": 965,
    "orin": 966,
    " trees": 967,
    " fair": 968,
    " among": 969,
    " cannot": 970,
    " cried": 971,
    "ever": 972,
    " cold": 973,
    "dd": 974,
    " If": 975,
    " stand": 976,
    "ret": 977,
    "ity": 978,
    " ground": 979,
    " 'And": 980,
    " morn": 981,
    "ange": 982,
    "wh": 983,
    " Be": 984,
    "per": 985,
    "orest": 986,
    " dead": 987,
    " mar": 988,
    "ment": 989,
    " Lord": 990,
    " 'S": 991,
    " against": 992,
    " es": 993,
    "'ve": 994,
    " also": 995,
    " Gondor": 996,
    " Saruman": 997,
    " bit": 998,
    " U": 999,
    "ory": 1000,
    " pr": 1001,
    " coming": 1002,
    " others": 1003,
    "owing": 1004,
    "com": 1005,
    " together": 1006,
    " again,": 1007,
    "aug": 1008,
    "ourne": 1009,
    "pl": 1010,
    " said,": 1011,
    " leave": 1012,
    " Elves": 1013,
    " east": 1014,
    " world": 1015,
    "ped": 1016,
    " quick": 1017,
    " better": 1018,
    " voic": 1019,
    "ier": 1020,
    " ste": 1021,
    "head": 1022,
    "rode": 1023,
    " already": 1024,
    " What": 1025,
    " ran": 1026,
    "ign": 1027,
    " climb": 1028,
    " Boromir": 1029,
    "men": 1030,
    "s,'": 1031,
    " rock": 1032,
    " 'You": 1033,
    " talk": 1034,
    " bat": 1035,
    " tall": 1036,
    "orth": 1037,
    "hadow": 1038,
    " voice": 1039,
    " evil": 1040,
    " Thorin": 1041,
    "sp": 1042,
    "ide,": 1043,
    " wide": 1044,
    "side": 1045,
    "bt": 1046,
    " me,": 1047,
    "ching": 1048,
    " Now": 1049,
    " every": 1050,
    " people": 1051,
    "joden": 1052,
    "him": 1053,
    " fur": 1054,
    "ordor": 1055,
    "up": 1056,
    "oom": 1057,
    "ily": 1058,
    "well": 1059,
    " indeed": 1060,
    " grew": 1061,
    " brought": 1062,
    "hor": 1063,
    " red": 1064,
    " `W": 1065,
    "anger": 1066,
    " When": 1067,
    " Frodo,": 1068,
    "light": 1069,
    " mean": 1070,
    "ief": 1071,
    " drew": 1072,
    "-f": 1073,
    "ged": 1074,
    "rond": 1075,
    " hour": 1076,
    " looking": 1077,
    " silent": 1078,
    " wear": 1079,
    "ird": 1080,
    " hur": 1081,
    "ance": 1082,
    " Rid": 1083,
    "gr": 1084,
    "ons": 1085,
    " His": 1086,
    " Wh": 1087,
    "eside": 1088,
    " tra": 1089,
    " asked": 1090,
    " wait": 1091,
    "o,": 1092,
    "And": 1093,
    "ien": 1094,
    "illed": 1095,
    "bur": 1096,
    " south": 1097,
    " Jom": 1098,
    "se,": 1099,
    "tered": 1100,
    " dist": 1101,
    "oubt": 1102,
    ".\"": 1103,
    "on,": 1104,
    " gat": 1105,
    "iet": 1106,
    " gone": 1107,
    " Sam.": 1108,
    "apt": 1109,
    "arn": 1110,
    " Sm": 1111,
    "rying": 1112,
    " gave": 1113,
    "oun": 1114,
    " car": 1115,
    "dle": 1116,
    " least": 1117,
    " Mordor": 1118,
    " north": 1119,
    "selves": 1120,
    " ser": 1121,
    " low": 1122,
    " app": 1123,
    " sec": 1124,
    " face": 1125,
    " words": 1126,
    " journe": 1127,
    " Thjoden": 1128,
    " up,": 1129,
    "ock": 1130,
    " house": 1131,
    " something": 1132,
    "them": 1133,
    " stone": 1134,
    " Aragorn.": 1135,
    " called": 1136,
    " swift": 1137,
    "king": 1138,
    " That": 1139,
    "day": 1140,
    "amp": 1141,
    " lif": 1142,
    " kind": 1143,
    " orc": 1144,
    " vall": 1145,
    " supp": 1146,
    " 'We": 1147,
    " nothing": 1148,
    " sing": 1149,
    " Ent": 1150,
    "ways": 1151,
    "ions": 1152,
    "izard": 1153,
    "gl": 1154,
    "-t": 1155,
    "ied": 1156,
    " less": 1157,
    " count": 1158,
    " lost": 1159,
    " lord": 1160,
    "aken": 1161,
    "were": 1162,
    "?\"": 1163,
    " On": 1164,
    " rode": 1165,
    "urp": 1166,
    "ious": 1167,
    " Strid": 1168,
    " sit": 1169,
    "over": 1170,
    " West": 1171,
    " strong": 1172,
    " 'Y": 1173,
    "emy": 1174,
    " give": 1175,
    " guess": 1176,
    " mid": 1177,
    " use": 1178,
    " forward": 1179,
    " ed": 1180,
    " told": 1181,
    " song": 1182,
    " happ": 1183,
    " stream": 1184,
    " Elrond": 1185,
    "dy": 1186,
    " bur": 1187,
    "sent": 1188,
    " west": 1189,
    " wonder": 1190,
    " strange": 1191,
    "orm": 1192,
    " cur": 1193,
    " almost": 1194,
    " battle": 1195,
    "fe": 1196,
    "had": 1197,
    "rie": 1198,
    " plac": 1199,
    " gobl": 1200,
    "bled": 1201,
    "like": 1202,
    " guard": 1203,
    " silver": 1204,
    " ad": 1205,
    "unn": 1206,
    " hands": 1207,
    " pale": 1208,
    "mer": 1209,
    " jo": 1210,
    "ause": 1211,
    " bus": 1212,
    " plain": 1213,
    " river": 1214,
    " Rohan": 1215,
    "leas": 1216,
    " All": 1217,
    " now,": 1218,
    " remem": 1219,
    " both": 1220,
    " heav": 1221,
    "ert": 1222,
    " hid": 1223,
    "atter": 1224,
    "app": 1225,
    " soft": 1226,
    " three": 1227,
    "ug": 1228,
    " list": 1229,
    " River": 1230,
    " Orcs": 1231,
    " sn": 1232,
    "ained": 1233,
    "one,": 1234,
    " doubt": 1235,
    "br": 1236,
    "nes": 1237,
    " lead": 1238,
    " trou": 1239,
    " cloud": 1240,
    " foot": 1241,
    " feel": 1242,
    " esc": 1243,
    " care": 1244,
    " master": 1245,
    " aw": 1246,
    " cre": 1247,
    " you.": 1248,
    " Not": 1249,
    "uff": 1250,
    "yn": 1251,
    " ring": 1252,
    " does": 1253,
    " cri": 1254,
    " Pippin.": 1255,
    "lt": 1256,
    " lar": 1257,
    "ash": 1258,
    " hall": 1259,
    "stand": 1260,
    "their": 1261,
    "There": 1262,
    " mist": 1263,
    " drag": 1264,
    "arrow": 1265,
    " beside": 1266,
    " 'D": 1267,
    "come": 1268,
    " half": 1269,
    " quite": 1270,
    " ter": 1271,
    "ses": 1272,
    " across": 1273,
    "ori": 1274,
    " rose": 1275,
    "obbit": 1276,
    "full": 1277,
    " horse": 1278,
    " held": 1279,
    "ide.": 1280,
    " full": 1281,
    "su": 1282,
    " bu": 1283,
    "ce.": 1284,
    " No": 1285,
    " --": 1286,
    " morning": 1287,
    " North": 1288,
    "fort": 1289,
    " further": 1290,
    " close": 1291,
    " place": 1292,
    "aw": 1293,
    " till": 1294,
    " wild": 1295,
    " name": 1296,
    " Com": 1297,
    " Bagg": 1298,
    "ows": 1299,
    "there": 1300,
    " caught": 1301,
    " slowly": 1302,
    " 'M": 1303,
    " bear": 1304,
    "got": 1305,
    "beard": 1306,
    "ror": 1307,
    "ump": 1308,
    "under": 1309,
    " Great": 1310,
    "vent": 1311,
    "e,'": 1312,
    " bright": 1313,
    "haps": 1314,
    "no": 1315,
    " nam": 1316,
    " hold": 1317,
    " 'What": 1318,
    " quiet": 1319,
    "ove": 1320,
    "jag": 1321,
    "ngth": 1322,
    "hapter": 1323,
    " 'Well,": 1324,
    " sign": 1325,
    "jagol": 1326,
    "He": 1327,
    " gi": 1328,
    "pan": 1329,
    " Tom": 1330,
    "te": 1331,
    " home": 1332,
    "one.": 1333,
    " shout": 1334,
    " can't": 1335,
    "from": 1336,
    " wizard": 1337,
    " af": 1338,
    "ying": 1339,
    "ene": 1340,
    "ow,": 1341,
    " 'O": 1342,
    "aughed": 1343,
    " son": 1344,
    " being": 1345,
    "have": 1346,
    " ent": 1347,
    " ago": 1348,
    " grass": 1349,
    " away.": 1350,
    " hung": 1351,
    " forest": 1352,
    " always": 1353,
    "ater": 1354,
    " sent": 1355,
    "look": 1356,
    " burn": 1357,
    " start": 1358,
    " ris": 1359,
    "long": 1360,
    " food": 1361,
    " ride": 1362,
    "They": 1363,
    " done": 1364,
    " Tree": 1365,
    " laid": 1366,
    "-s": 1367,
    "ont": 1368,
    " on,": 1369,
    " Gandalf,": 1370,
    "ation": 1371,
    " bank": 1372,
    " boat": 1373,
    "engard": 1374,
    " King": 1375,
    "inas": 1376,
    " tow": 1377,
    " pon": 1378,
    "gs": 1379,
    "'re": 1380,
    " mis": 1381,
    "ised": 1382,
    " me.": 1383,
    " journey": 1384,
    "xt": 1385,
    "ern": 1386,
    " bar": 1387,
    " top": 1388,
    "ached": 1389,
    " This": 1390,
    " used": 1391,
    " laughed": 1392,
    "ked": 1393,
    "ening": 1394,
    " led": 1395,
    "str": 1396,
    "enet": 1397,
    " glad": 1398,
    " moon": 1399,
    "hel": 1400,
    " I'": 1401,
    "night": 1402,
    "ired": 1403,
    " away,": 1404,
    "cept": 1405,
    " tree": 1406,
    " power": 1407,
    "-w": 1408,
    " eat": 1409,
    "ches": 1410,
    " Yet": 1411,
    "enethor": 1412,
    "leam": 1413,
    "aur": 1414,
    "hered": 1415,
    " En": 1416,
    "arer": 1417,
    " peril": 1418,
    " cut": 1419,
    "irith": 1420,
    "ndred": 1421,
    " best": 1422,
    " begin": 1423,
    " rather": 1424,
    " Merry.": 1425,
    " dream": 1426,
    " learn": 1427,
    "ty": 1428,
    "ines": 1429,
    " To": 1430,
    " stay": 1431,
    "ili": 1432,
    " ra": 1433,
    " meet": 1434,
    " Master": 1435,
    " darkness": 1436,
    " dim": 1437,
    " East": 1438,
    "than": 1439,
    "where": 1440,
    " mountains": 1441,
    "aptain": 1442,
    "ud": 1443,
    "It": 1444,
    "en,": 1445,
    "ow.": 1446,
    "aut": 1447,
    " 'F": 1448,
    " 'L": 1449,
    "ott": 1450,
    "ester": 1451,
    " longer": 1452,
    " step": 1453,
    " short": 1454,
    " field": 1455,
    " same": 1456,
    " leaves": 1457,
    " strength": 1458,
    "ated": 1459,
    " sight": 1460,
    " up.": 1461,
    " del": 1462,
    "awn": 1463,
    " years": 1464,
    " ahead": 1465,
    "eneath": 1466,
    " eas": 1467,
    " large": 1468,
    " Hobbit": 1469,
    "gu": 1470,
    "sing": 1471,
    "alad": 1472,
    "ence": 1473,
    " cry": 1474,
    " horn": 1475,
    "ible": 1476,
    " South": 1477,
    " broken": 1478,
    " each": 1479,
    " sprang": 1480,
    "\"W": 1481,
    " Sam,": 1482,
    " I'll": 1483,
    " either": 1484,
    " Riders": 1485,
    " Isengard": 1486,
    "ea": 1487,
    " hast": 1488,
    " save": 1489,
    " there,": 1490,
    "uddenly": 1491,
    "aff": 1492,
    " themselves": 1493,
    " serv": 1494,
    " Company": 1495,
    " work": 1496,
    " shadows": 1497,
    " news": 1498,
    " else": 1499,
    " danger": 1500,
    " secret": 1501,
    "ery": 1502,
    "Gandalf": 1503,
    "aped": 1504,
    " em": 1505,
    " `N": 1506,
    " sure": 1507,
    " One": 1508,
    " 'He": 1509,
    " breath": 1510,
    " Shadow": 1511,
    " Treebeard": 1512,
    " V": 1513,
    "vell": 1514,
    " im": 1515,
    "iles": 1516,
    "aint": 1517,
    "ce,": 1518,
    " ord": 1519,
    "iness": 1520,
    " young": 1521,
    " became": 1522,
    " filled": 1523,
    " edge": 1524,
    " forgot": 1525,
    " Minas": 1526,
    "go": 1527,
    " wand": 1528,
    " 'and": 1529,
    " real": 1530,
    "again": 1531,
    "rible": 1532,
    " watch": 1533,
    "eared": 1534,
    " friends": 1535,
    " anything": 1536,
    " valley": 1537,
    "med": 1538,
    "will": 1539,
    " us,": 1540,
    " Dark": 1541,
    " grow": 1542,
    " deal": 1543,
    "cted": 1544,
    " hills": 1545,
    " diff": 1546,
    " 'That": 1547,
    " walked": 1548,
    " followed": 1549,
    " matter": 1550,
    " Denethor": 1551,
    "fl": 1552,
    " sto": 1553,
    "could": 1554,
    "lack": 1555,
    "raid": 1556,
    " cross": 1557,
    " Gimli.": 1558,
    " course": 1559,
    " point": 1560,
    " heavy": 1561,
    " gleam": 1562,
    "by": 1563,
    "ead": 1564,
    "mand": 1565,
    " why": 1566,
    "wood": 1567,
    "down": 1568,
    " four": 1569,
    " eyes.": 1570,
    " dread": 1571,
    " often": 1572,
    " whis": 1573,
    " mem": 1574,
    " known": 1575,
    " roll": 1576,
    " won't": 1577,
    " slop": 1578,
    " expe": 1579,
    "said": 1580,
    "urien": 1581,
    " taken": 1582,
    "iled": 1583,
    " rec": 1584,
    "Then": 1585,
    "thern": 1586,
    "ivend": 1587,
    " 'There": 1588,
    " sky": 1589,
    "tre": 1590,
    "rel": 1591,
    " che": 1592,
    "oot": 1593,
    " fast": 1594,
    " hop": 1595,
    " none": 1596,
    " walls": 1597,
    "unnel": 1598,
    " because": 1599,
    "overed": 1600,
    " Even": 1601,
    " kept": 1602,
    " cho": 1603,
    " coun": 1604,
    " pleas": 1605,
    "ging": 1606,
    "ught": 1607,
    " With": 1608,
    " After": 1609,
    " 'Then": 1610,
    " move": 1611,
    " Road": 1612,
    " understand": 1613,
    " Saur": 1614,
    " hundred": 1615,
    " 'C": 1616,
    "cle": 1617,
    " lad": 1618,
    " Frodo's": 1619,
    " dri": 1620,
    "came": 1621,
    "ures": 1622,
    " fallen": 1623,
    " really": 1624,
    " acc": 1625,
    " Strider": 1626,
    " Al": 1627,
    "alin": 1628,
    "would": 1629,
    " out,": 1630,
    " Let": 1631,
    " gate": 1632,
    "vel": 1633,
    " that,": 1634,
    "ers,": 1635,
    "thr": 1636,
    " host": 1637,
    "raight": 1638,
    " death": 1639,
    " quest": 1640,
    " getting": 1641,
    " drink": 1642,
    " cloak": 1643,
    "ertain": 1644,
    "man": 1645,
    "before": 1646,
    " arms": 1647,
    " standing": 1648,
    " Jomer": 1649,
    "ren": 1650,
    "eed": 1651,
    " 'G": 1652,
    " sle": 1653,
    "ime": 1654,
    " Some": 1655,
    " rep": 1656,
    " bring": 1657,
    " tale": 1658,
    " running": 1659,
    " Baggins": 1660,
    " Smjagol": 1661,
    "ined": 1662,
    "on.": 1663,
    " ere": 1664,
    " comes": 1665,
    " big": 1666,
    " bow": 1667,
    " Gl": 1668,
    " ref": 1669,
    "ush": 1670,
    " `But": 1671,
    " loud": 1672,
    "ction": 1673,
    " company": 1674,
    " hidden": 1675,
    " tor": 1676,
    " on.": 1677,
    "ilt": 1678,
    " now.": 1679,
    " mess": 1680,
    " Come": 1681,
    "ipped": 1682,
    " gaz": 1683,
    " Legolas.": 1684,
    " climbed": 1685,
    " bird": 1686,
    "owyn": 1687,
    " compan": 1688,
    " beneath": 1689,
    " Black": 1690,
    " tunnel": 1691,
    "sl": 1692,
    "ining": 1693,
    "ars": 1694,
    "irr": 1695,
    " van": 1696,
    " seems": 1697,
    " way,": 1698,
    " lands": 1699,
    " mouth": 1700,
    " earth": 1701,
    " reached": 1702,
    "tr": 1703,
    "-g": 1704,
    " fing": 1705,
    " dro": 1706,
    " Do": 1707,
    " alone": 1708,
    " back.": 1709,
    "icked": 1710,
    " present": 1711,
    " remember": 1712,
    " next": 1713,
    " forgotten": 1714,
    "-c": 1715,
    "ots": 1716,
    " fight": 1717,
    " us.": 1718,
    " thick": 1719,
    "orrow": 1720,
    " imp": 1721,
    " Suddenly": 1722,
    "har": 1723,
    " bent": 1724,
    "ards": 1725,
    "atch": 1726,
    " floor": 1727,
    " draw": 1728,
    " goblins": 1729,
    " trouble": 1730,
    " fad": 1731,
    " said:": 1732,
    " An": 1733,
    " \"I": 1734,
    " Dwar": 1735,
    " father": 1736,
    " nearly": 1737,
    " disc": 1738,
    " hardly": 1739,
    " Lady": 1740,
    " suppose": 1741,
    " country": 1742,
    " hair": 1743,
    " back,": 1744,
    " turning": 1745,
    " smoke": 1746,
    "pre": 1747,
    "ned": 1748,
    "org": 1749,
    "ris": 1750,
    "mon": 1751,
    "lend": 1752,
    "road": 1753,
    "eet": 1754,
    " dep": 1755,
    " hand.": 1756,
    " line": 1757,
    "cient": 1758,
    " break": 1759,
    " follow": 1760,
    "oria": 1761,
    " Tirith": 1762,
    "roll": 1763,
    " cast": 1764,
    " ang": 1765,
    "ured": 1766,
    "ushed": 1767,
    "rief": 1768,
    " perhaps": 1769,
    " I'm": 1770,
    " afraid": 1771,
    "can": 1772,
    "set": 1773,
    "fall": 1774,
    "asure": 1775,
    " preci": 1776,
    " cliff": 1777,
    " front": 1778,
    "eds": 1779,
    "more": 1780,
    " How": 1781,
    " att": 1782,
    " wound": 1783,
    " down,": 1784,
    " Elf": 1785,
    "icul": 1786,
    " stair": 1787,
    " night,": 1788,
    " living": 1789,
    " crack": 1790,
    " gloom": 1791,
    " surp": 1792,
    " sitting": 1793,
    " comfort": 1794,
    " straight": 1795,
    " mut": 1796,
    "il,": 1797,
    " lea": 1798,
    " Sun": 1799,
    "ieve": 1800,
    "Bilbo": 1801,
    " evening": 1802,
    " here,": 1803,
    " well,": 1804,
    " ruin": 1805,
    " golden": 1806,
    "ob": 1807,
    " read": 1808,
    " forth": 1809,
    " given": 1810,
    " Sauron": 1811,
    " int": 1812,
    "what": 1813,
    " met": 1814,
    " tal": 1815,
    " bore": 1816,
    " Bag": 1817,
    "ate,": 1818,
    " yell": 1819,
    " shut": 1820,
    " shore": 1821,
    " out.": 1822,
    "ashed": 1823,
    " sudden": 1824,
    " creat": 1825,
    " Enemy": 1826,
    " empt": 1827,
    " Jowyn": 1828,
    "Th": 1829,
    "-l": 1830,
    "hall": 1831,
    " wis": 1832,
    "ets": 1833,
    "back": 1834,
    "cho": 1835,
    "unt": 1836,
    "top": 1837,
    " try": 1838,
    " shar": 1839,
    "seem": 1840,
    " Bilbo,": 1841,
    " below": 1842,
    " leng": 1843,
    "about": 1844,
    " ready": 1845,
    " City": 1846,
    " miles": 1847,
    " Rivend": 1848,
    " fin": 1849,
    "That": 1850,
    " Ar": 1851,
    "ently": 1852,
    " End": 1853,
    " Bilbo's": 1854,
    "great": 1855,
    " cont": 1856,
    " narrow": 1857,
    " command": 1858,
    "ts": 1859,
    "hy": 1860,
    " tou": 1861,
    "oat": 1862,
    " cir": 1863,
    " bad": 1864,
    "arad": 1865,
    " ru": 1866,
    " rel": 1867,
    "this": 1868,
    "ers.": 1869,
    " all.": 1870,
    " pack": 1871,
    "into": 1872,
    " lie": 1873,
    "away": 1874,
    " room": 1875,
    " dra": 1876,
    " Old": 1877,
    " times": 1878,
    " steep": 1879,
    " falling": 1880,
    " `It": 1881,
    " stars": 1882,
    "arewell": 1883,
    "t,": 1884,
    "in,": 1885,
    " er": 1886,
    " sum": 1887,
    " time,": 1888,
    " trees,": 1889,
    " Gate": 1890,
    "ship": 1891,
    " voices": 1892,
    " lifted": 1893,
    " Sea": 1894,
    " ancient": 1895,
    "-h": 1896,
    "hand": 1897,
    "ait": 1898,
    "dom": 1899,
    " rain": 1900,
    "Frodo": 1901,
    "ives": 1902,
    "augh": 1903,
    " opened": 1904,
    " craw": 1905,
    " cried.": 1906,
    " Galad": 1907,
    "rew": 1908,
    " min": 1909,
    " ill": 1910,
    " `S": 1911,
    " Bilbo.": 1912,
    " love": 1913,
    " become": 1914,
    " fail": 1915,
    " 'Yes,": 1916,
    " rising": 1917,
    " legs": 1918,
    " whisp": 1919,
    " di": 1920,
    "ided": 1921,
    " fly": 1922,
    "oose": 1923,
    " Gre": 1924,
    "some": 1925,
    " Here": 1926,
    " live": 1927,
    " squ": 1928,
    " too,": 1929,
    " nice": 1930,
    " tried": 1931,
    " poor": 1932,
    " desire": 1933,
    "door": 1934,
    " dragon": 1935,
    "fully": 1936,
    " faint": 1937,
    " counsel": 1938,
    "ax": 1939,
    "'d": 1940,
    "en.": 1941,
    "far": 1942,
    "ay,": 1943,
    " Their": 1944,
    " res": 1945,
    "thought": 1946,
    " dec": 1947,
    " tong": 1948,
    " himself.": 1949,
    " 'but": 1950,
    " Moria": 1951,
    " length": 1952,
    "sm": 1953,
    "ues": 1954,
    " 'B": 1955,
    " Bom": 1956,
    " beast": 1957,
    " eag": 1958,
    " all,": 1959,
    " it's": 1960,
    " whether": 1961,
    " trust": 1962,
    " eyes,": 1963,
    " sort": 1964,
    " Bree": 1965,
    "lted": 1966,
    " forget": 1967,
    "ually": 1968,
    "ably": 1969,
    " chance": 1970,
    "umbled": 1971,
    " horses": 1972,
    "ru": 1973,
    "s!": 1974,
    "ced": 1975,
    "ges": 1976,
    " that's": 1977,
    "your": 1978,
    "riel": 1979,
    " wol": 1980,
    " spear": 1981,
    " vis": 1982,
    " 'If": 1983,
    " send": 1984,
    " Cit": 1985,
    " gras": 1986,
    " Pippin,": 1987,
    " arrow": 1988,
    " dwarf": 1989,
    "hobbit": 1990,
    " spring": 1991,
    " Brand": 1992,
    " lying": 1993,
    "\"I": 1994,
    "ote": 1995,
    "aim": 1996,
    " mast": 1997,
    " spo": 1998,
    "even": 1999,
    "iful": 2000,
    " remain": 2001,
    " mighty": 2002,
    " 'No": 2003,
    " luck": 2004,
    " stones": 2005,
    " Forest": 2006,
    " eastward": 2007,
    " quickly": 2008,
    " Ents": 2009,
    " places": 2010,
    "ness.": 2011,
    " except": 2012,
    " beaut": 2013,
    "ed;": 2014,
    "ldom": 2015,
    "ir,": 2016,
    " mad": 2017,
    " cam": 2018,
    "then": 2019,
    " Go": 2020,
    "wind": 2021,
    " lies": 2022,
    "though": 2023,
    " hand,": 2024,
    "bling": 2025,
    " maybe": 2026,
    " myself": 2027,
    " night.": 2028,
    " enem": 2029,
    " gather": 2030,
    "astern": 2031,
    " answer": 2032,
    " side,": 2033,
    " middle": 2034,
    " safe": 2035,
    "do": 2036,
    "ner": 2037,
    "ous,": 2038,
    "tong": 2039,
    " mark": 2040,
    " sear": 2041,
    "estro": 2042,
    " flat": 2043,
    " eye": 2044,
    " fig": 2045,
    " returned": 2046,
    "while": 2047,
    " dwell": 2048,
    " chief": 2049,
    " White": 2050,
    " course,": 2051,
    " halt": 2052,
    " shining": 2053,
    " laugh": 2054,
    " fre": 2055,
    "ans": 2056,
    "le,": 2057,
    "ayed": 2058,
    "ense": 2059,
    "fast": 2060,
    "ages": 2061,
    "eech": 2062,
    " doom": 2063,
    "ion.": 2064,
    "ape": 2065,
    " time.": 2066,
    "vish": 2067,
    " prom": 2068,
    " Soon": 2069,
    " huge": 2070,
    " enemy": 2071,
    " vanished": 2072,
    "my": 2073,
    "s:": 2074,
    " 1": 2075,
    "ary": 2076,
    " tid": 2077,
    "hill": 2078,
    " pur": 2079,
    "ate.": 2080,
    " Took": 2081,
    "ckon": 2082,
    " more.": 2083,
    "owers": 2084,
    "hold": 2085,
    " poss": 2086,
    " Gollum.": 2087,
    " goblin": 2088,
    " listen": 2089,
    " certain": 2090,
    " echo": 2091,
    "-p": 2092,
    "Qu": 2093,
    "ser": 2094,
    "veral": 2095,
    " heal": 2096,
    " pain": 2097
  },
  "merges": [
    [
      " ",
      "t"
    ],
    [
      "h",
      "e"
    ],
    [
      " ",
      "a"
    ],
    [
      " ",
      "\n"
    ],
    [
      " t",
      "he"
    ],
    [
      "i",
      "n"
    ],
    [
      " ",
      "s"
    ],
    [
      "n",
      "d"
    ],
    [
      " ",
      "w"
    ],
    [
      "r",
      "e"
    ],
    [
      " ",
      "o"
    ],
    [
      "h",
      "a"
    ],
    [
      "o",
      "u"
    ],
    [
      " a",
      "nd"
    ],
    [
      " ",
      "b"
    ],
    [
      " ",
      "f"
    ],
    [
      "e",
      "r"
    ],
    [
      "e",
      "d"
    ],
    [
      "in",
      "g"
    ],
    [
      "l",
      "l"
    ],
    [
      "i",
      "t"
    ],
    [
      "o",
      "r"
    ],
    [
      " o",
      "f"
    ],
    [
      " ",
      "m"
    ],
    [
      "i",
      "s"
    ],
    [
      "e",
      "n"
    ],
    [
      " ",
      "c"
    ],
    [
      " ",
      "l"
    ],
    [
      "a",
      "r"
    ],
    [
      "a",
      "s"
    ],
    [
      " t",
      "o"
    ],
    [
      " ",
      "d"
    ],
    [
      " ",
      "h"
    ],
    [
      "e",
      "s"
    ],
    [
      " ",
      "n"
    ],
    [
      "o",
      "n"
    ],
    [
      " ",
      "he"
    ],
    [
      "o",
      "w"
    ],
    [
      " ",
      "g"
    ],
    [
      "i",
      "d"
    ],
    [
      " ",
      "in"
    ],
    [
      " ",
      "ha"
    ],
    [
      "o",
      "m"
    ],
    [
      "ha",
      "t"
    ],
    [
      "u",
      "t"
    ],
    [
      "a",
      "n"
    ],
    [
      "a",
      "t"
    ],
    [
      " ",
      "'"
    ],
    [
      " b",
      "e"
    ],
    [
      "o",
      "t"
    ],
    [
      " ",
      "I"
    ],
    [
      " ",
      "p"
    ],
    [
      "g",
      "h"
    ],
    [
      "l",
      "d"
    ],
    [
      " ",
      "y"
    ],
    [
      " ",
      "T"
    ],
    [
      "l",
      "e"
    ],
    [
      " w",
      "as"
    ],
    [
      " ",
      "it"
    ],
    [
      "a",
      "y"
    ],
    [
      "v",
      "e"
    ],
    [
      "i",
      "m"
    ],
    [
      " t",
      "hat"
    ],
    [
      "r",
      "o"
    ],
    [
      " s",
      "t"
    ],
    [
      " w",
      "e"
    ],
    [
      "i",
      "r"
    ],
    [
      " y",
      "ou"
    ],
    [
      " ",
      "u"
    ],
    [
      " ",
      "e"
    ],
    [
      "s",
      "t"
    ],
    [
      " o",
      "n"
    ],
    [
      " s",
      "a"
    ],
    [
      " t",
      "h"
    ],
    [
      "gh",
      "t"
    ],
    [
      "a",
      "d"
    ],
    [
      "l",
      "y"
    ],
    [
      "a",
      "m"
    ],
    [
      "e",
      "t"
    ],
    [
      "s",
      "e"
    ],
    [
      " h",
      "is"
    ],
    [
      "a",
      "nd"
    ],
    [
      " T",
      "he"
    ],
    [
      " ",
      "B"
    ],
    [
      "i",
      "ll"
    ],
    [
      "o",
      "o"
    ],
    [
      " the",
      "y"
    ],
    [
      "v",
      "er"
    ],
    [
      "u",
      "r"
    ],
    [
      " sa",
      "id"
    ],
    [
      " n",
      "ot"
    ],
    [
      "a",
      "c"
    ],
    [
      " ",
      "S"
    ],
    [
      "it",
      "h"
    ],
    [
      " f",
      "or"
    ],
    [
      " a",
      "s"
    ],
    [
      "i",
      "l"
    ],
    [
      " ",
      "A"
    ],
    [
      " ",
      "r"
    ],
    [
      "a",
      "l"
    ],
    [
      "#",
      "#"
    ],
    [
      "t",
      "he"
    ],
    [
      "k",
      "e"
    ],
    [
      "i",
      "ght"
    ],
    [
      "a",
      "in"
    ],
    [
      "ou",
      "ld"
    ],
    [
      " ",
      "is"
    ],
    [
      " w",
      "ith"
    ],
    [
      " ha",
      "d"
    ],
    [
      "en",
      "t"
    ],
    [
      " ",
      "F"
    ],
    [
      "o",
      "re"
    ],
    [
      " ",
      "G"
    ],
    [
      "e",
      "e"
    ],
    [
      " ",
      "H"
    ],
    [
      "s",
      ","
    ],
    [
      "i",
      "c"
    ],
    [
      "as",
      "t"
    ],
    [
      " a",
      "t"
    ],
    [
      " ",
      "M"
    ],
    [
      "om",
      "e"
    ],
    [
      "ar",
      "d"
    ],
    [
      " ",
      "re"
    ],
    [
      "i",
      "f"
    ],
    [
      "a",
      "ll"
    ],
    [
      " a",
      "n"
    ],
    [
      "t",
      "h"
    ],
    [
      " h",
      "im"
    ],
    [
      "s",
      "."
    ],
    [
      "on",
      "g"
    ],
    [
      "a",
      "g"
    ],
    [
      " we",
      "re"
    ],
    [
      "re",
      "d"
    ],
    [
      " f",
      "r"
    ],
    [
      " u",
      "p"
    ],
    [
      " w",
      "h"
    ],
    [
      " ha",
      "ve"
    ],
    [
      " a",
      "ll"
    ],
    [
      "e",
      ","
    ],
    [
      ".",
      "'"
    ],
    [
      " b",
      "ut"
    ],
    [
      " the",
      "m"
    ],
    [
      "in",
      "d"
    ],
    [
      ",",
      "'"
    ],
    [
      " ",
      "W"
    ],
    [
      "'",
      "s"
    ],
    [
      " ",
      "k"
    ],
    [
      " o",
      "r"
    ],
    [
      "ro",
      "d"
    ],
    [
      "t",
      "er"
    ],
    [
      "ac",
      "k"
    ],
    [
      "oo",
      "d"
    ],
    [
      "p",
      "p"
    ],
    [
      "c",
      "h"
    ],
    [
      "e",
      "."
    ],
    [
      "ow",
      "n"
    ],
    [
      "n",
      "t"
    ],
    [
      " fr",
      "om"
    ],
    [
      " l",
      "e"
    ],
    [
      "e",
      "ll"
    ],
    [
      " H",
      "e"
    ],
    [
      " g",
      "o"
    ],
    [
      " d",
      "o"
    ],
    [
      " g",
      "re"
    ],
    [
      "t",
      "o"
    ],
    [
      " the",
      "ir"
    ],
    [
      " ",
      "`"
    ],
    [
      " s",
      "h"
    ],
    [
      " the",
      "re"
    ],
    [
      " s",
      "ee"
    ],
    [
      " n",
      "e"
    ],
    [
      " n",
      "o"
    ],
    [
      "rod",
      "o"
    ],
    [
      "u",
      "n"
    ],
    [
      "he",
      "r"
    ],
    [
      " o",
      "ut"
    ],
    [
      " ",
      "E"
    ],
    [
      " n",
      "ow"
    ],
    [
      " s",
      "p"
    ],
    [
      " l",
      "i"
    ],
    [
      " s",
      "o"
    ],
    [
      " F",
      "rodo"
    ],
    [
      "ou",
      "nd"
    ],
    [
      "r",
      "i"
    ],
    [
      "am",
      "e"
    ],
    [
      "or",
      "d"
    ],
    [
      "es",
      "s"
    ],
    [
      " h",
      "o"
    ],
    [
      " a",
      "re"
    ],
    [
      " w",
      "ill"
    ],
    [
      "u",
      "m"
    ],
    [
      "oo",
      "k"
    ],
    [
      "ou",
      "t"
    ],
    [
      "c",
      "e"
    ],
    [
      " B",
      "ut"
    ],
    [
      "r",
      "y"
    ],
    [
      " a",
      "g"
    ],
    [
      "or",
      "n"
    ],
    [
      " w",
      "he"
    ],
    [
      "ha",
      "n"
    ],
    [
      "ou",
      "gh"
    ],
    [
      "ou",
      "r"
    ],
    [
      " ",
      "if"
    ],
    [
      " m",
      "e"
    ],
    [
      "u",
      "st"
    ],
    [
      "e",
      "l"
    ],
    [
      "!",
      "'"
    ],
    [
      " s",
      "ha"
    ],
    [
      "v",
      "en"
    ],
    [
      " a",
      "l"
    ],
    [
      " ",
      "R"
    ],
    [
      "v",
      "es"
    ],
    [
      "ar",
      "k"
    ],
    [
      " k",
      "n"
    ],
    [
      "w",
      "ay"
    ],
    [
      " b",
      "y"
    ],
    [
      "b",
      "o"
    ],
    [
      "id",
      "e"
    ],
    [
      "he",
      "d"
    ],
    [
      " ",
      "ro"
    ],
    [
      "a",
      "k"
    ],
    [
      "ed",
      "."
    ],
    [
      " l",
      "ong"
    ],
    [
      " ",
      "L"
    ],
    [
      " m",
      "y"
    ],
    [
      "o",
      "l"
    ],
    [
      " ",
      "D"
    ],
    [
      "e",
      "ar"
    ],
    [
      " ",
      "v"
    ],
    [
      " c",
      "ould"
    ],
    [
      "T",
      "he"
    ],
    [
      " c",
      "l"
    ],
    [
      "es",
      "t"
    ],
    [
      "on",
      "e"
    ],
    [
      "'",
      "t"
    ],
    [
      "o",
      "nd"
    ],
    [
      " d",
      "own"
    ],
    [
      "the",
      "r"
    ],
    [
      " ag",
      "ain"
    ],
    [
      "al",
      "f"
    ],
    [
      "i",
      "e"
    ],
    [
      "an",
      "y"
    ],
    [
      "##",
      "##"
    ],
    [
      "####",
      "-"
    ],
    [
      "ur",
      "n"
    ],
    [
      "r",
      "a"
    ],
    [
      "ed",
      ","
    ],
    [
      " '",
      "I"
    ],
    [
      " c",
      "ame"
    ],
    [
      " th",
      "is"
    ],
    [
      "and",
      "alf"
    ],
    [
      " ",
      "O"
    ],
    [
      "f",
      "ore"
    ],
    [
      " A",
      "nd"
    ],
    [
      "w",
      "ard"
    ],
    [
      " in",
      "to"
    ],
    [
      " s",
      "u"
    ],
    [
      " you",
      "r"
    ],
    [
      "b",
      "b"
    ],
    [
      " li",
      "ke"
    ],
    [
      " w",
      "ould"
    ],
    [
      "c",
      "k"
    ],
    [
      " l",
      "ook"
    ],
    [
      " S",
      "am"
    ],
    [
      " gre",
      "at"
    ],
    [
      " ",
      "N"
    ],
    [
      "q",
      "u"
    ],
    [
      " ",
      "P"
    ],
    [
      "e",
      "red"
    ],
    [
      "as",
      "s"
    ],
    [
      " m",
      "ore"
    ],
    [
      "ar",
      "t"
    ],
    [
      "e",
      "p"
    ],
    [
      "l",
      "f"
    ],
    [
      "i",
      "re"
    ],
    [
      " G",
      "andalf"
    ],
    [
      "ou",
      "ght"
    ],
    [
      "ou",
      "nt"
    ],
    [
      "d",
      "en"
    ],
    [
      " s",
      "e"
    ],
    [
      "i",
      "on"
    ],
    [
      " s",
      "ome"
    ],
    [
      "er",
      "s"
    ],
    [
      " w",
      "hat"
    ],
    [
      " b",
      "ack"
    ],
    [
      " I",
      "t"
    ],
    [
      "es",
      ","
    ],
    [
      " c",
      "an"
    ],
    [
      "g",
      "e"
    ],
    [
      " ",
      "C"
    ],
    [
      " an",
      "y"
    ],
    [
      "a",
      "ke"
    ],
    [
      "t",
      "le"
    ],
    [
      "p",
      "e"
    ],
    [
      " a",
      "b"
    ],
    [
      "at",
      "h"
    ],
    [
      " be",
      "en"
    ],
    [
      "ver",
      "y"
    ],
    [
      " b",
      "l"
    ],
    [
      " c",
      "ome"
    ],
    [
      "a",
      "re"
    ],
    [
      "o",
      "ll"
    ],
    [
      "bb",
      "it"
    ],
    [
      "?",
      "'"
    ],
    [
      "in",
      "k"
    ],
    [
      " d",
      "ark"
    ],
    [
      "ing",
      "."
    ],
    [
      " ",
      "j"
    ],
    [
      "a",
      "u"
    ],
    [
      " be",
      "fore"
    ],
    [
      " on",
      "e"
    ],
    [
      "ing",
      ","
    ],
    [
      " b",
      "r"
    ],
    [
      "f",
      "t"
    ],
    [
      " f",
      "l"
    ],
    [
      "an",
      "t"
    ],
    [
      " g",
      "r"
    ],
    [
      " The",
      "y"
    ],
    [
      " o",
      "ver"
    ],
    [
      "nd",
      "er"
    ],
    [
      " d",
      "e"
    ],
    [
      "is",
      "t"
    ],
    [
      " the",
      "n"
    ],
    [
      " a",
      "m"
    ],
    [
      "r",
      "ag"
    ],
    [
      " see",
      "m"
    ],
    [
      " whe",
      "n"
    ],
    [
      " c",
      "om"
    ],
    [
      "b",
      "e"
    ],
    [
      " t",
      "im"
    ],
    [
      " a",
      "way"
    ],
    [
      "o",
      "st"
    ],
    [
      " d",
      "id"
    ],
    [
      "e",
      "m"
    ],
    [
      " t",
      "han"
    ],
    [
      "il",
      "bo"
    ],
    [
      " st",
      "ill"
    ],
    [
      " ab",
      "out"
    ],
    [
      " w",
      "ay"
    ],
    [
      "u",
      "s"
    ],
    [
      "b",
      "le"
    ],
    [
      " f",
      "ar"
    ],
    [
      " d",
      "ay"
    ],
    [
      "o",
      "se"
    ],
    [
      " ",
      "\""
    ],
    [
      "ic",
      "k"
    ],
    [
      "ing",
      "s"
    ],
    [
      "p",
      "t"
    ],
    [
      " s",
      "l"
    ],
    [
      " to",
      "o"
    ],
    [
      " l",
      "ast"
    ],
    [
      " kn",
      "ow"
    ],
    [
      " o",
      "ther"
    ],
    [
      "ou",
      "s"
    ],
    [
      "i",
      "pp"
    ],
    [
      " ",
      "qu"
    ],
    [
      " s",
      "w"
    ],
    [
      " p",
      "l"
    ],
    [
      " T",
      "h"
    ],
    [
      " u",
      "s"
    ],
    [
      " t",
      "re"
    ],
    [
      "i",
      "le"
    ],
    [
      " m",
      "any"
    ],
    [
      " ha",
      "nd"
    ],
    [
      "u",
      "l"
    ],
    [
      "an",
      "g"
    ],
    [
      " '",
      "W"
    ],
    [
      " p",
      "ass"
    ],
    [
      "b",
      "l"
    ],
    [
      " w",
      "ent"
    ],
    [
      " B",
      "ilbo"
    ],
    [
      " m",
      "ay"
    ],
    [
      "f",
      "ter"
    ],
    [
      " l",
      "ight"
    ],
    [
      " f",
      "e"
    ],
    [
      " up",
      "on"
    ],
    [
      "Y",
      "ou"
    ],
    [
      " ",
      "-"
    ],
    [
      "es",
      "."
    ],
    [
      " t",
      "r"
    ],
    [
      "er",
      "."
    ],
    [
      " e",
      "y"
    ],
    [
      " on",
      "ly"
    ],
    [
      " e",
      "ven"
    ],
    [
      " ha",
      "s"
    ],
    [
      "se",
      "lf"
    ],
    [
      "w",
      "n"
    ],
    [
      "er",
      ","
    ],
    [
      "s",
      "s"
    ],
    [
      "it",
      "tle"
    ],
    [
      " th",
      "r"
    ],
    [
      "ee",
      "p"
    ],
    [
      " m",
      "ust"
    ],
    [
      "ount",
      "ain"
    ],
    [
      " ho",
      "bbit"
    ],
    [
      " w",
      "at"
    ],
    [
      "ic",
      "h"
    ],
    [
      " The",
      "re"
    ],
    [
      "it",
      "e"
    ],
    [
      " g",
      "l"
    ],
    [
      " o",
      "ld"
    ],
    [
      " o",
      "ur"
    ],
    [
      "n",
      "e"
    ],
    [
      " s",
      "m"
    ],
    [
      " u",
      "nder"
    ],
    [
      "y",
      ","
    ],
    [
      "or",
      "t"
    ],
    [
      "o",
      "ld"
    ],
    [
      "i",
      "g"
    ],
    [
      " t",
      "urn"
    ],
    [
      "on",
      "'t"
    ],
    [
      "a",
      "ve"
    ],
    [
      " sha",
      "ll"
    ],
    [
      "ipp",
      "in"
    ],
    [
      "rag",
      "orn"
    ],
    [
      "o",
      "p"
    ],
    [
      " ",
      "very"
    ],
    [
      " he",
      "re"
    ],
    [
      "re",
      "e"
    ],
    [
      "er",
      "ry"
    ],
    [
      " st",
      "r"
    ],
    [
      "o",
      "f"
    ],
    [
      "h",
      "ing"
    ],
    [
      "w",
      "e"
    ],
    [
      "i",
      "ve"
    ],
    [
      "ad",
      "e"
    ],
    [
      " a",
      "r"
    ],
    [
      " s",
      "ay"
    ],
    [
      "d",
      "ow"
    ],
    [
      " l",
      "ittle"
    ],
    [
      "l",
      "i"
    ],
    [
      "B",
      "ut"
    ],
    [
      " The",
      "n"
    ],
    [
      " th",
      "ought"
    ],
    [
      " t",
      "w"
    ],
    [
      " P",
      "ippin"
    ],
    [
      " it",
      "s"
    ],
    [
      " of",
      "f"
    ],
    [
      "ac",
      "e"
    ],
    [
      " A",
      "ragorn"
    ],
    [
      " seem",
      "ed"
    ],
    [
      " u",
      "n"
    ],
    [
      "u",
      "re"
    ],
    [
      " e",
      "nd"
    ],
    [
      "ic",
      "e"
    ],
    [
      " whe",
      "re"
    ],
    [
      "re",
      "ad"
    ],
    [
      "is",
      "h"
    ],
    [
      " tim",
      "e"
    ],
    [
      "at",
      "e"
    ],
    [
      " wh",
      "o"
    ],
    [
      "al",
      "k"
    ],
    [
      " g",
      "u"
    ],
    [
      "y",
      "."
    ],
    [
      "a",
      "ir"
    ],
    [
      "h",
      "ind"
    ],
    [
      " look",
      "ed"
    ],
    [
      "s",
      "w"
    ],
    [
      " w",
      "or"
    ],
    [
      "u",
      "ch"
    ],
    [
      " n",
      "ight"
    ],
    [
      " wh",
      "ile"
    ],
    [
      "t",
      "ed"
    ],
    [
      " th",
      "ink"
    ],
    [
      " sh",
      "ould"
    ],
    [
      "d",
      "den"
    ],
    [
      " wh",
      "ich"
    ],
    [
      " be",
      "g"
    ],
    [
      " sa",
      "w"
    ],
    [
      "a",
      "p"
    ],
    [
      "w",
      "ar"
    ],
    [
      " g",
      "ood"
    ],
    [
      " l",
      "and"
    ],
    [
      "l",
      "ed"
    ],
    [
      "t",
      "ing"
    ],
    [
      "l",
      "ing"
    ],
    [
      " a",
      "fter"
    ],
    [
      " thr",
      "ough"
    ],
    [
      "n",
      "ot"
    ],
    [
      " ",
      "en"
    ],
    [
      " y",
      "et"
    ],
    [
      " E",
      "l"
    ],
    [
      " g",
      "et"
    ],
    [
      "r",
      "ow"
    ],
    [
      "v",
      "ed"
    ],
    [
      " '",
      "The"
    ],
    [
      " s",
      "il"
    ],
    [
      " '",
      "A"
    ],
    [
      " e",
      "ver"
    ],
    [
      "ir",
      "st"
    ],
    [
      " he",
      "ard"
    ],
    [
      "at",
      "her"
    ],
    [
      " s",
      "he"
    ],
    [
      " le",
      "ft"
    ],
    [
      " be",
      "t"
    ],
    [
      "ou",
      "th"
    ],
    [
      " him",
      "."
    ],
    [
      " f",
      "ell"
    ],
    [
      "n",
      "g"
    ],
    [
      "!",
      "\""
    ],
    [
      " we",
      "ll"
    ],
    [
      "i",
      "gh"
    ],
    [
      "i",
      "ld"
    ],
    [
      " M",
      "erry"
    ],
    [
      " m",
      "ade"
    ],
    [
      " m",
      "uch"
    ],
    [
      " w",
      "ind"
    ],
    [
      " W",
      "e"
    ],
    [
      " it",
      "."
    ],
    [
      " said",
      "."
    ],
    [
      " n",
      "or"
    ],
    [
      "l",
      "ess"
    ],
    [
      " m",
      "o"
    ],
    [
      "re",
      "at"
    ],
    [
      "a",
      "le"
    ],
    [
      " st",
      "ood"
    ],
    [
      " m",
      "en"
    ],
    [
      "ri",
      "ed"
    ],
    [
      " be",
      "hind"
    ],
    [
      "ward",
      "s"
    ],
    [
      "u",
      "ll"
    ],
    [
      " S",
      "t"
    ],
    [
      "dden",
      "ly"
    ],
    [
      "ou",
      "d"
    ],
    [
      " re",
      "m"
    ],
    [
      "oll",
      "um"
    ],
    [
      "o",
      "ke"
    ],
    [
      "ast",
      "er"
    ],
    [
      " ro",
      "ad"
    ],
    [
      " p",
      "o"
    ],
    [
      " ",
      "ke"
    ],
    [
      " it",
      ","
    ],
    [
      "g",
      "et"
    ],
    [
      "s",
      "h"
    ],
    [
      " c",
      "h"
    ],
    [
      " e",
      "x"
    ],
    [
      " he",
      "r"
    ],
    [
      "ot",
      "her"
    ],
    [
      " he",
      "ad"
    ],
    [
      " them",
      "."
    ],
    [
      " v",
      "o"
    ],
    [
      " p",
      "re"
    ],
    [
      " c",
      "all"
    ],
    [
      " an",
      "sw"
    ],
    [
      "a",
      "red"
    ],
    [
      " f",
      "ound"
    ],
    [
      "f",
      "f"
    ],
    [
      " F",
      "or"
    ],
    [
      "p",
      "en"
    ],
    [
      " d",
      "eep"
    ],
    [
      "i",
      "ver"
    ],
    [
      " sha",
      "dow"
    ],
    [
      " sp",
      "e"
    ],
    [
      "ly",
      "."
    ],
    [
      " him",
      "self"
    ],
    [
      "ot",
      "h"
    ],
    [
      " f",
      "irst"
    ],
    [
      " him",
      ","
    ],
    [
      "el",
      "t"
    ],
    [
      " f",
      "all"
    ],
    [
      "c",
      "hed"
    ],
    [
      " p",
      "e"
    ],
    [
      "v",
      "ing"
    ],
    [
      " o",
      "wn"
    ],
    [
      " th",
      "ough"
    ],
    [
      " G",
      "ollum"
    ],
    [
      " st",
      "re"
    ],
    [
      " do",
      "or"
    ],
    [
      "t",
      "hat"
    ],
    [
      " m",
      "ight"
    ],
    [
      " go",
      "ing"
    ],
    [
      "r",
      "."
    ],
    [
      " w",
      "ar"
    ],
    [
      "ow",
      "er"
    ],
    [
      " h",
      "ill"
    ],
    [
      "in",
      "e"
    ],
    [
      " f",
      "ind"
    ],
    [
      " so",
      "on"
    ],
    [
      " ne",
      "ar"
    ],
    [
      "c",
      "t"
    ],
    [
      " g",
      "ot"
    ],
    [
      " p",
      "er"
    ],
    [
      " s",
      "et"
    ],
    [
      " m",
      "an"
    ],
    [
      " w",
      "ord"
    ],
    [
      " ey",
      "es"
    ],
    [
      "ha",
      "p"
    ],
    [
      " r",
      "ight"
    ],
    [
      " s",
      "un"
    ],
    [
      " f",
      "ire"
    ],
    [
      "f",
      "ul"
    ],
    [
      " ha",
      "r"
    ],
    [
      " d",
      "on't"
    ],
    [
      " O",
      "r"
    ],
    [
      " bl",
      "ack"
    ],
    [
      "e",
      "re"
    ],
    [
      " A",
      "t"
    ],
    [
      " u",
      "nt"
    ],
    [
      "'",
      "ll"
    ],
    [
      " Frodo",
      "."
    ],
    [
      "s",
      "o"
    ],
    [
      " l",
      "ay"
    ],
    [
      " ",
      "You"
    ],
    [
      " tw",
      "o"
    ],
    [
      " h",
      "or"
    ],
    [
      " d",
      "re"
    ],
    [
      "bo",
      "ve"
    ],
    [
      " o",
      "pen"
    ],
    [
      "d",
      "e"
    ],
    [
      " as",
      "k"
    ],
    [
      "y",
      "ond"
    ],
    [
      "ow",
      "ed"
    ],
    [
      "c",
      "i"
    ],
    [
      "u",
      "e"
    ],
    [
      " I",
      "n"
    ],
    [
      " ne",
      "ver"
    ],
    [
      "it",
      "her"
    ],
    [
      " se",
      "en"
    ],
    [
      "if",
      "t"
    ],
    [
      "e",
      "w"
    ],
    [
      "w",
      "as"
    ],
    [
      "le",
      "ep"
    ],
    [
      " turn",
      "ed"
    ],
    [
      "in",
      "s"
    ],
    [
      " '",
      "N"
    ],
    [
      " he",
      "art"
    ],
    [
      "n",
      "ess"
    ],
    [
      " ",
      "J"
    ],
    [
      " w",
      "all"
    ],
    [
      " pass",
      "ed"
    ],
    [
      " s",
      "c"
    ],
    [
      " R",
      "o"
    ],
    [
      "h",
      "is"
    ],
    [
      "an",
      "k"
    ],
    [
      " r",
      "ound"
    ],
    [
      " '",
      "But"
    ],
    [
      "i",
      "es"
    ],
    [
      "ag",
      "g"
    ],
    [
      "f",
      "or"
    ],
    [
      " them",
      ","
    ],
    [
      " c",
      "r"
    ],
    [
      " c",
      "le"
    ],
    [
      "t",
      "urn"
    ],
    [
      " d",
      "war"
    ],
    [
      "e",
      "g"
    ],
    [
      " the",
      "se"
    ],
    [
      " fe",
      "et"
    ],
    [
      "ell",
      ","
    ],
    [
      "a",
      "ble"
    ],
    [
      " th",
      "ings"
    ],
    [
      " '",
      "H"
    ],
    [
      "if",
      "f"
    ],
    [
      "in",
      "ce"
    ],
    [
      " d",
      "es"
    ],
    [
      " fr",
      "ie"
    ],
    [
      " frie",
      "nd"
    ],
    [
      "a",
      "id"
    ],
    [
      "n",
      "ing"
    ],
    [
      "im",
      "li"
    ],
    [
      "he",
      "n"
    ],
    [
      "k",
      "en"
    ],
    [
      " l",
      "o"
    ],
    [
      "all",
      "y"
    ],
    [
      " `",
      "I"
    ],
    [
      "ol",
      "k"
    ],
    [
      " t",
      "ake"
    ],
    [
      "he",
      "re"
    ],
    [
      " b",
      "o"
    ],
    [
      " be",
      "c"
    ],
    [
      " a",
      "bove"
    ],
    [
      " w",
      "a"
    ],
    [
      " ne",
      "w"
    ],
    [
      " unt",
      "il"
    ],
    [
      " be",
      "l"
    ],
    [
      " f",
      "ear"
    ],
    [
      " Gandalf",
      "."
    ],
    [
      "om",
      "et"
    ],
    [
      " M",
      "r."
    ],
    [
      " h",
      "ow"
    ],
    [
      "n",
      "'t"
    ],
    [
      "is",
      "e"
    ],
    [
      "ro",
      "ss"
    ],
    [
      " s",
      "at"
    ],
    [
      "u",
      "ck"
    ],
    [
      " s",
      "k"
    ],
    [
      " w",
      "ond"
    ],
    [
      " j",
      "ust"
    ],
    [
      "en",
      "g"
    ],
    [
      "er",
      "ing"
    ],
    [
      "un",
      "g"
    ],
    [
      "i",
      "z"
    ],
    [
      " a",
      "c"
    ],
    [
      " S",
      "h"
    ],
    [
      " f",
      "o"
    ],
    [
      " G",
      "imli"
    ],
    [
      " '",
      "T"
    ],
    [
      " ho",
      "pe"
    ],
    [
      " he",
      "l"
    ],
    [
      " to",
      "wards"
    ],
    [
      "r",
      "id"
    ],
    [
      " p",
      "art"
    ],
    [
      " h",
      "igh"
    ],
    [
      " l",
      "et"
    ],
    [
      "se",
      "l"
    ],
    [
      " F",
      "ar"
    ],
    [
      " m",
      "ountain"
    ],
    [
      " hobbit",
      "s"
    ],
    [
      "ie",
      "ld"
    ],
    [
      " c",
      "on"
    ],
    [
      "ly",
      ","
    ],
    [
      " b",
      "re"
    ],
    [
      "om",
      "ent"
    ],
    [
      "pp",
      "ed"
    ],
    [
      "ol",
      "as"
    ],
    [
      "eg",
      "olas"
    ],
    [
      "c",
      "l"
    ],
    [
      "y",
      "ou"
    ],
    [
      "he",
      "s"
    ],
    [
      " ar",
      "m"
    ],
    [
      "r",
      "om"
    ],
    [
      " b",
      "ro"
    ],
    [
      "a",
      "b"
    ],
    [
      "ac",
      "h"
    ],
    [
      " S",
      "o"
    ],
    [
      " e",
      "ar"
    ],
    [
      " t",
      "ell"
    ],
    [
      " be",
      "yond"
    ],
    [
      "t",
      "en"
    ],
    [
      " st",
      "on"
    ],
    [
      " r",
      "id"
    ],
    [
      " beg",
      "an"
    ],
    [
      "b",
      "ut"
    ],
    [
      "an",
      "c"
    ],
    [
      " ne",
      "ed"
    ],
    [
      " p",
      "ath"
    ],
    [
      " th",
      "ose"
    ],
    [
      " d",
      "is"
    ],
    [
      " w",
      "ood"
    ],
    [
      "im",
      "b"
    ],
    [
      "ou",
      "se"
    ],
    [
      " p",
      "ut"
    ],
    [
      " e",
      "l"
    ],
    [
      " su",
      "ch"
    ],
    [
      " su",
      "ddenly"
    ],
    [
      " f",
      "elt"
    ],
    [
      "a",
      "z"
    ],
    [
      "get",
      "her"
    ],
    [
      " again",
      "."
    ],
    [
      "w",
      "ith"
    ],
    [
      " c",
      "ha"
    ],
    [
      " h",
      "u"
    ],
    [
      "au",
      "ght"
    ],
    [
      " too",
      "k"
    ],
    [
      " w",
      "alk"
    ],
    [
      "is",
      "hed"
    ],
    [
      " f",
      "oll"
    ],
    [
      " wat",
      "er"
    ],
    [
      "read",
      "y"
    ],
    [
      "ak",
      "ing"
    ],
    [
      "l",
      "es"
    ],
    [
      " sw",
      "ord"
    ],
    [
      " L",
      "egolas"
    ],
    [
      "m",
      "e"
    ],
    [
      " M",
      "en"
    ],
    [
      "ag",
      "e"
    ],
    [
      " c",
      "han"
    ],
    [
      " m",
      "oment"
    ],
    [
      "a",
      "il"
    ],
    [
      " m",
      "ake"
    ],
    [
      "the",
      "y"
    ],
    [
      " c",
      "our"
    ],
    [
      " sl",
      "ow"
    ],
    [
      " on",
      "ce"
    ],
    [
      "we",
      "en"
    ],
    [
      "am",
      "ir"
    ],
    [
      " s",
      "ound"
    ],
    [
      "h",
      "o"
    ],
    [
      "i",
      "p"
    ],
    [
      "n",
      "ow"
    ],
    [
      " Sh",
      "ire"
    ],
    [
      " he",
      "ar"
    ],
    [
      " you",
      ","
    ],
    [
      " m",
      "ind"
    ],
    [
      "m",
      "ost"
    ],
    [
      " sm",
      "all"
    ],
    [
      " har",
      "d"
    ],
    [
      " e",
      "v"
    ],
    [
      " gre",
      "y"
    ],
    [
      "ar",
      "um"
    ],
    [
      " s",
      "ide"
    ],
    [
      " wh",
      "ite"
    ],
    [
      " an",
      "other"
    ],
    [
      "arum",
      "an"
    ],
    [
      "o",
      "or"
    ],
    [
      " A",
      "s"
    ],
    [
      " al",
      "ong"
    ],
    [
      " dwar",
      "ves"
    ],
    [
      "in",
      "t"
    ],
    [
      " re",
      "st"
    ],
    [
      "a",
      "v"
    ],
    [
      "oo",
      "l"
    ],
    [
      " y",
      "ear"
    ],
    [
      " st",
      "ar"
    ],
    [
      " f",
      "ac"
    ],
    [
      " answ",
      "ered"
    ],
    [
      " hel",
      "p"
    ],
    [
      "s",
      "ed"
    ],
    [
      "u",
      "in"
    ],
    [
      " re",
      "turn"
    ],
    [
      "e",
      "nd"
    ],
    [
      " gre",
      "en"
    ],
    [
      " Or",
      "c"
    ],
    [
      " s",
      "ince"
    ],
    [
      "j",
      "o"
    ],
    [
      " ",
      "K"
    ],
    [
      " a",
      "ir"
    ],
    [
      " r",
      "un"
    ],
    [
      " with",
      "out"
    ],
    [
      " day",
      "s"
    ],
    [
      "l",
      "and"
    ],
    [
      " R",
      "ing"
    ],
    [
      "en",
      "ed"
    ],
    [
      " 'I",
      "t"
    ],
    [
      "op",
      "le"
    ],
    [
      "b",
      "er"
    ],
    [
      " go",
      "ld"
    ],
    [
      "s",
      ";"
    ],
    [
      "p",
      "any"
    ],
    [
      " s",
      "omet"
    ],
    [
      " w",
      "ant"
    ],
    [
      " m",
      "ost"
    ],
    [
      " f",
      "olk"
    ],
    [
      " Far",
      "amir"
    ],
    [
      " ",
      "Y"
    ],
    [
      " k",
      "ing"
    ],
    [
      " I",
      "s"
    ],
    [
      "th",
      "ing"
    ],
    [
      "or",
      "om"
    ],
    [
      "ra",
      "w"
    ],
    [
      " ke",
      "ep"
    ],
    [
      "orom",
      "ir"
    ],
    [
      "ad",
      "y"
    ],
    [
      " M",
      "ountain"
    ],
    [
      " in",
      "de"
    ],
    [
      " th",
      "ing"
    ],
    [
      "s.",
      "'"
    ],
    [
      " en",
      "ough"
    ],
    [
      " kn",
      "ew"
    ],
    [
      " d",
      "r"
    ],
    [
      " sp",
      "r"
    ],
    [
      "a",
      "ves"
    ],
    [
      "ond",
      "or"
    ],
    [
      " ",
      "("
    ],
    [
      "r",
      "and"
    ],
    [
      " f",
      "ee"
    ],
    [
      " fe",
      "w"
    ],
    [
      " s",
      "leep"
    ],
    [
      " sp",
      "oke"
    ],
    [
      " p",
      "ro"
    ],
    [
      " cle",
      "ar"
    ],
    [
      " bet",
      "ween"
    ],
    [
      "im",
      "p"
    ],
    [
      " spe",
      "ak"
    ],
    [
      " w",
      "r"
    ],
    [
      " cl",
      "o"
    ],
    [
      ",",
      "\""
    ],
    [
      " w",
      "ish"
    ],
    [
      "e",
      "y"
    ],
    [
      "or",
      "in"
    ],
    [
      " tre",
      "es"
    ],
    [
      " f",
      "air"
    ],
    [
      " am",
      "ong"
    ],
    [
      " can",
      "not"
    ],
    [
      " c",
      "ried"
    ],
    [
      "e",
      "ver"
    ],
    [
      " c",
      "old"
    ],
    [
      "d",
      "d"
    ],
    [
      " I",
      "f"
    ],
    [
      " st",
      "and"
    ],
    [
      "re",
      "t"
    ],
    [
      "it",
      "y"
    ],
    [
      " gr",
      "ound"
    ],
    [
      " 'A",
      "nd"
    ],
    [
      " m",
      "orn"
    ],
    [
      "an",
      "ge"
    ],
    [
      "w",
      "h"
    ],
    [
      " B",
      "e"
    ],
    [
      "p",
      "er"
    ],
    [
      "ore",
      "st"
    ],
    [
      " de",
      "ad"
    ],
    [
      " m",
      "ar"
    ],
    [
      "m",
      "ent"
    ],
    [
      " L",
      "ord"
    ],
    [
      " '",
      "S"
    ],
    [
      " again",
      "st"
    ],
    [
      " ",
      "es"
    ],
    [
      "'",
      "ve"
    ],
    [
      " al",
      "so"
    ],
    [
      " G",
      "ondor"
    ],
    [
      " S",
      "aruman"
    ],
    [
      " b",
      "it"
    ],
    [
      " ",
      "U"
    ],
    [
      "or",
      "y"
    ],
    [
      " p",
      "r"
    ],
    [
      " com",
      "ing"
    ],
    [
      " other",
      "s"
    ],
    [
      "ow",
      "ing"
    ],
    [
      "c",
      "om"
    ],
    [
      " to",
      "gether"
    ],
    [
      " again",
      ","
    ],
    [
      "au",
      "g"
    ],
    [
      "our",
      "ne"
    ],
    [
      "p",
      "l"
    ],
    [
      " said",
      ","
    ],
    [
      " le",
      "ave"
    ],
    [
      " El",
      "ves"
    ],
    [
      " e",
      "ast"
    ],
    [
      " wor",
      "ld"
    ],
    [
      "p",
      "ed"
    ],
    [
      " qu",
      "ick"
    ],
    [
      " bet",
      "ter"
    ],
    [
      " vo",
      "ic"
    ],
    [
      "i",
      "er"
    ],
    [
      " st",
      "e"
    ],
    [
      "he",
      "ad"
    ],
    [
      "rod",
      "e"
    ],
    [
      " al",
      "ready"
    ],
    [
      " W",
      "hat"
    ],
    [
      " r",
      "an"
    ],
    [
      "ig",
      "n"
    ],
    [
      " cl",
      "imb"
    ],
    [
      " B",
      "oromir"
    ],
    [
      "m",
      "en"
    ],
    [
      "s,",
      "'"
    ],
    [
      " ro",
      "ck"
    ],
    [
      " '",
      "You"
    ],
    [
      " t",
      "alk"
    ],
    [
      " b",
      "at"
    ],
    [
      " t",
      "all"
    ],
    [
      "or",
      "th"
    ],
    [
      "ha",
      "dow"
    ],
    [
      " vo",
      "ice"
    ],
    [
      " ev",
      "il"
    ],
    [
      " Th",
      "orin"
    ],
    [
      "s",
      "p"
    ],
    [
      "id",
      "e,"
    ],
    [
      " w",
      "ide"
    ],
    [
      "s",
      "ide"
    ],
    [
      "b",
      "t"
    ],
    [
      " m",
      "e,"
    ],
    [
      "ch",
      "ing"
    ],
    [
      " N",
      "ow"
    ],
    [
      " e",
      "very"
    ],
    [
      " pe",
      "ople"
    ],
    [
      "jo",
      "den"
    ],
    [
      "h",
      "im"
    ],
    [
      " f",
      "ur"
    ],
    [
      "ord",
      "or"
    ],
    [
      "u",
      "p"
    ],
    [
      "o",
      "om"
    ],
    [
      "i",
      "ly"
    ],
    [
      "w",
      "ell"
    ],
    [
      " inde",
      "ed"
    ],
    [
      " gre",
      "w"
    ],
    [
      " br",
      "ought"
    ],
    [
      "h",
      "or"
    ],
    [
      " re",
      "d"
    ],
    [
      " `",
      "W"
    ],
    [
      "ang",
      "er"
    ],
    [
      " W",
      "hen"
    ],
    [
      " Frodo",
      ","
    ],
    [
      "l",
      "ight"
    ],
    [
      " me",
      "an"
    ],
    [
      "ie",
      "f"
    ],
    [
      " dre",
      "w"
    ],
    [
      "-",
      "f"
    ],
    [
      "g",
      "ed"
    ],
    [
      "ro",
      "nd"
    ],
    [
      " h",
      "our"
    ],
    [
      " look",
      "ing"
    ],
    [
      " sil",
      "ent"
    ],
    [
      " we",
      "ar"
    ],
    [
      "ir",
      "d"
    ],
    [
      " h",
      "ur"
    ],
    [
      "an",
      "ce"
    ],
    [
      " R",
      "id"
    ],
    [
      "g",
      "r"
    ],
    [
      "on",
      "s"
    ],
    [
      " H",
      "is"
    ],
    [
      " W",
      "h"
    ],
    [
      "es",
      "ide"
    ],
    [
      " t",
      "ra"
    ],
    [
      " ask",
      "ed"
    ],
    [
      " wa",
      "it"
    ],
    [
      "o",
      ","
    ],
    [
      "A",
      "nd"
    ],
    [
      "i",
      "en"
    ],
    [
      "ill",
      "ed"
    ],
    [
      "b",
      "ur"
    ],
    [
      " s",
      "outh"
    ],
    [
      " J",
      "om"
    ],
    [
      "se",
      ","
    ],
    [
      "t",
      "ered"
    ],
    [
      " d",
      "ist"
    ],
    [
      "ou",
      "bt"
    ],
    [
      ".",
      "\""
    ],
    [
      "on",
      ","
    ],
    [
      " g",
      "at"
    ],
    [
      "i",
      "et"
    ],
    [
      " g",
      "one"
    ],
    [
      " Sam",
      "."
    ],
    [
      "a",
      "pt"
    ],
    [
      "ar",
      "n"
    ],
    [
      " S",
      "m"
    ],
    [
      "ry",
      "ing"
    ],
    [
      " g",
      "ave"
    ],
    [
      "ou",
      "n"
    ],
    [
      " c",
      "ar"
    ],
    [
      "d",
      "le"
    ],
    [
      " le",
      "ast"
    ],
    [
      " M",
      "ordor"
    ],
    [
      " nor",
      "th"
    ],
    [
      "sel",
      "ves"
    ],
    [
      " s",
      "er"
    ],
    [
      " l",
      "ow"
    ],
    [
      " a",
      "pp"
    ],
    [
      " se",
      "c"
    ],
    [
      " f",
      "ace"
    ],
    [
      " word",
      "s"
    ],
    [
      " j",
      "ourne"
    ],
    [
      " Th",
      "joden"
    ],
    [
      " up",
      ","
    ],
    [
      "o",
      "ck"
    ],
    [
      " h",
      "ouse"
    ],
    [
      " somet",
      "hing"
    ],
    [
      "the",
      "m"
    ],
    [
      " st",
      "one"
    ],
    [
      " Aragorn",
      "."
    ],
    [
      " call",
      "ed"
    ],
    [
      " sw",
      "ift"
    ],
    [
      "k",
      "ing"
    ],
    [
      " T",
      "hat"
    ],
    [
      "d",
      "ay"
    ],
    [
      "am",
      "p"
    ],
    [
      " l",
      "if"
    ],
    [
      " k",
      "ind"
    ],
    [
      " or",
      "c"
    ],
    [
      " v",
      "all"
    ],
    [
      " su",
      "pp"
    ],
    [
      " 'W",
      "e"
    ],
    [
      " not",
      "hing"
    ],
    [
      " s",
      "ing"
    ],
    [
      " E",
      "nt"
    ],
    [
      "way",
      "s"
    ],
    [
      "ion",
      "s"
    ],
    [
      "iz",
      "ard"
    ],
    [
      "g",
      "l"
    ],
    [
      "-",
      "t"
    ],
    [
      "i",
      "ed"
    ],
    [
      " l",
      "ess"
    ],
    [
      " c",
      "ount"
    ],
    [
      " l",
      "ost"
    ],
    [
      " l",
      "ord"
    ],
    [
      "ak",
      "en"
    ],
    [
      "we",
      "re"
    ],
    [
      "?",
      "\""
    ],
    [
      " O",
      "n"
    ],
    [
      " ",
      "rode"
    ],
    [
      "ur",
      "p"
    ],
    [
      "i",
      "ous"
    ],
    [
      " St",
      "rid"
    ],
    [
      " s",
      "it"
    ],
    [
      "o",
      "ver"
    ],
    [
      " W",
      "est"
    ],
    [
      " str",
      "ong"
    ],
    [
      " '",
      "Y"
    ],
    [
      "em",
      "y"
    ],
    [
      " g",
      "ive"
    ],
    [
      " gu",
      "ess"
    ],
    [
      " m",
      "id"
    ],
    [
      " u",
      "se"
    ],
    [
      " for",
      "ward"
    ],
    [
      " ",
      "ed"
    ],
    [
      " to",
      "ld"
    ],
    [
      " s",
      "ong"
    ],
    [
      " ha",
      "pp"
    ],
    [
      " stre",
      "am"
    ],
    [
      " El",
      "rond"
    ],
    [
      "d",
      "y"
    ],
    [
      " b",
      "ur"
    ],
    [
      "s",
      "ent"
    ],
    [
      " w",
      "est"
    ],
    [
      " wond",
      "er"
    ],
    [
      " str",
      "ange"
    ],
    [
      "or",
      "m"
    ],
    [
      " c",
      "ur"
    ],
    [
      " al",
      "most"
    ],
    [
      " bat",
      "tle"
    ],
    [
      "f",
      "e"
    ],
    [
      "ha",
      "d"
    ],
    [
      "ri",
      "e"
    ],
    [
      " pl",
      "ac"
    ],
    [
      " go",
      "bl"
    ],
    [
      "bl",
      "ed"
    ],
    [
      "li",
      "ke"
    ],
    [
      " gu",
      "ard"
    ],
    [
      " sil",
      "ver"
    ],
    [
      " a",
      "d"
    ],
    [
      "un",
      "n"
    ],
    [
      " hand",
      "s"
    ],
    [
      " p",
      "ale"
    ],
    [
      "m",
      "er"
    ],
    [
      " j",
      "o"
    ],
    [
      "au",
      "se"
    ],
    [
      " b",
      "us"
    ],
    [
      " pl",
      "ain"
    ],
    [
      " r",
      "iver"
    ],
    [
      " Ro",
      "han"
    ],
    [
      "le",
      "as"
    ],
    [
      " A",
      "ll"
    ],
    [
      " now",
      ","
    ],
    [
      " rem",
      "em"
    ],
    [
      " b",
      "oth"
    ],
    [
      " he",
      "av"
    ],
    [
      "er",
      "t"
    ],
    [
      " h",
      "id"
    ],
    [
      "at",
      "ter"
    ],
    [
      "a",
      "pp"
    ],
    [
      " so",
      "ft"
    ],
    [
      " th",
      "ree"
    ],
    [
      "u",
      "g"
    ],
    [
      " l",
      "ist"
    ],
    [
      " R",
      "iver"
    ],
    [
      " Orc",
      "s"
    ],
    [
      " s",
      "n"
    ],
    [
      "ain",
      "ed"
    ],
    [
      "on",
      "e,"
    ],
    [
      " d",
      "oubt"
    ],
    [
      "b",
      "r"
    ],
    [
      "n",
      "es"
    ],
    [
      " le",
      "ad"
    ],
    [
      " tr",
      "ou"
    ],
    [
      " cl",
      "oud"
    ],
    [
      " fo",
      "ot"
    ],
    [
      " fee",
      "l"
    ],
    [
      " es",
      "c"
    ],
    [
      " c",
      "are"
    ],
    [
      " m",
      "aster"
    ],
    [
      " a",
      "w"
    ],
    [
      " c",
      "re"
    ],
    [
      " you",
      "."
    ],
    [
      " N",
      "ot"
    ],
    [
      "u",
      "ff"
    ],
    [
      "y",
      "n"
    ],
    [
      " r",
      "ing"
    ],
    [
      " do",
      "es"
    ],
    [
      " c",
      "ri"
    ],
    [
      " Pippin",
      "."
    ],
    [
      "l",
      "t"
    ],
    [
      " l",
      "ar"
    ],
    [
      "as",
      "h"
    ],
    [
      " ha",
      "ll"
    ],
    [
      "st",
      "and"
    ],
    [
      "the",
      "ir"
    ],
    [
      "The",
      "re"
    ],
    [
      " m",
      "ist"
    ],
    [
      " d",
      "rag"
    ],
    [
      "ar",
      "row"
    ],
    [
      " b",
      "eside"
    ],
    [
      " '",
      "D"
    ],
    [
      "c",
      "ome"
    ],
    [
      " ha",
      "lf"
    ],
    [
      " qu",
      "ite"
    ],
    [
      " t",
      "er"
    ],
    [
      "s",
      "es"
    ],
    [
      " ac",
      "ross"
    ],
    [
      "or",
      "i"
    ],
    [
      " ro",
      "se"
    ],
    [
      "o",
      "bbit"
    ],
    [
      "f",
      "ull"
    ],
    [
      " hor",
      "se"
    ],
    [
      " he",
      "ld"
    ],
    [
      "id",
      "e."
    ],
    [
      " f",
      "ull"
    ],
    [
      "s",
      "u"
    ],
    [
      " b",
      "u"
    ],
    [
      "c",
      "e."
    ],
    [
      " N",
      "o"
    ],
    [
      " -",
      "-"
    ],
    [
      " morn",
      "ing"
    ],
    [
      " N",
      "orth"
    ],
    [
      "f",
      "ort"
    ],
    [
      " fur",
      "ther"
    ],
    [
      " cl",
      "ose"
    ],
    [
      " pl",
      "ace"
    ],
    [
      "a",
      "w"
    ],
    [
      " t",
      "ill"
    ],
    [
      " w",
      "ild"
    ],
    [
      " n",
      "ame"
    ],
    [
      " C",
      "om"
    ],
    [
      " B",
      "agg"
    ],
    [
      "ow",
      "s"
    ],
    [
      "the",
      "re"
    ],
    [
      " c",
      "aught"
    ],
    [
      " slow",
      "ly"
    ],
    [
      " '",
      "M"
    ],
    [
      " be",
      "ar"
    ],
    [
      "g",
      "ot"
    ],
    [
      "be",
      "ard"
    ],
    [
      "r",
      "or"
    ],
    [
      "um",
      "p"
    ],
    [
      "u",
      "nder"
    ],
    [
      " G",
      "reat"
    ],
    [
      "v",
      "ent"
    ],
    [
      "e,",
      "'"
    ],
    [
      " br",
      "ight"
    ],
    [
      "hap",
      "s"
    ],
    [
      "n",
      "o"
    ],
    [
      " n",
      "am"
    ],
    [
      " ho",
      "ld"
    ],
    [
      " 'W",
      "hat"
    ],
    [
      " qu",
      "iet"
    ],
    [
      "o",
      "ve"
    ],
    [
      "j",
      "ag"
    ],
    [
      "ng",
      "th"
    ],
    [
      "hap",
      "ter"
    ],
    [
      " 'W",
      "ell,"
    ],
    [
      " s",
      "ign"
    ],
    [
      "jag",
      "ol"
    ],
    [
      "H",
      "e"
    ],
    [
      " g",
      "i"
    ],
    [
      "p",
      "an"
    ],
    [
      " T",
      "om"
    ],
    [
      "t",
      "e"
    ],
    [
      " h",
      "ome"
    ],
    [
      "on",
      "e."
    ],
    [
      " sh",
      "out"
    ],
    [
      " can",
      "'t"
    ],
    [
      "f",
      "rom"
    ],
    [
      " w",
      "izard"
    ],
    [
      " a",
      "f"
    ],
    [
      "y",
      "ing"
    ],
    [
      "en",
      "e"
    ],
    [
      "ow",
      ","
    ],
    [
      " '",
      "O"
    ],
    [
      "aug",
      "hed"
    ],
    [
      " s",
      "on"
    ],
    [
      " be",
      "ing"
    ],
    [
      "ha",
      "ve"
    ],
    [
      " ",
      "ent"
    ],
    [
      " ag",
      "o"
    ],
    [
      " gr",
      "ass"
    ],
    [
      " away",
      "."
    ],
    [
      " h",
      "ung"
    ],
    [
      " f",
      "orest"
    ],
    [
      " al",
      "ways"
    ],
    [
      "at",
      "er"
    ],
    [
      " s",
      "ent"
    ],
    [
      "l",
      "ook"
    ],
    [
      " b",
      "urn"
    ],
    [
      " st",
      "art"
    ],
    [
      " r",
      "is"
    ],
    [
      "l",
      "ong"
    ],
    [
      " f",
      "ood"
    ],
    [
      " r",
      "ide"
    ],
    [
      "The",
      "y"
    ],
    [
      " d",
      "one"
    ],
    [
      " T",
      "ree"
    ],
    [
      " l",
      "aid"
    ],
    [
      "-",
      "s"
    ],
    [
      "on",
      "t"
    ],
    [
      " on",
      ","
    ],
    [
      " Gandalf",
      ","
    ],
    [
      "at",
      "ion"
    ],
    [
      " b",
      "ank"
    ],
    [
      " bo",
      "at"
    ],
    [
      "eng",
      "ard"
    ],
    [
      " K",
      "ing"
    ],
    [
      "in",
      "as"
    ],
    [
      " to",
      "w"
    ],
    [
      " p",
      "on"
    ],
    [
      "g",
      "s"
    ],
    [
      "'",
      "re"
    ],
    [
      " m",
      "is"
    ],
    [
      "is",
      "ed"
    ],
    [
      " m",
      "e."
    ],
    [
      " journe",
      "y"
    ],
    [
      "x",
      "t"
    ],
    [
      "er",
      "n"
    ],
    [
      " b",
      "ar"
    ],
    [
      " to",
      "p"
    ],
    [
      "ac",
      "hed"
    ],
    [
      " Th",
      "is"
    ],
    [
      " us",
      "ed"
    ],
    [
      " l",
      "aughed"
    ],
    [
      "k",
      "ed"
    ],
    [
      "en",
      "ing"
    ],
    [
      " l",
      "ed"
    ],
    [
      "st",
      "r"
    ],
    [
      "en",
      "et"
    ],
    [
      " gl",
      "ad"
    ],
    [
      " mo",
      "on"
    ],
    [
      "he",
      "l"
    ],
    [
      " I",
      "'"
    ],
    [
      "n",
      "ight"
    ],
    [
      "i",
      "red"
    ],
    [
      " away",
      ","
    ],
    [
      "ce",
      "pt"
    ],
    [
      " tre",
      "e"
    ],
    [
      " p",
      "ower"
    ],
    [
      "-",
      "w"
    ],
    [
      " e",
      "at"
    ],
    [
      "c",
      "hes"
    ],
    [
      " Y",
      "et"
    ],
    [
      "enet",
      "hor"
    ],
    [
      "le",
      "am"
    ],
    [
      "a",
      "ur"
    ],
    [
      "he",
      "red"
    ],
    [
      " E",
      "n"
    ],
    [
      "are",
      "r"
    ],
    [
      " per",
      "il"
    ],
    [
      " c",
      "ut"
    ],
    [
      "ir",
      "ith"
    ],
    [
      "nd",
      "red"
    ],
    [
      " b",
      "est"
    ],
    [
      " beg",
      "in"
    ],
    [
      " r",
      "ather"
    ],
    [
      " Merry",
      "."
    ],
    [
      " dre",
      "am"
    ],
    [
      " le",
      "arn"
    ],
    [
      "t",
      "y"
    ],
    [
      "in",
      "es"
    ],
    [
      " T",
      "o"
    ],
    [
      " st",
      "ay"
    ],
    [
      "il",
      "i"
    ],
    [
      " r",
      "a"
    ],
    [
      " me",
      "et"
    ],
    [
      " M",
      "aster"
    ],
    [
      " dark",
      "ness"
    ],
    [
      " d",
      "im"
    ],
    [
      " E",
      "ast"
    ],
    [
      "t",
      "han"
    ],
    [
      "w",
      "here"
    ],
    [
      " mountain",
      "s"
    ],
    [
      "apt",
      "ain"
    ],
    [
      "u",
      "d"
    ],
    [
      "I",
      "t"
    ],
    [
      "en",
      ","
    ],
    [
      "ow",
      "."
    ],
    [
      "a",
      "ut"
    ],
    [
      " '",
      "F"
    ],
    [
      " '",
      "L"
    ],
    [
      "ot",
      "t"
    ],
    [
      "es",
      "ter"
    ],
    [
      " long",
      "er"
    ],
    [
      " st",
      "ep"
    ],
    [
      " sh",
      "ort"
    ],
    [
      " f",
      "ield"
    ],
    [
      " sa",
      "me"
    ],
    [
      " le",
      "aves"
    ],
    [
      " stre",
      "ngth"
    ],
    [
      "at",
      "ed"
    ],
    [
      " s",
      "ight"
    ],
    [
      " up",
      "."
    ],
    [
      " d",
      "el"
    ],
    [
      "a",
      "wn"
    ],
    [
      " year",
      "s"
    ],
    [
      " a",
      "head"
    ],
    [
      "ene",
      "ath"
    ],
    [
      " e",
      "as"
    ],
    [
      " lar",
      "ge"
    ],
    [
      " H",
      "obbit"
    ],
    [
      "g",
      "u"
    ],
    [
      "s",
      "ing"
    ],
    [
      "al",
      "ad"
    ],
    [
      "en",
      "ce"
    ],
    [
      " c",
      "ry"
    ],
    [
      " h",
      "orn"
    ],
    [
      "i",
      "ble"
    ],
    [
      " S",
      "outh"
    ],
    [
      " bro",
      "ken"
    ],
    [
      " e",
      "ach"
    ],
    [
      " spr",
      "ang"
    ],
    [
      "\"",
      "W"
    ],
    [
      " Sam",
      ","
    ],
    [
      " I",
      "'ll"
    ],
    [
      " e",
      "ither"
    ],
    [
      " Rid",
      "ers"
    ],
    [
      " Is",
      "engard"
    ],
    [
      "e",
      "a"
    ],
    [
      " ha",
      "st"
    ],
    [
      " sa",
      "ve"
    ],
    [
      " there",
      ","
    ],
    [
      "u",
      "ddenly"
    ],
    [
      "a",
      "ff"
    ],
    [
      " them",
      "selves"
    ],
    [
      " ser",
      "v"
    ],
    [
      " Com",
      "pany"
    ],
    [
      " wor",
      "k"
    ],
    [
      " shadow",
      "s"
    ],
    [
      " new",
      "s"
    ],
    [
      " el",
      "se"
    ],
    [
      " d",
      "anger"
    ],
    [
      " sec",
      "ret"
    ],
    [
      "er",
      "y"
    ],
    [
      "G",
      "andalf"
    ],
    [
      "ap",
      "ed"
    ],
    [
      " e",
      "m"
    ],
    [
      " `",
      "N"
    ],
    [
      " su",
      "re"
    ],
    [
      " O",
      "ne"
    ],
    [
      " 'H",
      "e"
    ],
    [
      " bre",
      "ath"
    ],
    [
      " S",
      "hadow"
    ],
    [
      " Tree",
      "beard"
    ],
    [
      " ",
      "V"
    ],
    [
      "ve",
      "ll"
    ],
    [
      " ",
      "im"
    ],
    [
      "il",
      "es"
    ],
    [
      "ain",
      "t"
    ],
    [
      "c",
      "e,"
    ],
    [
      " or",
      "d"
    ],
    [
      "in",
      "ess"
    ],
    [
      " you",
      "ng"
    ],
    [
      " bec",
      "ame"
    ],
    [
      " f",
      "illed"
    ],
    [
      " ed",
      "ge"
    ],
    [
      " for",
      "got"
    ],
    [
      " M",
      "inas"
    ],
    [
      "g",
      "o"
    ],
    [
      " w",
      "and"
    ],
    [
      " '",
      "and"
    ],
    [
      " re",
      "al"
    ],
    [
      "ag",
      "ain"
    ],
    [
      "ri",
      "ble"
    ],
    [
      " wat",
      "ch"
    ],
    [
      "e",
      "ared"
    ],
    [
      " friend",
      "s"
    ],
    [
      " any",
      "thing"
    ],
    [
      " vall",
      "ey"
    ],
    [
      "m",
      "ed"
    ],
    [
      "w",
      "ill"
    ],
    [
      " u",
      "s,"
    ],
    [
      " D",
      "ark"
    ],
    [
      " gr",
      "ow"
    ],
    [
      " de",
      "al"
    ],
    [
      "c",
      "ted"
    ],
    [
      " hill",
      "s"
    ],
    [
      " d",
      "iff"
    ],
    [
      " 'T",
      "hat"
    ],
    [
      " walk",
      "ed"
    ],
    [
      " foll",
      "owed"
    ],
    [
      " m",
      "atter"
    ],
    [
      " D",
      "enethor"
    ],
    [
      "f",
      "l"
    ],
    [
      " st",
      "o"
    ],
    [
      "c",
      "ould"
    ],
    [
      "l",
      "ack"
    ],
    [
      "ra",
      "id"
    ],
    [
      " c",
      "ross"
    ],
    [
      " Gimli",
      "."
    ],
    [
      " cour",
      "se"
    ],
    [
      " po",
      "int"
    ],
    [
      " heav",
      "y"
    ],
    [
      " g",
      "leam"
    ],
    [
      "b",
      "y"
    ],
    [
      "e",
      "ad"
    ],
    [
      "m",
      "and"
    ],
    [
      " wh",
      "y"
    ],
    [
      "w",
      "ood"
    ],
    [
      "d",
      "own"
    ],
    [
      " f",
      "our"
    ],
    [
      " ey",
      "es."
    ],
    [
      " d",
      "read"
    ],
    [
      " of",
      "ten"
    ],
    [
      " wh",
      "is"
    ],
    [
      " me",
      "m"
    ],
    [
      " kn",
      "own"
    ],
    [
      " ro",
      "ll"
    ],
    [
      " w",
      "on't"
    ],
    [
      " sl",
      "op"
    ],
    [
      " ex",
      "pe"
    ],
    [
      "s",
      "aid"
    ],
    [
      "ur",
      "ien"
    ],
    [
      " t",
      "aken"
    ],
    [
      "il",
      "ed"
    ],
    [
      " re",
      "c"
    ],
    [
      "The",
      "n"
    ],
    [
      "ther",
      "n"
    ],
    [
      "ive",
      "nd"
    ],
    [
      " 'The",
      "re"
    ],
    [
      " sk",
      "y"
    ],
    [
      "t",
      "re"
    ],
    [
      "re",
      "l"
    ],
    [
      " c",
      "he"
    ],
    [
      "o",
      "ot"
    ],
    [
      " f",
      "ast"
    ],
    [
      " ho",
      "p"
    ],
    [
      " n",
      "one"
    ],
    [
      " wall",
      "s"
    ],
    [
      "unn",
      "el"
    ],
    [
      " bec",
      "ause"
    ],
    [
      "ove",
      "red"
    ],
    [
      " E",
      "ven"
    ],
    [
      " ke",
      "pt"
    ],
    [
      " ch",
      "o"
    ],
    [
      " c",
      "oun"
    ],
    [
      " p",
      "leas"
    ],
    [
      "g",
      "ing"
    ],
    [
      "u",
      "ght"
    ],
    [
      " W",
      "ith"
    ],
    [
      " A",
      "fter"
    ],
    [
      " 'The",
      "n"
    ],
    [
      " mo",
      "ve"
    ],
    [
      " Ro",
      "ad"
    ],
    [
      " under",
      "stand"
    ],
    [
      " S",
      "aur"
    ],
    [
      " hu",
      "ndred"
    ],
    [
      " '",
      "C"
    ],
    [
      "c",
      "le"
    ],
    [
      " l",
      "ad"
    ],
    [
      " Frodo",
      "'s"
    ],
    [
      " d",
      "ri"
    ],
    [
      "c",
      "ame"
    ],
    [
      "ure",
      "s"
    ],
    [
      " fall",
      "en"
    ],
    [
      " re",
      "ally"
    ],
    [
      " ac",
      "c"
    ],
    [
      " Strid",
      "er"
    ],
    [
      " A",
      "l"
    ],
    [
      "al",
      "in"
    ],
    [
      "w",
      "ould"
    ],
    [
      " out",
      ","
    ],
    [
      " L",
      "et"
    ],
    [
      " g",
      "ate"
    ],
    [
      "ve",
      "l"
    ],
    [
      " that",
      ","
    ],
    [
      "er",
      "s,"
    ],
    [
      "th",
      "r"
    ],
    [
      " ho",
      "st"
    ],
    [
      "ra",
      "ight"
    ],
    [
      " de",
      "ath"
    ],
    [
      " qu",
      "est"
    ],
    [
      " get",
      "ting"
    ],
    [
      " dr",
      "ink"
    ],
    [
      " clo",
      "ak"
    ],
    [
      "ert",
      "ain"
    ],
    [
      "m",
      "an"
    ],
    [
      "be",
      "fore"
    ],
    [
      " arm",
      "s"
    ],
    [
      " stand",
      "ing"
    ],
    [
      " Jom",
      "er"
    ],
    [
      "re",
      "n"
    ],
    [
      "e",
      "ed"
    ],
    [
      " '",
      "G"
    ],
    [
      " s",
      "le"
    ],
    [
      "im",
      "e"
    ],
    [
      " S",
      "ome"
    ],
    [
      " re",
      "p"
    ],
    [
      " br",
      "ing"
    ],
    [
      " t",
      "ale"
    ],
    [
      " run",
      "ning"
    ],
    [
      " Bagg",
      "ins"
    ],
    [
      " Sm",
      "jagol"
    ],
    [
      "in",
      "ed"
    ],
    [
      "on",
      "."
    ],
    [
      " e",
      "re"
    ],
    [
      " com",
      "es"
    ],
    [
      " b",
      "ig"
    ],
    [
      " b",
      "ow"
    ],
    [
      " G",
      "l"
    ],
    [
      " re",
      "f"
    ],
    [
      "us",
      "h"
    ],
    [
      " `",
      "But"
    ],
    [
      " l",
      "oud"
    ],
    [
      "ct",
      "ion"
    ],
    [
      " com",
      "pany"
    ],
    [
      " hid",
      "den"
    ],
    [
      " t",
      "or"
    ],
    [
      " on",
      "."
    ],
    [
      "il",
      "t"
    ],
    [
      " now",
      "."
    ],
    [
      " m",
      "ess"
    ],
    [
      " C",
      "ome"
    ],
    [
      "ipp",
      "ed"
    ],
    [
      " g",
      "az"
    ],
    [
      " Legolas",
      "."
    ],
    [
      " climb",
      "ed"
    ],
    [
      " b",
      "ird"
    ],
    [
      "ow",
      "yn"
    ],
    [
      " com",
      "pan"
    ],
    [
      " b",
      "eneath"
    ],
    [
      " B",
      "lack"
    ],
    [
      " t",
      "unnel"
    ],
    [
      "s",
      "l"
    ],
    [
      "in",
      "ing"
    ],
    [
      "ar",
      "s"
    ],
    [
      "ir",
      "r"
    ],
    [
      " v",
      "an"
    ],
    [
      " seem",
      "s"
    ],
    [
      " way",
      ","
    ],
    [
      " land",
      "s"
    ],
    [
      " m",
      "outh"
    ],
    [
      " ear",
      "th"
    ],
    [
      " re",
      "ached"
    ],
    [
      "t",
      "r"
    ],
    [
      "-",
      "g"
    ],
    [
      " f",
      "ing"
    ],
    [
      " d",
      "ro"
    ],
    [
      " D",
      "o"
    ],
    [
      " al",
      "one"
    ],
    [
      " back",
      "."
    ],
    [
      "ick",
      "ed"
    ],
    [
      " pre",
      "sent"
    ],
    [
      " remem",
      "ber"
    ],
    [
      " ne",
      "xt"
    ],
    [
      " forgot",
      "ten"
    ],
    [
      "-",
      "c"
    ],
    [
      "ot",
      "s"
    ],
    [
      " f",
      "ight"
    ],
    [
      " u",
      "s."
    ],
    [
      " th",
      "ick"
    ],
    [
      "or",
      "row"
    ],
    [
      " ",
      "imp"
    ],
    [
      " S",
      "uddenly"
    ],
    [
      "ha",
      "r"
    ],
    [
      " b",
      "ent"
    ],
    [
      "ard",
      "s"
    ],
    [
      "at",
      "ch"
    ],
    [
      " fl",
      "oor"
    ],
    [
      " d",
      "raw"
    ],
    [
      " gobl",
      "ins"
    ],
    [
      " trou",
      "ble"
    ],
    [
      " f",
      "ad"
    ],
    [
      " said",
      ":"
    ],
    [
      " A",
      "n"
    ],
    [
      " \"",
      "I"
    ],
    [
      " D",
      "war"
    ],
    [
      " f",
      "ather"
    ],
    [
      " near",
      "ly"
    ],
    [
      " dis",
      "c"
    ],
    [
      " hard",
      "ly"
    ],
    [
      " L",
      "ady"
    ],
    [
      " supp",
      "ose"
    ],
    [
      " count",
      "ry"
    ],
    [
      " ha",
      "ir"
    ],
    [
      " back",
      ","
    ],
    [
      " turn",
      "ing"
    ],
    [
      " sm",
      "oke"
    ],
    [
      "p",
      "re"
    ],
    [
      "n",
      "ed"
    ],
    [
      "or",
      "g"
    ],
    [
      "r",
      "is"
    ],
    [
      "m",
      "on"
    ],
    [
      "le",
      "nd"
    ],
    [
      "ro",
      "ad"
    ],
    [
      "e",
      "et"
    ],
    [
      " d",
      "ep"
    ],
    [
      " hand",
      "."
    ],
    [
      " l",
      "ine"
    ],
    [
      "ci",
      "ent"
    ],
    [
      " bre",
      "ak"
    ],
    [
      " foll",
      "ow"
    ],
    [
      "ori",
      "a"
    ],
    [
      " T",
      "irith"
    ],
    [
      "ro",
      "ll"
    ],
    [
      " c",
      "ast"
    ],
    [
      " an",
      "g"
    ],
    [
      "u",
      "red"
    ],
    [
      "us",
      "hed"
    ],
    [
      "rie",
      "f"
    ],
    [
      " per",
      "haps"
    ],
    [
      " I'",
      "m"
    ],
    [
      " af",
      "raid"
    ],
    [
      "c",
      "an"
    ],
    [
      "s",
      "et"
    ],
    [
      "f",
      "all"
    ],
    [
      "as",
      "ure"
    ],
    [
      " pre",
      "ci"
    ],
    [
      " cl",
      "iff"
    ],
    [
      " fr",
      "ont"
    ],
    [
      "ed",
      "s"
    ],
    [
      "m",
      "ore"
    ],
    [
      " H",
      "ow"
    ],
    [
      " at",
      "t"
    ],
    [
      " w",
      "ound"
    ],
    [
      " down",
      ","
    ],
    [
      " E",
      "lf"
    ],
    [
      "ic",
      "ul"
    ],
    [
      " st",
      "air"
    ],
    [
      " night",
      ","
    ],
    [
      " li",
      "ving"
    ],
    [
      " cr",
      "ack"
    ],
    [
      " gl",
      "oom"
    ],
    [
      " s",
      "urp"
    ],
    [
      " sit",
      "ting"
    ],
    [
      " com",
      "fort"
    ],
    [
      " st",
      "raight"
    ],
    [
      " m",
      "ut"
    ],
    [
      "il",
      ","
    ],
    [
      " le",
      "a"
    ],
    [
      " S",
      "un"
    ],
    [
      "ie",
      "ve"
    ],
    [
      "B",
      "ilbo"
    ],
    [
      " even",
      "ing"
    ],
    [
      " here",
      ","
    ],
    [
      " well",
      ","
    ],
    [
      " r",
      "uin"
    ],
    [
      " gold",
      "en"
    ],
    [
      "o",
      "b"
    ],
    [
      " re",
      "ad"
    ],
    [
      " for",
      "th"
    ],
    [
      " gi",
      "ven"
    ],
    [
      " Saur",
      "on"
    ],
    [
      " in",
      "t"
    ],
    [
      "w",
      "hat"
    ],
    [
      " m",
      "et"
    ],
    [
      " t",
      "al"
    ],
    [
      " b",
      "ore"
    ],
    [
      " B",
      "ag"
    ],
    [
      "at",
      "e,"
    ],
    [
      " y",
      "ell"
    ],
    [
      " sh",
      "ut"
    ],
    [
      " sh",
      "ore"
    ],
    [
      " out",
      "."
    ],
    [
      "as",
      "hed"
    ],
    [
      " su",
      "dden"
    ],
    [
      " c",
      "reat"
    ],
    [
      " En",
      "emy"
    ],
    [
      " em",
      "pt"
    ],
    [
      " J",
      "owyn"
    ],
    [
      "T",
      "h"
    ],
    [
      "-",
      "l"
    ],
    [
      "ha",
      "ll"
    ],
    [
      " w",
      "is"
    ],
    [
      "et",
      "s"
    ],
    [
      "b",
      "ack"
    ],
    [
      "ch",
      "o"
    ],
    [
      "u",
      "nt"
    ],
    [
      "to",
      "p"
    ],
    [
      " t",
      "ry"
    ],
    [
      " sha",
      "r"
    ],
    [
      "se",
      "em"
    ],
    [
      " Bilbo",
      ","
    ],
    [
      " bel",
      "ow"
    ],
    [
      " l",
      "eng"
    ],
    [
      "ab",
      "out"
    ],
    [
      " re",
      "ady"
    ],
    [
      " C",
      "ity"
    ],
    [
      " m",
      "iles"
    ],
    [
      " R",
      "ivend"
    ],
    [
      " f",
      "in"
    ],
    [
      "T",
      "hat"
    ],
    [
      " A",
      "r"
    ],
    [
      "ent",
      "ly"
    ],
    [
      " E",
      "nd"
    ],
    [
      " Bilbo",
      "'s"
    ],
    [
      "g",
      "reat"
    ],
    [
      " con",
      "t"
    ],
    [
      " n",
      "arrow"
    ],
    [
      " com",
      "mand"
    ],
    [
      "t",
      "s"
    ],
    [
      "h",
      "y"
    ],
    [
      " t",
      "ou"
    ],
    [
      "o",
      "at"
    ],
    [
      " c",
      "ir"
    ],
    [
      " b",
      "ad"
    ],
    [
      "ar",
      "ad"
    ],
    [
      " r",
      "u"
    ],
    [
      " re",
      "l"
    ],
    [
      "th",
      "is"
    ],
    [
      "er",
      "s."
    ],
    [
      " all",
      "."
    ],
    [
      " p",
      "ack"
    ],
    [
      "in",
      "to"
    ],
    [
      " li",
      "e"
    ],
    [
      "a",
      "way"
    ],
    [
      " ro",
      "om"
    ],
    [
      " d",
      "ra"
    ],
    [
      " O",
      "ld"
    ],
    [
      " tim",
      "es"
    ],
    [
      " st",
      "eep"
    ],
    [
      " fall",
      "ing"
    ],
    [
      " `I",
      "t"
    ],
    [
      " star",
      "s"
    ],
    [
      "are",
      "well"
    ],
    [
      "t",
      ","
    ],
    [
      "in",
      ","
    ],
    [
      " ",
      "er"
    ],
    [
      " s",
      "um"
    ],
    [
      " tim",
      "e,"
    ],
    [
      " tre",
      "es,"
    ],
    [
      " G",
      "ate"
    ],
    [
      "sh",
      "ip"
    ],
    [
      " voic",
      "es"
    ],
    [
      " lif",
      "ted"
    ],
    [
      " S",
      "ea"
    ],
    [
      " an",
      "cient"
    ],
    [
      "-",
      "h"
    ],
    [
      "ha",
      "nd"
    ],
    [
      "a",
      "it"
    ],
    [
      "d",
      "om"
    ],
    [
      " r",
      "ain"
    ],
    [
      "F",
      "rodo"
    ],
    [
      "i",
      "ves"
    ],
    [
      "au",
      "gh"
    ],
    [
      " open",
      "ed"
    ],
    [
      " c",
      "raw"
    ],
    [
      " cri",
      "ed."
    ],
    [
      " G",
      "alad"
    ],
    [
      "re",
      "w"
    ],
    [
      " m",
      "in"
    ],
    [
      " ",
      "ill"
    ],
    [
      " `",
      "S"
    ],
    [
      " Bilbo",
      "."
    ],
    [
      " lo",
      "ve"
    ],
    [
      " bec",
      "ome"
    ],
    [
      " f",
      "ail"
    ],
    [
      " 'Y",
      "es,"
    ],
    [
      " ris",
      "ing"
    ],
    [
      " le",
      "gs"
    ],
    [
      " whis",
      "p"
    ],
    [
      " d",
      "i"
    ],
    [
      "id",
      "ed"
    ],
    [
      " f",
      "ly"
    ],
    [
      "oo",
      "se"
    ],
    [
      " G",
      "re"
    ],
    [
      "s",
      "ome"
    ],
    [
      " He",
      "re"
    ],
    [
      " li",
      "ve"
    ],
    [
      " s",
      "qu"
    ],
    [
      " too",
      ","
    ],
    [
      " n",
      "ice"
    ],
    [
      " t",
      "ried"
    ],
    [
      " po",
      "or"
    ],
    [
      " des",
      "ire"
    ],
    [
      "d",
      "oor"
    ],
    [
      " drag",
      "on"
    ],
    [
      "full",
      "y"
    ],
    [
      " f",
      "aint"
    ],
    [
      " coun",
      "sel"
    ],
    [
      "a",
      "x"
    ],
    [
      "'",
      "d"
    ],
    [
      "en",
      "."
    ],
    [
      "f",
      "ar"
    ],
    [
      "ay",
      ","
    ],
    [
      " The",
      "ir"
    ],
    [
      " re",
      "s"
    ],
    [
      "th",
      "ought"
    ],
    [
      " de",
      "c"
    ],
    [
      " to",
      "ng"
    ],
    [
      " himself",
      "."
    ],
    [
      " '",
      "but"
    ],
    [
      " M",
      "oria"
    ],
    [
      " leng",
      "th"
    ],
    [
      "s",
      "m"
    ],
    [
      "u",
      "es"
    ],
    [
      " '",
      "B"
    ],
    [
      " B",
      "om"
    ],
    [
      " be",
      "ast"
    ],
    [
      " e",
      "ag"
    ],
    [
      " all",
      ","
    ],
    [
      " it",
      "'s"
    ],
    [
      " whe",
      "ther"
    ],
    [
      " tr",
      "ust"
    ],
    [
      " ey",
      "es,"
    ],
    [
      " s",
      "ort"
    ],
    [
      " B",
      "ree"
    ],
    [
      "l",
      "ted"
    ],
    [
      " for",
      "get"
    ],
    [
      "u",
      "ally"
    ],
    [
      "ab",
      "ly"
    ],
    [
      " chan",
      "ce"
    ],
    [
      "um",
      "bled"
    ],
    [
      " hor",
      "ses"
    ],
    [
      "r",
      "u"
    ],
    [
      "s",
      "!"
    ],
    [
      "c",
      "ed"
    ],
    [
      "g",
      "es"
    ],
    [
      " that",
      "'s"
    ],
    [
      "y",
      "our"
    ],
    [
      "ri",
      "el"
    ],
    [
      " w",
      "ol"
    ],
    [
      " sp",
      "ear"
    ],
    [
      " v",
      "is"
    ],
    [
      " 'I",
      "f"
    ],
    [
      " se",
      "nd"
    ],
    [
      " C",
      "it"
    ],
    [
      " gr",
      "as"
    ],
    [
      " Pippin",
      ","
    ],
    [
      " ar",
      "row"
    ],
    [
      " dwar",
      "f"
    ],
    [
      "ho",
      "bbit"
    ],
    [
      " spr",
      "ing"
    ],
    [
      " B",
      "rand"
    ],
    [
      " l",
      "ying"
    ],
    [
      "\"",
      "I"
    ],
    [
      "ot",
      "e"
    ],
    [
      "a",
      "im"
    ],
    [
      " m",
      "ast"
    ],
    [
      " sp",
      "o"
    ],
    [
      "e",
      "ven"
    ],
    [
      "if",
      "ul"
    ],
    [
      " rem",
      "ain"
    ],
    [
      " might",
      "y"
    ],
    [
      " 'N",
      "o"
    ],
    [
      " l",
      "uck"
    ],
    [
      " ston",
      "es"
    ],
    [
      " F",
      "orest"
    ],
    [
      " east",
      "ward"
    ],
    [
      " quick",
      "ly"
    ],
    [
      " Ent",
      "s"
    ],
    [
      " plac",
      "es"
    ],
    [
      "nes",
      "s."
    ],
    [
      " ex",
      "cept"
    ],
    [
      " be",
      "aut"
    ],
    [
      "ed",
      ";"
    ],
    [
      "ld",
      "om"
    ],
    [
      "ir",
      ","
    ],
    [
      " m",
      "ad"
    ],
    [
      " c",
      "am"
    ],
    [
      "the",
      "n"
    ],
    [
      " G",
      "o"
    ],
    [
      "w",
      "ind"
    ],
    [
      " li",
      "es"
    ],
    [
      "th",
      "ough"
    ],
    [
      " hand",
      ","
    ],
    [
      "bl",
      "ing"
    ],
    [
      " may",
      "be"
    ],
    [
      " my",
      "self"
    ],
    [
      " night",
      "."
    ],
    [
      " en",
      "em"
    ],
    [
      " g",
      "ather"
    ],
    [
      "aster",
      "n"
    ],
    [
      " answ",
      "er"
    ],
    [
      " s",
      "ide,"
    ],
    [
      " mid",
      "dle"
    ],
    [
      " sa",
      "fe"
    ],
    [
      "d",
      "o"
    ],
    [
      "n",
      "er"
    ],
    [
      "ou",
      "s,"
    ],
    [
      "t",
      "ong"
    ],
    [
      " m",
      "ark"
    ],
    [
      " s",
      "ear"
    ],
    [
      "est",
      "ro"
    ],
    [
      " fl",
      "at"
    ],
    [
      " ey",
      "e"
    ],
    [
      " f",
      "ig"
    ],
    [
      " return",
      "ed"
    ],
    [
      "wh",
      "ile"
    ],
    [
      " d",
      "well"
    ],
    [
      " ch",
      "ief"
    ],
    [
      " Wh",
      "ite"
    ],
    [
      " cour",
      "se,"
    ],
    [
      " ha",
      "lt"
    ],
    [
      " sh",
      "ining"
    ],
    [
      " l",
      "augh"
    ],
    [
      " f",
      "re"
    ],
    [
      "an",
      "s"
    ],
    [
      "le",
      ","
    ],
    [
      "ay",
      "ed"
    ],
    [
      "en",
      "se"
    ],
    [
      "f",
      "ast"
    ],
    [
      "ag",
      "es"
    ],
    [
      "ee",
      "ch"
    ],
    [
      " do",
      "om"
    ],
    [
      "ion",
      "."
    ],
    [
      "a",
      "pe"
    ],
    [
      " tim",
      "e."
    ],
    [
      "v",
      "ish"
    ],
    [
      " p",
      "rom"
    ],
    [
      " So",
      "on"
    ],
    [
      " hu",
      "ge"
    ],
    [
      " en",
      "emy"
    ],
    [
      " van",
      "ished"
    ],
    [
      "m",
      "y"
    ],
    [
      "s",
      ":"
    ],
    [
      " ",
      "1"
    ],
    [
      "ar",
      "y"
    ],
    [
      " t",
      "id"
    ],
    [
      "h",
      "ill"
    ],
    [
      " p",
      "ur"
    ],
    [
      "at",
      "e."
    ],
    [
      " T",
      "ook"
    ],
    [
      "ck",
      "on"
    ],
    [
      " more",
      "."
    ],
    [
      "ow",
      "ers"
    ],
    [
      "h",
      "old"
    ],
    [
      " po",
      "ss"
    ],
    [
      " Gollum",
      "."
    ],
    [
      " gobl",
      "in"
    ],
    [
      " list",
      "en"
    ],
    [
      " c",
      "ertain"
    ],
    [
      " e",
      "cho"
    ],
    [
      "-",
      "p"
    ],
    [
      "Q",
      "u"
    ],
    [
      "s",
      "er"
    ],
    [
      "ver",
      "al"
    ],
    [
      " he",
      "al"
    ],
    [
      " p",
      "ain"
    ]
  ]
}